BEB
DF9
028
CBD
FAB
F22
FE3
24F
11F
B04
DC8
1DB
066
0E5
319
D8C
DBF
EB6
D18
072
EE6
F09
CA9
30E
372
B4A
15D
196
1BE
E55
AA3
00F
1F1
F26
178
15C
C65
FCD
E44
BBA
9E9
145
198
0D5
08E
2F4
B4D
CF9
D05
1A7
14F
D43
FA0
17F
BE7
061
C8D
D09
E90
CAA
16C
F5B
D22
0EA
AFC
28C
FB2
EE3
0E2
EC9
109
F67
1EE
3AB
0C8
058
107
1C6
191
FED
014
D43
115
2E9
FD5
BF3
F3A
0C3
00C
00A
FE8
1D1
0CD
1D8
BD1
F08
FA4
2D1
E3C
AE3
E0D
00D
079
0E8
EB3
075
9C3
0C0
15C
10A
F03
26F
EEE
190
1D9
07E
E5B
D04
199
174
F52
B59
E61
16C
1DF
FF5
206
1A0
