00B
002
7A9
773
72D
78E
7AB
7B8
6E7
711
71A
745
777
7C4
783
772
777
7A7
6BA
5C5
5EC
69C
698
635
668
7F3
752
7F1
7D0
015
74C
744
6D3
6C4
6C5
65E
651
071
612
735
738
765
79A
713
6CF
6BC
5CF
5ED
5F6
570
689
651
679
6BC
7A6
012
01F
053
77F
722
626
6A7
638
623
5A8
69F
6E7
761
691
773
717
7A7
6D6
6D9
5C5
7EF
5A9
638
5F9
6A2
5CD
649
7AE
002
061
019
7B7
75C
61C
604
5D7
5FC
655
6E5
7A2
75A
725
79E
6C2
73B
6AD
69E
5E0
5F8
58C
5A6
5C8
63E
666
5D3
700
70C
79A
042
6D9
6C9
653
653
701
6E4
795
782
78F
73D
71C
6D3
708
768
061
7A0
7B2
786
713
743
709
629
5F5
65E
741
006
08B
00A
733
6D7
757
76C
72E
75E
71A
7C7
799
766
74E
78E
7CA
7FD
00B
058
007
02E
021
04A
7C0
7E7
7C3
789
7F4
05E
054
783
795
794
78D
7C1
785
783
75C
7E4
75E
75B
7AD
7CF
020
05F
081
03E
00B
0BB
0A9
04E
06F
075
0E8
065
783
0CE
040
7AE
7DB
7C1
7B6
7DA
7AA
7A3
7C3
777
7B2
7C0
051
060
003
09F
0AA
026
047
7D4
7F3
020
0C5
047
09A
070
125
17F
07B
74B
79B
772
7D9
05D
769
743
6FA
7AA
78E
77B
770
7FC
7D7
7C9
7E8
73B
7A1
788
7EF
01A
030
068
025
086
03C
101
015
02E
026
7B3
6BD
785
7A9
720
758
73D
790
786
7AE
7FD
7FD
7BC
7D9
7FC
018
7FE
7F0
7F0
019
051
0A7
14E
016
069
028
0E8
029
7AE
032
7B0
7C5
7E5
7A8
7C7
771
79B
7BD
7E5
000
023
057
04B
0A0
033
05D
01A
000
04D
0F7
016
72F
792
04F
03C
018
01F
032
005
004
016
7DB
7D9
7A9
7BE
03C
7D8
7C6
7FA
029
02D
02D
02F
004
020
078
087
0C5
00F
7AD
746
7F0
051
7FB
00A
0AC
116
0B6
0CB
03E
068
017
017
05A
7F3
019
00B
7DA
7EC
7C4
7F4
028
03A
0AD
0F9
01B
74A
7C4
79B
10B
0B1
799
07C
0CA
158
171
13C
119
0A5
03F
7D5
037
050
059
04B
7F1
01B
7DC
014
07D
09F
0BF
0CC
07B
030
7C0
028
0B9
0CA
022
07C
11B
14F
100
118
0E4
087
096
013
008
7FD
014
018
013
7E4
00A
07D
0FD
088
084
04C
7E3
78F
003
7EF
01D
0C6
103
12E
0F0
11C
0D5
0ED
0DE
0A6
0A3
04C
7BA
018
026
051
04B
013
03B
086
0F1
071
7CF
769
7E8
026
095
088
060
07C
104
16E
13D
0C3
0CA
008
084
080
095
013
7E9
05E
054
042
043
08B
7EF
05E
076
7F1
78F
76B
7EB
7ED
060
068
04F
798
0B1
125
132
06C
081
05A
031
005
015
7C7
7F8
08F
09B
091
068
059
7CB
7E7
7AF
7FA
7C3
741
793
782
7E9
7AA
7F2
769
03D
0BB
055
7E4
7DE
0AE
7DC
7A4
7FF
7AE
7AD
000
051
01D
041
7E2
7FC
7D9
7B9
75F
76D
713
6FB
773
7EC
7D0
057
7AE
7A7
024
772
6BB
715
77A
727
6F9
74A
780
7E4
023
024
7F2
03B
7D0
7D9
7A4
792
77E
7E3
763
758
783
77E
0BB
009
790
705
754
6EA
70A
6D8
72F
70C
73D
753
000
7E2
07D
02F
7FE
7E3
7D3
79D
75D
780
7AD
7AF
783
77E
7E9
0D4
1E5
02F
798
723
6DB
696
766
771
786
790
006
7CA
7DB
003
7F1
7CF
03F
7F5
7FA
7BA
78B
76F
7B9
030
7F0
004
04F
1A1
185
011
783
6CD
6E2
737
6E1
743
7D6
00A
7FC
057
037
068
011
00B
03B
025
040
000
063
7F1
024
7F3
07B
0E0
0F0
198
13A
00A
7AA
70B
72E
785
6FE
773
7A6
7D6
7D9
7F3
020
026
055
7FF
7EF
04A
078
040
0C3
06F
0E9
0DA
132
149
0A3
15D
08C
7D2
7B6
730
703
7E7
7B4
7A3
7DD
7EE
00F
7A4
00A
7F7
065
7DD
045
7F0
017
7C1
7DD
024
06E
05D
0DF
1C9
122
0DB
0C2
7E8
7E7
6F5
738
7A8
002
017
7E7
737
706
7C0
7EB
010
7FD
7E0
7B5
02B
7AD
7C6
734
778
7D4
073
106
0C6
102
080
7DF
750
744
7FD
041
055
026
7F1
7D0
7E2
79B
7CA
7CA
7FE
023
7FD
7EC
7E6
014
7B3
01A
0A7
1A0
1C2
109
0E6
078
0C2
7DD
77B
797
009
77D
006
01E
00A
067
011
79E
023
0A3
7CA
07F
093
0C3
0FF
0D8
11D
202
1A7
1FF
1B1
014
088
014
7C6
7E8
