000
014
7F4
019
067
0BE
0DB
0E8
0B8
030
789
718
6F7
002
75A
003
040
08C
028
740
003
7C7
008
06D
7C9
10E
79B
7E9
020
7F7
06D
0F7
093
108
07C
0E5
08E
100
023
7D1
006
08B
0B3
087
00F
7F1
7B1
755
6FE
6DE
7BB
7DD
78C
75D
02E
765
0AA
048
086
12B
11C
09A
054
101
101
0E1
174
101
105
08C
07F
011
714
70B
6D9
009
69A
67C
758
71B
6E5
79C
047
004
01E
09C
02A
013
07C
033
08C
07A
120
14C
02E
7CD
76E
72C
6BE
5E2
6D9
6FB
72B
735
7F4
027
029
052
076
78F
749
7F0
00F
0AE
7AD
7D7
7C2
029
7D0
018
7DA
781
709
734
74E
777
032
03E
06A
0AA
00B
020
004
7D5
7DD
7CE
760
714
736
6D5
0A9
7F6
7AB
015
7DC
7A3
7B2
72B
6F0
6FB
709
76B
7FC
7F9
06B
057
037
7F6
7F2
79B
746
767
74E
714
751
745
6CA
765
044
005
7F7
052
7E0
028
761
7B2
783
76E
7FA
7CA
04C
020
7FA
7B2
028
010
038
00B
7DA
7D9
7F3
7D0
798
7B7
756
78A
7FD
036
024
7F9
7C0
767
747
78C
000
038
031
053
014
7BE
01C
061
06B
027
027
05A
051
069
07F
09A
041
732
7D3
036
7E3
02D
001
7CC
71E
7E9
79B
044
032
024
066
7F3
01A
04F
000
7FB
015
004
7F4
027
03C
043
0A2
067
00C
7AE
798
7DC
7CA
04A
796
7BE
734
7FA
7BD
7FC
7FE
7F3
01F
008
049
033
00D
025
012
7D2
027
0D3
07B
0A5
0AF
130
125
7E8
776
139
7A8
7A7
797
7F6
7C3
02A
002
02A
01E
009
7DF
001
003
7B4
7F8
024
7F1
7AC
02B
08A
06B
0BF
082
029
096
7FA
7F2
06D
747
7AC
7F4
032
7C0
7EF
7E0
00C
7EA
00C
7DE
001
7DD
01A
7AC
772
00C
7D4
7F7
7ED
05D
062
009
058
029
743
7C9
77A
73B
02D
077
7DD
02A
78C
7F6
013
010
017
7CC
03E
7F3
05A
763
011
7FC
7BD
79E
798
75F
754
7BA
7C3
76A
66A
62B
6FA
73C
788
03C
005
7E9
7DE
7BA
7C6
012
039
02C
089
088
7F8
059
7DB
017
7EC
7C0
749
741
701
707
73E
6BA
654
610
76E
745
0A0
018
00A
061
038
7DF
7D0
00F
036
031
03A
045
02D
025
029
7B4
777
761
76A
6F7
6CC
6BC
794
6D3
5C3
618
731
7E9
00F
052
031
06A
028
01B
7E7
7CA
063
070
075
0A2
04D
042
07A
01E
7D5
761
6FD
721
6D4
756
68F
661
6B8
69F
7A0
095
077
074
059
01F
054
036
7DE
7FD
02C
07B
0D6
08A
08D
076
02C
033
03F
7DE
79F
75B
70E
75E
715
72B
6FE
779
755
0CF
031
7D1
01A
01A
025
020
006
7E0
029
02A
052
02A
7E3
041
025
042
06E
07A
059
79A
745
7CB
6ED
750
712
769
7AC
05A
7F0
031
00C
020
026
7F7
00F
7E6
7B6
7D6
7D4
003
7F9
077
00E
03D
04B
07B
082
018
7ED
7CF
7B6
7E3
7AF
79A
030
0B1
7BF
7AD
04E
021
7EE
7FB
016
7F4
7B5
76B
78D
7FA
7C6
04F
012
7D2
043
022
076
04A
005
775
7BD
090
02D
7EB
063
131
7FB
7B3
02B
7CC
07B
046
01E
02F
010
7A0
75B
7F4
7FD
7F5
005
7ED
024
0BF
088
07E
01C
7C4
7B1
023
7E5
045
02B
134
053
032
026
046
002
05C
00F
015
026
012
7E5
789
006
7F0
7D2
7C3
7DA
063
088
058
06F
006
79F
7A7
78C
071
14C
074
029
034
76E
7BE
7FA
793
762
006
00D
047
020
00C
7EE
7E7
77A
775
7EF
7E9
0C2
0CD
059
006
7C3
057
060
04E
05B
0C2
071
7CB
04E
795
7D2
79D
7B1
7F2
7F4
005
014
06E
04F
7C7
7B5
7D8
7DE
7C4
092
138
0E7
06B
091
073
064
0AE
124
044
04F
719
7DE
04A
00D
051
019
7E9
03A
7E5
02C
01F
00E
7EB
033
01B
7EA
797
7F4
10F
07B
7CE
052
0E0
086
05D
045
026
7C0
78F
7D6
00D
069
07B
04F
05D
023
010
7BF
7B6
013
03D
00F
02F
7C3
00F
00B
085
029
082
077
079
7DA
056
01C
0A1
7F7
00F
7F9
7E1
7F8
7B8
02B
7E9
7D8
7CB
7BD
7A9
7AB
7D7
7CC
7EB
006
06D
047
0CC
056
143
0CA
0C5
0C1
0CC
008
0AC
7C7
08C
7E1
7CD
7AB
7C2
77B
768
7DB
014
000
7E6
017
79D
025
7BC
7BC
070
0B8
137
0DA
167
0FE
0F3
06A
03E
002
