7F5
020
04D
7B7
08A
76E
67B
714
012
75A
7F0
061
0B6
058
123
0C9
10F
0C8
0B3
0E5
07A
0B6
021
7C1
73B
7E3
032
793
06C
007
03B
7A8
775
71E
7F6
7F2
027
094
022
09F
0BA
7ED
063
7B8
021
032
7B5
01F
7F4
073
0CF
7F8
082
08B
06E
7D2
011
083
7EA
73E
75C
7B7
01D
02F
032
052
017
057
05D
059
062
041
07F
040
037
7C2
7D1
040
7DB
7BB
054
052
7F9
047
024
7B5
78E
7FD
7EE
7B1
7D3
7C2
7B4
7A1
00D
79F
7C2
7DC
778
01B
7F0
005
7B7
049
7AF
757
74E
794
003
019
7D0
7C2
086
73F
036
02F
7F7
041
7E4
02B
7C9
7F0
008
017
025
7F2
029
01B
7E3
007
7B2
050
03B
7C9
7D2
771
71C
7C1
000
7FE
07E
7FB
795
022
043
044
07D
021
051
052
00B
7F1
068
7E4
04F
073
03A
08F
024
06D
01F
07A
011
7F1
7A5
7E0
758
006
0CD
054
061
013
010
092
7A7
069
054
051
010
002
038
017
00E
035
7F7
78C
7C5
02C
01B
03C
047
022
7F7
059
7AF
05A
7A3
095
05A
02A
012
081
04F
01A
06F
03F
016
027
7FF
02B
032
025
78A
7AA
7BD
7C2
7CB
087
085
055
7BF
7E7
00F
036
024
0AE
0B0
7F8
036
0A3
0AC
000
02B
048
033
007
015
009
060
017
017
7D1
7BF
008
7DB
7F7
026
00C
7D6
7E9
7C1
7F5
739
051
0BC
044
042
7B7
7F3
7E5
009
7D1
036
061
089
085
06E
0CD
072
7ED
798
7B1
7B2
7D1
7F4
049
7F9
02B
02C
7A5
7F8
7C1
7A5
7FD
018
7D5
7E4
044
033
037
015
06A
05A
01F
7BD
05A
7F1
764
7DA
7BB
77C
79F
7C1
049
7DD
7D1
02B
14F
763
746
7F9
7BF
7C4
7BB
7B6
799
7DC
7C9
01F
03B
7D8
7BD
763
032
01C
7A0
7E9
779
7A9
75E
7A2
7EE
02F
7D4
005
070
759
7A5
7B1
78F
7F8
75D
7CD
780
75A
7EC
027
7EC
7F2
790
7D8
7D2
021
764
7D6
798
028
7CE
7C9
7F6
049
0A6
018
02F
7E8
73D
7C3
768
79A
7C7
74A
7B3
773
799
7FB
7F1
7C1
77B
004
04C
00F
7B3
7D6
7A9
7BF
790
797
7A1
076
09C
044
010
7F0
7B8
7F6
7AC
781
007
7BA
7D0
781
7C7
7A9
03A
7E3
7BE
013
7D8
7DE
7B4
7E1
7C3
00E
794
7A7
7F0
7BE
00C
7EC
0B7
0A6
019
028
7FB
7E1
7F6
00F
015
7FE
7B3
76C
7CA
7DC
787
786
004
7B9
7A6
7F9
7B7
7FA
776
017
07E
01E
08D
060
0B8
041
064
02A
00E
769
7CB
002
7CE
01E
7FC
774
007
7C7
7A1
7CD
7A3
7D4
7DA
010
7B9
796
00E
79E
0A2
060
7D3
018
169
7B8
78C
7D5
002
7CB
7B8
7DF
7C8
766
014
7FC
7ED
745
7B9
79A
029
00D
7CE
7F6
7A8
7F9
078
018
0BA
7EC
010
7C0
0B8
7FB
7DB
7FE
00C
068
021
00E
067
020
7F2
7E5
015
7E8
7F3
043
055
08A
009
014
017
011
061
089
026
7E5
066
7FE
060
026
042
078
076
08D
0FF
089
0E2
086
043
077
09A
09F
03D
021
060
02D
7FD
05C
02F
041
077
072
0A3
02D
788
762
05D
018
080
0DB
116
0CB
134
0DD
0D5
113
139
113
0C1
0AB
11C
0D7
08D
072
04F
045
072
121
117
107
0C2
73F
720
6DB
028
7A8
0F7
0A1
10D
131
127
109
0BD
0B1
09E
0E0
0CB
0F2
0D8
0F9
079
0DF
08D
0CF
130
109
080
090
79F
770
700
74B
7BC
0CF
0FD
1B8
0F7
10F
0B3
0CE
060
067
130
0C2
0DA
0C3
0BC
0BB
099
07A
0B0
0A9
0A3
0D7
0A2
01A
75E
70F
728
7A3
794
094
124
054
05E
0B7
081
06E
0BF
075
0F8
0BE
0EC
06B
08B
091
048
07E
0A9
00C
038
015
04C
035
7F2
795
7A7
765
061
072
6F6
7BA
78D
027
080
0C4
076
141
073
0AC
03D
06D
0B8
0B8
0A3
0B7
084
0E8
02F
05D
113
0E2
01B
7B9
7A1
7B2
07A
04E
7D9
02C
7A3
7BE
077
183
0B8
272
1C6
0B8
096
080
0E0
0AA
121
095
06E
034
072
00E
061
0D9
055
028
024
079
7D0
048
013
081
066
7B9
184
1DE
229
21F
230
100
0BF
016
0E5
0AC
0AB
0A2
097
000
01A
031
7C5
7A6
7FF
7E3
7ED
7FD
019
020
04C
04C
0A5
110
7E6
0FA
084
154
0FE
0E5
058
00C
049
086
074
0E3
0F0
120
16E
0A7
09D
7DC
048
072
789
7C0
014
