00F
7EF
065
07C
0D2
0AA
050
0A9
7FF
7DD
7C5
059
7CD
7A4
02E
0FA
09D
150
099
0F2
111
0D6
080
062
047
7F8
0BD
789
0A1
006
7C2
06F
079
0AA
0CB
05A
08B
08E
037
011
056
032
04B
054
0EC
0CC
046
059
0C9
010
073
7A6
72B
74A
78D
7BD
7FF
010
720
7C4
008
754
7E0
045
03E
002
038
058
048
046
01E
01E
7FC
7F5
040
085
12D
064
084
080
00F
7A0
050
769
722
6B4
74A
013
79A
7F3
025
0B3
00B
01B
7E6
012
001
02A
7B8
7D0
7EC
7E3
025
0C0
0C8
0A2
028
774
722
7D0
091
7BE
71D
708
7C0
7B2
7CB
027
010
027
040
008
03E
08D
016
077
025
016
057
018
032
76A
70F
7B3
6C0
666
67E
65B
7ED
7E3
75D
6E8
7D3
011
05C
7DB
046
7EA
023
05D
096
012
07B
036
7F3
7F7
747
754
662
651
5B6
57F
5A7
482
527
5E3
71B
723
7DB
7F0
04F
008
063
0AC
082
033
08A
05D
0D5
0A4
051
7FB
758
738
6CB
670
662
5ED
526
547
567
57C
59D
5FB
6AF
7ED
08A
71D
06C
007
045
7D4
03F
05E
0B1
03F
075
00C
7B7
722
6E8
74C
72F
724
6CC
74F
706
6BB
70E
784
790
74F
730
0BB
76A
021
077
03A
01D
017
0A8
00D
07E
004
7CF
768
767
745
782
786
7DA
00F
01A
047
047
069
01E
04C
7FA
793
070
0FB
6C8
7E4
088
06C
041
06A
082
00D
003
007
01C
7BC
78C
7D6
7CD
020
7C4
7E3
083
053
0A9
03E
069
027
075
7C1
053
15E
014
086
076
063
059
05E
034
031
050
063
7D4
7E2
018
064
09C
05F
0C6
10D
0C5
119
100
0BC
064
06E
06C
037
074
0BF
06C
00C
07C
09C
0CB
05A
036
054
06D
02E
01A
024
021
02E
04E
09E
131
0E7
14C
0F8
0D0
0BC
0E1
095
0B0
060
0AA
0EE
7D3
7D9
063
058
037
7CF
080
030
031
7D3
7DC
7DD
7F6
037
02B
0CE
113
12E
0F6
0A0
0A4
046
03C
068
04A
097
068
04A
756
769
795
03E
7FA
7F5
7F3
7D7
7D1
7AB
7F1
7F3
00E
7ED
01A
04C
04B
080
039
011
02C
01E
029
7B1
030
035
0C2
0A6
78C
786
764
79C
7C7
7C5
01C
01F
7E5
7DD
7CB
037
7A9
7BE
032
019
7C6
7E9
7D2
7DC
7C7
008
03E
037
7F9
7E2
014
067
76E
7DE
7E5
7D4
7AF
77B
7E7
79F
7E7
7E8
7E6
7B6
7AD
7DF
024
032
7A9
7E9
7C9
7E2
7D4
01F
7EB
06E
031
7DA
02F
124
719
7E6
7C0
01B
7BA
7E5
7C5
793
7E6
7B7
011
7C9
040
7C3
7C7
001
005
7DD
7D1
7F0
7DE
7F7
041
01C
043
7D1
011
0EA
6C7
035
7F7
796
00E
014
7C8
02C
017
015
7CC
7D3
7ED
009
7CA
7CE
000
7D2
005
012
7B7
00A
01F
03C
014
7D0
05A
025
7B4
030
001
7F2
017
00A
7D1
031
004
04B
030
7DB
7CF
7D7
7F5
7DC
7CF
7D9
7FF
007
016
003
7FD
02F
025
003
043
035
769
04A
7A5
7CE
031
02D
7EA
03B
01B
013
00F
7F3
79A
7CD
7DB
7B6
7DB
7A5
7EA
01C
7E9
002
7C9
002
005
072
7AC
03E
7DC
7DA
031
7B4
7FC
053
03E
02A
029
03B
016
7F2
7F0
7DB
7E1
796
016
7DA
030
77C
004
7E0
7CE
7B9
009
082
7E9
72F
73A
007
7CD
7D7
7E7
7CB
037
7C5
032
04A
019
7F0
7CE
7D4
7BC
7C6
7A5
7B7
7F3
780
03B
002
7C0
7EA
01F
7C6
7A2
708
72F
0AB
7DB
7DF
7B5
029
7F6
00A
01C
011
7CB
7E8
79C
796
7B1
799
7FB
778
7FD
7EA
7CB
7C2
77C
7E8
75E
05C
729
048
7AB
7E4
7A8
7F9
7F4
7E5
7ED
7E2
7F9
031
775
797
7DD
7B9
7A1
7C0
7C4
7FD
7BF
7FA
7DD
761
7A5
79E
000
031
7AB
0AF
6E8
002
7D9
7D4
7BF
01C
02D
7D9
750
7C5
01F
7CF
7FE
01E
7BD
7DD
7C6
7FD
064
7C7
00E
766
79B
74F
7FA
7DB
046
091
750
02B
780
00D
7B5
7FB
7F0
03B
02E
00C
7D3
01D
00C
7BB
035
7C3
006
779
762
002
7DD
780
76A
783
6FD
016
02D
00E
77E
03E
004
7A7
7F3
00B
78A
7DF
04B
7C7
00C
04D
7E9
7E1
7A5
7D6
7CE
7AD
7D8
7D0
724
6B2
76F
7A8
73C
0B6
7F2
01D
73A
088
7DB
7AC
7FE
7A1
770
78E
7AE
761
7E1
7A2
027
003
7CC
065
7F8
7E8
7B6
6DF
766
7D8
786
7C3
09F
093
003
016
