021
021
7C9
787
76E
00D
7C2
7AA
013
00A
7DF
7DC
7F7
791
79E
027
04F
0A6
069
03E
7D9
796
011
03C
0C2
0AC
084
089
716
7E2
048
0A6
09F
053
7E8
793
7CD
019
7FD
041
7DC
001
7F4
7D6
00F
7D2
7FC
07A
08A
052
03E
060
036
086
79D
755
042
028
7FD
07A
7F9
064
027
010
767
7A2
772
005
049
021
002
01A
7E4
020
016
04C
046
025
7E3
7E8
7D2
00A
707
034
04A
056
7F4
7D5
793
740
7C0
7FC
7E1
7EB
7C3
7EA
7D7
024
048
7DB
021
036
011
042
7F2
086
01C
028
789
024
03A
004
09C
7FB
017
061
7AC
01A
013
0B2
038
043
060
047
001
020
7F1
03C
022
06E
7F6
027
02A
060
7F4
7D1
006
7B8
7A6
05D
14E
0D6
087
0B5
0C7
0DC
0B0
05A
091
073
079
054
066
06B
007
034
005
054
017
012
00D
7FE
7FF
036
028
03E
7F1
045
112
0D8
0C7
0E9
0DD
122
0D2
0D9
059
094
071
05E
004
088
06F
03F
021
018
004
013
011
013
7FF
7D9
7F9
047
764
7AD
000
0C5
0F2
105
0BD
117
11F
0F4
096
062
067
020
02D
06C
00F
002
009
02E
038
06E
010
034
7A6
00A
7E5
7C9
7C4
7AB
16B
15D
0D6
153
0E1
08E
083
0AC
06F
04A
7EA
7F1
7DE
7CD
7FD
7F6
002
7F8
055
000
029
008
05D
07A
03D
79E
795
00C
08A
051
131
0A3
08A
004
002
011
79C
7BC
7E8
7CD
023
7EA
01C
025
00A
004
01D
05A
025
016
054
034
01A
7E4
777
6EB
054
744
032
792
753
735
6DD
703
6D0
7BB
7CF
7C7
7CC
00D
018
04D
032
080
004
018
044
02E
004
7F5
763
77B
763
7F9
781
69E
676
628
5D4
64E
682
6B2
72E
7A4
798
7C8
010
00D
046
7FB
021
069
7DB
7D4
7B7
76B
7D3
735
7C3
5E8
7B8
6F8
6A1
625
57F
647
7ED
652
7AB
737
787
7D3
7DF
022
7FB
03A
01A
077
7F0
036
7BA
77E
784
77D
765
76A
6FE
6DE
704
787
03F
5C0
5AC
5C8
678
775
779
029
7F1
7EB
00B
026
7F7
03F
059
01C
785
7B2
785
785
7FF
7A7
7D0
79B
790
7D9
79E
02D
05A
70A
690
6FF
77B
7FD
7EF
025
003
007
03F
01B
049
044
021
7F2
7E1
7A8
7B9
7DF
7B0
7B3
007
798
007
005
06C
050
7F6
7DD
7DC
006
7F9
026
038
7DF
038
03C
05D
044
04D
0AE
02A
7AC
7D3
7C6
001
7EA
00C
029
7F6
001
038
01F
7EA
0D6
0A7
07A
068
08A
07C
07F
047
008
020
02E
00D
04D
017
7F5
75D
75E
7E8
7CB
7FF
7EC
025
022
02B
030
07D
06D
01F
00D
09F
00F
0F8
097
06B
08D
069
05F
060
079
042
04C
01A
7C1
79D
7F4
00F
020
03A
034
087
044
00C
0A3
051
7C3
032
01E
096
7FA
0A7
04E
03D
07E
070
034
07C
031
05F
004
7D4
7D8
7BB
7BA
7F3
00A
7F0
049
019
01B
7FC
02C
058
77A
056
06F
03F
06A
04E
055
073
06A
020
036
052
7FD
7C3
7A8
7E5
777
7F1
7E6
7D9
7F6
027
050
7E0
7F7
03F
7C8
7BE
7ED
79D
7D9
7D3
7F4
03B
030
025
021
00C
033
7F9
7F3
79B
7BC
7E2
7DA
7A6
002
7D3
7C2
7F7
7FD
7B5
004
018
7A7
794
783
782
738
02C
7CF
08A
7E0
011
014
00D
00A
00D
7FC
002
015
7E1
00B
7BB
016
7D0
7CF
001
024
7EB
7B0
7EB
745
728
70A
722
6EE
797
010
01F
03F
019
7F0
080
010
02A
000
7DB
7DF
7C5
038
00B
7F4
7C0
7CF
00D
751
71B
704
6D6
7A3
7DA
7C4
73F
728
73E
021
7D7
7D2
7B7
7C7
033
076
7DF
7FA
03C
7E5
003
00A
7D3
7F5
7E6
004
7DF
7CA
758
78C
7C7
788
7F0
7BB
735
7AD
02D
7BA
78C
7D0
7AE
7DF
7DB
7F0
7FA
776
005
7C9
780
7D4
7B5
75D
780
074
036
7DD
7A6
7C7
79C
7F7
044
7C6
786
014
7D6
030
77E
7EC
726
7C9
7E6
77C
799
74A
767
6F3
70D
020
7AF
791
737
757
0CC
7AA
082
778
7FB
02A
074
781
7BC
017
7E4
795
034
76E
73E
749
7DF
7E9
71C
793
7EA
7C6
03F
00E
00F
721
7E3
7ED
7EC
019
01F
7B5
06C
01C
020
7EB
7E1
7EA
02A
037
7B6
003
7D4
729
727
04C
7F3
72B
794
764
7CE
7C9
03D
7DA
7E2
050
055
083
0A8
777
7B4
77F
70E
071
033
017
