7FC
002
7AF
7CD
01D
012
07A
05B
13B
0ED
0CB
0BA
096
0A9
010
07A
068
03F
0CD
0C6
07B
767
02A
042
7FD
7C6
6D3
77E
02B
7DE
77D
0E1
14C
0E7
0D0
095
0C3
03B
103
070
084
01A
08A
0A1
022
0C3
7E7
0A7
7E6
020
014
041
7A8
7A8
6E9
7D1
03F
7D8
10D
0D1
035
0C1
131
0D6
0F9
0B7
055
0D8
022
09E
7C4
047
072
05D
051
06D
7F2
039
7EE
7A9
006
08B
6BA
622
0D7
009
0A4
7EC
0D4
0CD
131
12B
124
111
060
0AE
0AE
011
036
024
050
027
037
062
0C3
030
003
044
031
038
01D
5A5
15E
003
7D9
078
0C8
0CD
0E7
130
067
076
0A2
0A5
03C
054
047
045
014
041
053
01A
06A
045
03B
032
0A0
018
7F5
616
0C1
044
7DB
020
7D3
003
7D6
763
7F6
7C9
7B1
7D5
032
01B
051
7F6
7EF
05C
030
033
007
01F
0AF
042
069
055
003
6D8
04D
070
6F6
6F4
685
6B9
637
69B
6D0
6AF
793
744
7C3
7E4
02E
7D6
021
039
066
020
036
07D
034
007
044
028
7CA
662
752
78F
6BA
5EA
601
50C
548
59E
5F2
67A
6A8
6B1
76B
79C
7A6
78E
7B5
0AE
0B5
0BE
061
079
034
04D
7D6
066
7B7
6B6
7C4
6E4
687
5CD
5B8
76C
5CB
676
6C3
704
6FC
723
75D
751
785
6E1
719
021
102
0CE
0C6
07F
06E
06E
05C
062
043
68B
07C
79E
743
6ED
709
6CF
7DB
7F7
7D2
789
7B0
7B4
7BA
780
73C
678
62A
747
0B2
0BB
062
06E
04E
036
072
01C
7CF
705
7F1
06C
7FA
7AB
047
099
0C8
0E7
039
04C
004
04B
7F4
003
772
6DA
6B1
76E
054
00F
041
7FF
01D
036
003
751
745
6F7
17D
133
095
053
130
184
147
0F6
08D
06E
01B
7FD
037
7C0
720
722
6BF
000
04A
03A
030
06B
016
02E
01C
7D9
048
7FD
163
00E
03E
085
04F
093
068
042
068
06C
076
06C
05A
78A
77C
730
731
00C
057
03B
06C
027
00E
038
003
010
7CC
010
7C5
7D7
03E
0A8
057
07A
7AE
011
01D
016
00D
033
7ED
79D
754
728
732
070
049
018
033
01F
7DE
00B
038
7D2
731
7C8
7AC
7FE
7F9
7EC
008
745
756
79C
7A4
7AB
052
00F
7D7
7A5
793
6C0
7B5
052
7F5
00E
7E8
7FE
002
01D
7C1
010
74F
790
77F
7DF
7DE
7CE
742
75B
7C2
7BD
7FF
7F2
7ED
7ED
7B9
7B9
715
71D
7D2
09B
7D1
02F
7F8
7FF
027
7CE
7D7
7F7
023
75D
78A
05F
7C8
7E0
012
7ED
7D9
053
05D
02C
055
7AC
798
74D
751
787
070
04E
01C
7FB
01C
056
02B
030
7FE
007
034
038
7D7
02B
7CD
7E2
03E
034
06B
09B
091
0BF
063
7E1
02C
7A1
7D5
7EB
066
065
06D
022
069
01A
00E
05E
033
085
019
0E3
0A9
7F5
029
005
05E
0A2
098
057
098
040
039
7FF
7BE
01F
7FD
7EF
021
041
03A
070
039
091
051
093
0B7
01B
026
158
031
08E
035
008
05F
05F
0A7
09D
0A2
039
01B
7DB
00F
7F6
030
7D8
035
7D8
7F5
009
053
041
7FB
07C
021
76C
11A
04B
09E
0AF
016
7F1
053
0CE
05D
05C
062
7F1
7CC
7E2
035
000
7F8
7E8
7EE
014
06D
044
022
042
016
7E1
019
073
05A
01A
079
043
7AB
7F3
7EF
093
04F
049
045
7B8
7CA
7FD
7F6
01B
7F5
7D3
7E3
7C4
7EA
7C4
7F5
7D3
7FD
7E4
7E2
7B4
010
016
1D5
084
77F
75A
041
041
056
01D
024
7D9
7E3
038
033
013
7F6
01E
7D8
7B7
00A
782
794
7B1
740
705
76E
721
007
7A2
10D
0AD
019
7EA
7E1
04F
062
02C
7DE
7F3
005
7ED
7EB
7B0
7FA
7D1
7E1
00C
78C
78F
75B
758
73C
739
74B
70C
707
742
0F4
088
003
005
7ED
054
0C4
00A
7ED
01C
00A
7F9
7FD
031
7E5
016
7CE
027
035
05F
7DA
783
048
03B
7C7
755
76E
777
053
039
055
03B
075
045
7C5
02B
04A
019
01C
7B2
7F2
7C6
014
7A9
033
034
7D1
0A1
0CE
02A
0BB
0DC
7DA
067
7CC
021
034
790
05E
040
7B4
07A
03D
034
040
045
01E
03F
7DB
7A4
7E0
022
001
09D
04B
108
0B8
06B
089
0B8
01F
7DA
7C6
7DD
09B
7C9
74E
02B
7B4
027
06C
047
061
00A
00E
7B8
7C8
7E7
015
067
779
765
7A6
76D
7BE
77C
7A8
01D
00F
026
7FD
7EB
