3F2
015
398
362
32A
33D
3BA
33C
2D4
329
2C9
2EB
39B
342
31D
3C7
387
324
3E3
2BE
28A
350
2DF
30C
314
3F1
3D1
38F
33B
3E4
369
2D4
36B
2F2
3A4
375
35E
07D
35E
37B
3BB
3A7
2DE
316
256
296
32D
37A
2A5
27E
261
2BE
2FE
322
3F8
3A7
13A
3B7
34E
391
014
054
3E0
01E
3E5
3EC
052
085
39B
3E7
3C5
07B
391
3B1
3D9
04A
3BF
3D2
2CD
2BC
324
3EA
3BB
3AA
2B9
06E
006
3CF
001
38F
002
3A8
029
3F4
007
3EA
390
3BF
3D4
036
3B0
3E0
3B8
047
3FB
3E9
362
39D
3D5
3DB
361
36A
2DB
354
028
064
052
020
390
3D2
3B3
3C3
3CB
007
3EB
3DD
374
3A9
3C4
016
3F2
3E3
396
358
2CC
3AD
38F
39F
396
13C
282
336
018
05B
0E7
039
030
3EA
3EF
3EF
3D2
3CD
38D
3BC
3D9
3FC
3EC
3B7
014
3D7
38A
38B
2FF
344
353
32A
3FC
081
392
394
0D2
054
3F2
024
3EE
017
02E
00C
02B
3C5
3DD
3E0
3DB
02A
3C0
3B2
39F
39C
37D
2DB
337
316
310
3DB
3E8
0FE
0BD
33B
087
3FB
3AB
008
006
060
012
014
003
003
37A
3D6
398
3CB
3C5
01F
3A2
3EC
3D1
37B
354
2FC
28F
3BA
039
0DD
393
35C
3CE
3E9
3CA
012
026
3FD
3ED
3CD
360
3BB
389
3D6
384
3B4
3A3
059
3CE
045
3C5
078
046
393
33B
3B0
07E
3C9
30B
387
022
016
074
01D
03B
3F6
3F6
3D7
341
2FF
34F
384
3A0
381
044
01D
3EA
3D8
3E9
014
0A8
054
3A6
32E
072
012
3FB
031
006
3EC
3E9
3F1
3F9
033
092
04A
3C0
36D
34A
348
3A6
3F8
063
020
042
00D
3B2
04C
077
03B
3AD
366
3A8
08C
285
3C3
079
00A
003
040
002
087
08C
09F
025
35B
302
313
35C
006
05E
007
3EF
028
3E3
03E
030
035
34D
3CB
04B
39B
226
041
084
000
0CE
3FE
060
099
0BA
074
04C
347
2C3
2EC
38A
3EC
025
01F
065
00F
01A
07E
049
04B
3C5
38B
0A5
004
265
084
0C3
3F4
030
016
01C
06B
079
08E
02F
380
306
2EB
386
3D3
00F
004
3F9
3C2
040
007
3F3
3BC
3D5
398
038
086
284
091
092
04E
07C
066
068
037
0DB
055
037
3AF
385
30B
344
3B0
3F3
3E9
3BE
3BE
02B
047
3EA
3EE
022
011
002
065
30E
3C6
02B
0A8
05C
049
066
07F
080
0D9
074
3BC
3A3
334
39F
324
07B
011
3E1
3F3
373
3DC
02D
094
02D
00C
0D1
3C7
30D
01F
04B
02C
071
065
044
09A
0AA
087
101
3D2
2BE
2CD
3BF
3C3
048
3CB
3AF
39B
3C0
38E
047
00B
019
03C
0E1
3B9
30B
028
07A
027
086
02A
07D
058
0E2
09D
129
03E
313
2F7
36D
368
3B2
3D6
3AB
3E4
3FA
3C0
3F9
05C
035
07A
3B5
35A
278
3D9
0CF
06B
070
0B2
085
08F
065
079
15C
053
2F0
311
3BA
376
3BE
015
3D0
3BC
3A5
3F3
012
3F4
069
014
090
07E
27F
094
089
085
0EF
09F
073
059
089
139
0FA
01F
36D
394
37F
3C4
3A9
3D3
3AB
3B6
3CD
39F
3D9
00C
3E7
0B6
049
3C1
2E4
01F
08B
053
065
07B
081
0CC
08D
0AB
110
00B
369
3C0
371
37D
3B5
3C1
3D8
373
001
3C2
017
061
045
390
2F6
013
2E4
00C
051
064
0AC
081
085
0AA
14A
10E
11A
056
3BA
358
366
3C4
3B4
3ED
3DF
3A7
00F
3DA
018
3D6
3FD
0BD
377
3E9
376
3A1
095
029
02E
034
005
06D
0BB
0C0
169
075
3E1
339
392
348
3C1
3CE
36F
3D8
385
3D2
3C7
3FF
3B1
37B
00B
370
3D7
348
393
39B
035
022
039
0C0
07B
0B4
123
0D9
07C
3FE
3E8
396
3D6
3E3
3F3
00B
020
043
095
03D
3DB
3DF
3D2
38E
022
326
3D3
399
3AA
028
068
05E
0E2
134
0B1
0E8
3FD
031
3D1
3A0
3DB
39B
3E7
002
3FE
3EC
021
009
034
354
3B7
05A
3AB
3E2
3E5
3FA
306
33E
030
06B
082
032
072
0F1
00F
3E0
3DD
3F4
3A7
380
3BA
384
396
390
01D
031
01F
088
375
396
34B
329
3EF
3F4
032
044
01A
070
0BC
10F
089
03C
0DB
05A
03B
3B7
3AB
3D5
3E7
340
3BD
066
3A7
0DA
04F
008
003
00D
394
2FE
3B7
35C
3B9
3E6
081
072
037
0B9
0B1
0BB
0B1
07F
077
108
06F
092
040
3DB
3B8
009
35E
3E8
043
3D7
397
3DC
