7E8
006
043
7E1
05B
052
773
7DF
7BA
787
7C7
01A
790
02C
0DB
048
04C
0CD
03F
0AC
1A0
05B
01D
7AD
072
782
7B7
7A4
724
017
7E4
7BB
08D
7B8
7F8
7B7
7C4
0C1
7E8
02A
06C
7D8
044
7F2
7F7
033
03B
01A
7FA
0EB
0DC
12A
013
0F3
087
05F
080
7CA
7FA
036
043
7C1
7AB
034
05F
01B
04B
7FA
059
7D9
05D
013
067
7E8
038
7FD
060
090
7A6
031
0D3
0C7
0FD
052
734
037
78F
7E5
058
07C
05D
077
072
7F9
00B
7F5
01A
02C
08C
7AC
00C
7ED
004
7E6
003
051
003
029
7D4
02E
7D9
77A
77F
013
768
052
02D
029
7E7
005
7B5
7CC
7E4
020
7F6
7E1
03E
049
02F
015
031
7F1
003
05A
7DA
7C2
779
779
7B4
6DB
7A7
062
7CD
7DC
7A5
7C6
7DA
7B7
7D1
7B6
7D1
020
056
004
021
03D
038
02F
070
7EF
045
01C
035
7C5
003
7D8
023
6A8
76A
7B7
09B
076
050
041
7B3
045
7F7
058
02D
01F
038
071
04B
042
045
01E
7FD
019
7FE
00E
00A
7B2
7C1
04C
078
7D2
033
7B4
07C
03D
0B0
7D1
037
021
020
02D
7FB
001
7EB
034
031
028
002
004
7C1
006
7E6
7FC
014
7AF
05E
00E
014
7E3
06A
7D8
7C1
02B
021
047
027
09A
080
06B
090
06A
064
083
007
021
046
012
071
7D1
017
02A
026
7D4
032
063
089
044
009
037
01A
071
7FB
7E5
050
03F
07F
04E
070
074
056
095
06B
00F
050
01F
05D
068
042
7D7
038
073
008
038
037
038
022
08A
003
7EB
015
037
7F8
04E
074
013
028
057
030
06E
015
0AD
0D1
06D
04C
092
099
053
066
019
00C
7CE
003
7ED
09D
06E
00A
0AD
079
00A
7E4
02C
03E
006
01C
080
049
014
04F
0C2
0CC
04A
081
08A
0BB
08C
050
0C0
028
018
086
735
049
031
015
029
043
7D5
7A2
7D2
00C
7CE
7EA
7A9
763
7F1
78D
090
006
7FB
7AF
7FA
003
03B
014
030
7F4
7B8
7C8
70D
794
7CF
034
7BD
03C
7D7
7DC
7CD
7F9
79D
783
7CA
74D
6C0
7DB
003
7A7
7FD
7A6
7D3
02A
019
002
036
7F3
022
04B
711
76B
74F
7AF
7DF
7BB
7E3
7D5
7BE
79B
7C1
6F5
771
6F2
6B3
7E3
7DA
7B8
7DD
7C8
7D8
7B8
7EB
021
04F
005
00E
7BE
732
775
7EE
7E8
7AD
790
7D9
783
75D
765
785
7B1
717
6B8
768
7E0
011
027
009
036
012
7EF
034
02D
032
7F2
011
7C4
6ED
769
023
7FA
79D
758
799
7DE
7A2
7FD
789
76A
754
735
7FC
069
069
7C2
03E
03A
7DD
003
7DD
7A3
006
7F2
011
733
6CD
7DB
03C
7FB
00F
7EB
7BC
046
038
018
7A2
7A7
7C1
017
0B0
075
083
062
036
01C
002
7AA
7AA
7DB
764
7D8
799
6F1
70F
764
00C
021
054
00F
000
02C
7C8
7FE
7DF
7AC
029
05B
08B
07F
03B
074
025
75C
7BC
787
74F
777
707
734
7B5
6B0
714
74D
774
7CE
06E
7FD
7D7
7E1
79E
7A2
7C6
004
090
044
012
058
05A
098
019
075
761
747
76B
6B8
752
77D
721
612
609
6BC
730
7CF
7EE
7B1
79B
778
79F
7B3
7F7
037
036
037
04A
005
037
07F
7A3
737
739
77C
669
699
6F6
745
783
6E0
798
6EB
6F6
753
072
01D
78F
011
7E0
7FD
7FE
003
059
078
056
027
0B5
038
78E
671
712
6DE
711
6E0
6D7
7B9
76B
72E
736
75E
6A6
65D
6DB
6BE
705
7E6
7E3
001
021
033
037
7E0
028
014
7F7
787
76E
73D
73B
701
779
6FA
667
6E0
02A
021
08F
73B
71B
6C8
5FD
688
6B9
766
79A
004
7D1
7AA
00A
7BD
021
7C0
6FE
6D5
727
78A
73F
701
6D3
763
718
752
016
7FC
79D
731
7FF
7D0
77B
71B
767
6BF
75E
763
79B
719
7A5
70A
7CD
778
008
72B
7D6
77E
6E0
714
018
776
705
6FF
78D
78C
7C8
7B8
025
7D9
03A
02A
03D
038
7A0
7CF
70D
750
782
77A
7B1
7D7
713
6E3
7B1
6B3
6F3
74D
6A5
730
779
7B1
0AD
79A
7A6
7D0
7FA
01D
076
020
7E6
031
7D9
7B1
724
790
74D
7DC
02F
7B9
720
72D
6D6
720
665
6D5
772
738
789
7FB
015
00D
001
771
01A
7F1
05A
7EF
012
7EA
7B6
7C2
671
78D
7B3
7FF
7D5
008
04A
6AC
635
656
6A4
6A3
708
6DA
788
7E8
7C5
799
00A
