7F8
7DC
7FC
08C
0EC
0FA
198
19B
1B7
165
0C7
0EB
137
158
080
0B4
048
19D
119
1E3
0B9
227
0AD
116
179
040
015
09E
7A0
022
0FD
13A
17D
1BE
19A
1B4
1A2
07E
169
130
14F
10E
189
156
1B1
172
158
194
1BD
141
143
0D4
058
0A1
073
7E7
7E5
064
137
0F2
110
0A2
0F0
0D0
7E8
082
074
0A2
03E
0D9
038
055
076
013
042
05C
05C
7FB
038
7D6
00E
00C
70F
07F
0A2
186
12A
06A
06D
002
079
025
04C
047
021
0EB
05F
7F9
03F
7DB
757
73A
7B3
7E4
052
7BB
7C6
7C1
7BD
7E6
7CF
7E2
0AB
09D
0BD
7C0
7F7
798
016
000
068
02E
04C
0B7
036
01F
7FB
797
755
74F
75B
7E6
03E
031
03C
7D6
7D5
000
028
77C
0B2
057
02E
759
7B0
7DE
7F2
7D9
00A
033
0AB
06E
7E3
7BE
7C9
7D7
730
787
75B
008
02B
035
040
7FA
796
7B2
6FD
012
081
07C
02B
786
7BC
7D3
7AE
7B4
7D3
05F
098
0A1
7E7
001
7CC
7A4
7BE
740
7AC
011
00D
043
060
7FA
7EB
005
7BC
723
7F4
003
7AD
01D
0C5
7BF
7E6
7B4
760
7B3
0A0
076
02F
7DB
7F6
79E
7A2
7FF
7EE
035
025
039
7DE
022
7D4
7C2
7BE
7DE
062
7E8
7D3
051
072
050
7CF
757
742
7DB
024
052
018
7EA
021
78D
76C
791
02A
7EC
7F4
03B
7F5
740
76E
784
767
7C2
000
7E1
03A
7B5
6C7
6D6
6EA
729
6E8
73E
7D3
058
067
035
01E
7F3
7DB
7D9
7D9
7C6
049
7C3
7C0
7BD
796
004
7DC
7F4
7D1
7C6
707
636
6AC
66D
6C2
6F2
757
6E8
7A2
052
08C
06F
067
07A
7F0
026
024
03E
005
7C3
787
7F3
7B9
01F
76F
7D8
790
6C0
66C
636
5F4
6AB
74B
7C6
7F0
793
7CE
017
06A
019
091
006
02F
7F9
7E7
041
7F0
7B4
7CC
012
7ED
045
791
7E4
70C
68C
66B
70F
017
7B8
039
049
008
04C
017
02E
020
077
08F
034
03F
004
7DE
06D
03F
051
00B
7E3
7C9
7DC
059
00F
7D1
6CB
7BE
7EA
047
08F
045
7E1
007
01B
06E
01B
03B
04A
03B
070
031
7C2
011
039
023
03A
060
052
04E
017
7FD
72F
09D
091
06C
05C
0A3
08D
010
054
083
076
058
02D
062
035
01A
038
01A
023
051
021
7CB
016
004
010
025
004
063
039
199
021
08E
050
094
0BB
055
04E
04D
075
071
7F8
057
03A
01F
040
00D
7F9
07C
022
088
7F9
7CA
034
7F5
022
033
00A
149
09E
026
065
05D
07E
04D
028
058
032
026
032
025
027
029
05B
051
057
089
096
04C
02F
07F
7D1
7FE
023
781
05F
0DB
7AF
02E
7F4
7F9
016
047
003
091
033
7F4
7FA
00C
010
046
010
04E
02A
072
088
128
08D
06E
065
02C
09A
726
077
171
7D2
04F
07B
06D
065
015
011
06F
035
05B
021
00B
7C0
006
02E
02A
01D
014
037
067
0BF
094
0B0
002
081
7A7
00F
0CF
029
7E0
08E
03F
029
02D
7F4
02A
00D
046
01E
025
012
014
002
7D8
7E4
7E4
00E
034
0D8
0F8
0A3
063
7E7
7AF
05A
155
071
76B
0A5
09D
7CA
7EB
017
02B
020
076
7F2
018
003
021
019
042
7F2
057
7D3
7CC
7F7
7C8
7A6
082
7D1
7F9
7EF
0D9
0B2
013
006
0D8
02A
7FD
02B
015
033
000
7EA
7A6
7DF
7BB
01F
009
794
78F
7C7
746
74B
7B4
7CB
77A
7F3
028
7CD
06F
7C9
784
037
02B
7F3
03E
02D
7EC
065
031
046
7FC
008
7F6
789
787
79F
7D2
79C
766
76D
71B
744
778
79C
768
784
099
7E8
754
72E
742
7B7
029
7C4
7A6
7FE
7C8
056
7EC
00E
796
784
7C0
778
725
707
773
6EE
70F
6EB
757
73A
78F
7B5
122
7D1
7DE
06D
79D
7A4
788
790
765
7BF
7A0
744
7EB
7C8
7FE
02C
7BA
7E2
763
776
779
7C4
764
6D3
703
794
7CD
772
0E1
78B
00E
7D4
726
75F
728
793
71E
7E6
740
789
732
7C1
71D
6ED
7BD
03A
7BF
7AB
7CA
77B
757
75A
782
01E
002
7BA
7D6
749
6D4
733
643
661
6F0
6FD
725
697
691
676
6EF
712
6FC
5EB
6DC
7AE
747
789
649
73F
758
781
70A
00A
053
00B
7F9
711
6A0
6EF
6F5
6C5
6EB
6E0
6F6
62B
63F
5ED
5C6
610
5F8
00E
5E8
65A
5D6
644
580
649
6B4
745
6E3
020
7B7
7E8
