003
3ED
060
0A1
0F5
15A
0A1
073
065
074
083
3E6
344
3E7
3B3
388
3D8
097
3DE
3EC
043
0E3
121
061
026
3D3
097
04C
08E
3F4
080
0DB
177
0EC
162
06E
0B9
062
0A7
05A
0C1
09A
053
06C
027
00D
02C
3C0
068
3F9
0C6
08B
069
325
07F
067
39C
0BA
028
0BF
084
0C6
068
089
007
096
055
015
055
008
059
009
029
3BA
058
038
3D5
03C
071
060
044
3C8
35F
316
03E
026
00E
005
357
05A
02F
3C6
3FF
3DF
00E
3CA
3C9
3F3
008
09C
01B
014
01B
050
053
03A
027
019
3F9
3A7
3B9
2FE
3D9
046
3BC
34B
31D
2D2
2BD
284
376
325
350
351
391
3B1
025
024
013
3F4
3EB
033
3F5
00C
056
3EB
028
015
34E
2D8
068
3FB
3B3
2F5
27C
2BF
2FE
2C4
2FF
2F1
32C
37E
3A1
3AC
3EB
017
04F
090
07F
060
3D2
005
3ED
385
00E
01A
3BE
339
064
065
06E
3C4
3CC
3C0
39C
3F6
385
35C
340
3B2
3A2
36C
3A5
3EA
02A
3E8
028
021
04A
3D9
3DE
3D8
01F
3CC
050
3AE
040
0AB
028
079
01B
098
0A2
00B
028
3D5
02C
3AE
395
393
3B7
3CC
397
3D7
39E
010
05F
020
006
3E2
3D2
3B7
015
3B2
030
074
3E6
085
076
06C
0A1
099
073
08C
026
058
00A
3D2
3E3
3BE
382
3CB
3FA
04A
083
01C
071
020
029
3B4
3E4
003
3E4
382
3F9
08C
0C6
0B1
059
095
09E
0A3
04D
079
06F
3F8
007
372
3EB
3E9
391
3C3
3AF
3D3
052
3DE
3D8
3F8
006
3F2
064
3CD
074
023
078
053
012
081
003
01E
048
029
3FF
3FC
3D6
3E6
3F1
3F9
3F2
3D4
3BD
3DA
3D1
002
3D6
3F1
01A
069
046
3FE
041
054
057
3EA
3F7
3D1
3C6
013
001
3EA
009
00A
06D
04A
01C
02F
049
3F2
3FF
3FF
018
3D6
02D
3D7
01E
061
3E2
3D6
06E
034
02E
009
3D3
3A1
02C
02F
001
3FE
01D
04F
057
006
004
008
017
043
004
3E4
011
009
060
3F7
0EE
083
3D6
057
040
3FB
3E2
39E
3FE
005
03D
01E
02C
01B
02A
0AF
025
01B
3EC
3F6
00C
030
3E7
01D
05C
0AC
09E
0C6
198
0D5
394
3C5
03E
3F0
3D2
3D6
3CE
3CC
00C
3E7
044
02F
06E
02E
3F6
3E1
3F2
028
034
080
06F
080
11C
141
182
185
13A
056
3BF
07D
04A
039
005
3E0
3C1
3CF
013
061
05C
025
066
3C3
3A2
3BA
3D0
027
017
060
045
0DE
126
11E
0D9
18A
0D3
34D
392
02C
011
076
01D
018
3F5
3DB
04E
01D
056
033
3D9
350
3CF
020
03A
03D
01A
039
003
041
023
074
04D
02C
044
070
35B
3DB
3DD
04B
071
3FC
3EE
39C
3EE
030
007
37E
39C
3EB
3A3
07F
030
3F6
024
3DB
00C
3EB
3F9
3EE
3D6
00B
345
346
022
04F
00C
3B9
010
3FA
02F
3EB
3E4
007
3E8
011
01A
04A
00F
041
3E1
3F0
016
3F3
3D7
38C
375
3C9
3CF
327
245
2A0
039
3C8
008
3E2
00E
035
067
00B
3BD
3BC
38B
049
019
071
01F
3F5
3F2
00F
3E0
3F4
3EF
3C7
382
31E
36D
322
2DD
290
3D7
37D
3C3
34F
3D5
01C
3F6
3F0
3F4
3C9
007
3DC
04A
03B
3D9
03A
3DC
3F1
035
3EA
05E
3FC
3AC
2FC
26B
2D6
2F9
225
3EE
3DF
3C8
393
3FB
3DA
3E1
046
3FD
3FF
010
03A
021
048
039
03C
3E8
00F
064
088
3DE
36B
2DC
2DB
369
333
30B
2EB
3E3
3F2
3CB
3B1
3EF
045
39A
00A
03B
04D
3E8
009
3D2
3DB
3BC
01E
04F
04F
05C
3FA
3F9
2D1
331
376
37F
3C9
3F3
3DF
03C
347
379
3DE
3CE
3F3
04A
056
04D
02C
013
006
3C5
3B4
3DD
3BC
001
033
3FB
016
31D
2EE
365
3BB
386
022
015
37E
05D
3A9
325
34F
393
014
3F0
058
03B
001
017
3D5
01F
007
024
02C
083
011
389
346
32B
36B
3FD
319
3D9
0A8
048
3A9
0E5
017
3C5
366
329
3BD
015
3E9
02B
3E6
00B
005
3ED
3E9
043
3E4
39C
324
2CD
3D3
308
3C4
341
34A
025
053
066
03C
051
037
373
00D
3D5
3F4
3E8
3F2
03B
03D
3C0
037
001
3F5
3FE
353
2B9
23D
2E3
25C
342
35B
326
3A4
3BE
041
3A0
002
3A4
13F
06D
084
00A
0BB
0AE
04D
3F2
3E1
3E2
000
023
046
3D3
00A
360
301
3A0
2A4
3BD
367
2DB
02A
036
00A
036
00C
