00F
3E0
029
049
11F
11F
165
167
04F
156
16E
12C
057
063
018
0B5
0AA
04B
371
0A0
15D
0A5
112
0DF
067
3DD
04D
07D
3CC
01F
3FA
005
071
3F4
07A
080
033
391
3AC
3CA
037
055
02F
000
016
3CA
3F9
3E9
0CB
008
061
079
035
07B
081
123
3E6
003
3DE
0D9
3CC
02D
3E4
3DE
3DF
3AA
3AB
3B6
3D1
3B8
3BE
387
3D0
3FD
00A
00E
00F
3E9
01C
3C6
3D1
3EC
05C
09B
391
3B6
3DF
066
031
05E
060
02E
049
3EE
00C
026
3C6
39D
3CD
3AB
3DD
02A
3B5
3FB
3C3
3CA
3D3
3D9
028
005
3E6
3D6
3B1
059
3CC
014
3A2
07E
03A
3ED
08A
3D7
006
044
03D
000
3F4
3D0
3A8
000
016
006
024
029
3E7
3B1
3FD
3C7
31B
37B
3FC
05C
367
021
3DF
03D
3ED
005
3D3
3DE
3FC
029
3FA
004
3B3
383
3D8
003
02F
010
028
00C
3CB
3B7
3D2
3BD
335
29A
3D7
36D
37C
394
3D6
38D
3D5
370
38F
3D1
3DB
02B
040
3FB
3B6
3D5
3BA
02B
3FA
026
045
017
3D4
3F4
3B5
3F0
2EA
27B
043
3FD
36E
369
35A
329
3D3
3B3
397
3C9
3A1
3CA
3EE
3BD
342
382
3EA
000
3F8
39A
37B
3DA
3F7
3E3
3E1
3F6
2FF
31E
363
397
35B
3A8
3DF
024
2DB
34B
386
36F
382
3BA
38F
33D
2B7
385
3AE
004
3E3
3A3
3F2
3F2
3FE
3A2
394
3CB
352
33F
36C
37F
3B5
384
33E
303
2F8
34E
35E
322
383
013
376
325
2C7
397
037
005
005
3A8
3E3
3C8
3F1
005
3C9
003
30B
3D6
3D1
356
34F
345
363
36D
3C7
389
3A0
394
3AA
397
36B
259
324
3D5
3E0
00B
3CF
388
3A9
3F2
368
015
3FD
35F
2F2
3CD
369
364
01F
3B4
3B8
3D3
045
3A5
00D
3ED
3D1
395
2DA
2B1
383
3DA
00C
3C9
3F1
3CD
005
043
3D8
088
005
35D
016
3B7
027
3F4
029
055
047
3F7
072
092
080
03B
04A
033
371
3B0
023
062
024
057
3E2
3F4
3EF
009
3DB
052
372
371
2EE
03D
05F
3DD
06E
03D
06B
027
089
07B
07B
083
083
032
3FB
062
069
051
094
03C
035
041
039
007
3F1
01C
358
3CC
390
01D
022
030
077
054
002
012
04D
0C8
0B5
08A
079
021
02B
0B2
087
08E
07F
070
039
038
041
3FD
3EB
3B8
383
3A1
023
3FA
065
04F
058
018
017
3F6
3FB
090
087
058
05C
037
08D
091
0A4
0AE
080
012
01C
3F6
063
00C
016
006
0A3
011
066
11B
01B
060
3EC
016
3F0
03D
031
05D
069
01D
069
07B
08F
0C8
0B9
0A1
033
053
03F
026
02B
01C
014
049
041
007
3ED
060
009
059
008
0AB
013
3D7
04E
043
05D
044
0AE
09B
099
077
10F
0FD
0F5
071
07E
050
01A
04B
057
06D
3F4
3C9
3AC
027
3DE
032
004
015
063
083
00A
003
062
019
024
055
061
04C
082
031
0A2
069
08A
0E5
0CD
0D7
05A
0D3
000
09F
3BE
39E
02C
075
02E
3B2
049
3FE
023
3A0
3EF
399
01C
3E9
03E
049
00F
01E
085
04A
03B
02E
06C
083
026
073
0DD
0D5
3B6
08C
060
3C5
3D8
001
005
329
3BA
351
380
37B
3E0
378
3DC
3A2
000
3F0
013
3C6
03F
052
029
0C0
0C2
036
023
094
0B9
095
015
3C2
3C2
3BB
3B3
3BE
3FF
3E7
3C1
020
3F2
3E8
360
37B
3B0
347
379
369
37C
3C1
3B5
3DE
3E7
3F5
398
082
006
014
050
372
3BC
3B4
3AC
3A6
013
007
3BC
034
3B6
3C8
3AF
3D9
3CE
36D
3AA
025
37A
2F1
31C
361
36D
324
3F7
00B
3EF
2DB
2F7
37B
2B1
36F
396
3CC
368
3C6
080
3F0
006
022
025
3E5
03B
3E9
3E8
3D2
34D
354
2A6
2C1
2AC
30B
325
2D8
395
32C
3C1
034
34F
375
383
2BB
33A
3AF
3FB
3F7
36D
3DE
3F8
3C2
3AD
37A
34E
3AD
39C
303
2CB
32C
309
2AE
322
39E
3CF
36C
04A
013
3C5
3EA
3C0
2DE
2CE
395
392
342
363
35D
332
325
392
354
350
3DC
375
3DA
3A3
013
32C
32D
30C
3BF
388
006
3E9
016
365
044
332
37E
004
3E7
01A
34D
35D
387
3A1
3BC
3BB
38C
3C9
3D6
3D6
388
02A
027
3BC
332
357
36C
3D4
3E0
3C6
3B2
3F8
016
03E
005
06D
0DE
068
002
3B6
392
3F0
3F3
3CA
041
360
382
390
388
397
38A
356
379
39A
02A
3F4
3EB
