DAF
DCB
C97
06F
434
0E8
D7C
1F4
1F4
F95
3C3
24E
11A
F98
0D3
14B
1C0
2F8
086
0EF
3F3
E54
15B
16B
D89
539
CE5
2BC
B2D
246
B97
02A
E24
190
F05
D36
0A3
069
044
2FA
CF1
0A0
E05
128
1DD
0BF
21A
E7B
E8A
197
CA5
142
13F
F62
225
E56
0BC
205
03B
128
C91
2D3
1F8
BAD
F89
B07
167
03A
002
FA1
DFA
13D
DA1
1A3
E2F
E23
E59
E3A
394
EF6
28E
E31
18E
262
E4D
162
BDE
DB8
155
E52
20F
E2D
06B
F02
20D
FF8
0E8
CC8
197
1CD
E28
F6E
045
C5C
006
051
E9D
091
F61
DB9
143
CC6
DB6
0BE
A6C
F9B
0F6
ED9
EE1
38A
ECA
F66
EE5
CBC
12E
EBB
D27
F09
