0A0
210
15F
FA0
F45
ED8
1C0
F57
282
157
C39
EEB
18B
C6B
FE0
10B
020
D16
BDA
D83
CFA
1BE
EBB
E87
017
A5E
1E2
217
169
0F0
EB3
199
231
EB2
1C0
EEF
D61
F1A
E63
C2C
B4D
000
1D7
06A
D42
D54
C8D
ED9
1CA
0D5
292
1C8
CAC
F20
9C9
0CB
F12
F91
0A2
2A3
168
094
B31
0F4
DDB
279
E78
F9C
EAB
F20
1AF
0DA
2C8
CB1
13A
1D2
077
131
AB5
F68
F1C
F84
C15
FB5
0F2
C45
ED8
FAE
C72
FD4
1AF
27B
186
DD3
E53
28C
E89
FA6
D46
28C
F27
18D
FB0
E9F
0E3
ACF
E8A
E7B
100
17F
E7A
1B0
056
49B
E22
F2A
EBE
0F9
118
D34
0FF
D2C
1C1
28F
D14
EEA
082
E9B
