FDE
FEE
009
FC2
FF5
FD2
F71
F80
ED7
F60
F0B
E80
FBA
EBA
FAA
03B
FC7
048
FEA
043
027
FE9
06A
FE6
02C
02D
F20
F99
003
FF5
000
03A
080
0EF
FBC
FE3
F18
F60
F39
F1E
ED6
F9F
04D
F73
01C
071
0ED
072
037
03E
065
080
000
FDE
F49
F19
120
021
0BC
087
110
1B1
12B
026
FC9
04C
FC2
065
FCD
F83
FB9
02D
0A8
0FA
0CF
07C
0F9
06A
045
023
04E
024
043
FE6
092
063
04F
080
17A
177
15E
0E0
20E
135
0FC
07B
FC6
F32
FE4
FEB
FF8
00E
FBA
088
05F
09F
FFC
02D
058
034
165
07C
053
037
0D6
15E
20E
1DD
28B
288
133
0BF
0D6
094
FEB
FF6
023
FEE
F90
F3F
F9E
F7D
FB7
FD3
071
037
FDB
09E
262
20B
133
18D
18F
255
1BC
293
2B4
104
037
06E
02E
08F
060
024
FE3
F94
F69
F81
FB9
FDC
F61
FEF
04E
025
0BD
153
2BC
359
19B
188
1AD
247
378
3CF
03C
F40
FBD
022
FDC
04D
09F
05A
062
040
FD6
FEA
FDA
F92
F9D
FF4
04A
01B
0B4
10C
2A8
406
FB4
1DA
21B
311
2FC
017
EB3
F56
FB3
012
FC3
056
083
063
057
FDF
FB8
F52
F5C
FA6
FC7
040
054
034
0A3
0D9
2F5
3F1
19A
19C
1BF
366
1BF
FEC
F04
FBC
FDA
F81
014
04A
0B8
000
036
02E
03B
FD1
FBB
061
06F
07D
02A
08E
0AA
07C
257
28E
14E
1E7
2E7
24E
103
F91
FE4
00C
FD7
FCB
FC3
017
02A
FF2
FCD
FC1
FE7
FEF
032
060
022
070
041
046
033
16D
2D1
28E
FA1
1E1
20A
0E1
FF0
FBA
023
01E
043
00E
01F
013
00B
F76
FD5
022
02B
FAA
02F
011
FAE
00F
017
FDA
FAA
1C7
26B
205
163
149
1BB
019
FD2
042
06B
079
063
FF8
00D
F7F
FDE
FE5
043
0A3
039
011
04E
06F
FD7
001
FB9
F1E
00D
2EC
0B8
142
18F
0CC
198
036
029
062
03C
097
012
FEA
FD8
FD3
F9C
FFA
055
08D
039
01E
03F
00F
FE7
027
FD4
F83
071
474
24E
136
16B
053
17A
085
041
0AB
08F
059
FA0
FB5
F71
F64
F8B
FF4
015
003
070
FF4
029
FE9
01A
F93
02C
051
049
326
14D
1EB
13D
FCA
123
07C
078
142
074
FCF
FC1
F83
F93
F9D
024
057
FD5
045
02A
FED
02F
FE3
008
FCD
04D
060
092
206
225
14E
173
15C
0F3
0FB
05E
046
FEB
F76
F80
F73
F4C
FD5
061
FC6
FAF
FC3
010
00D
FE0
FEC
FF0
04E
061
058
0B3
130
1A3
0EF
18A
136
110
2BA
071
EFB
F31
F61
F7F
F73
FC6
053
FCD
FC5
FDB
FC4
040
FCC
FEE
027
054
03D
040
09F
F9F
146
12C
10D
15E
137
19E
2EE
0CA
EC3
F22
FC3
FF1
03A
025
041
FE9
FE3
F95
F90
FD4
FFA
029
06F
08E
0E4
084
06F
02B
150
0EA
1C4
1D5
19E
226
215
1F2
04F
FE6
FF5
FE4
033
021
023
043
025
01F
FFD
FB7
029
012
05A
04E
059
05C
0BE
07E
0DF
190
0F2
20B
124
157
15E
1F5
14F
02F
FA8
FF0
04E
FBC
02C
FFD
01F
FD3
FCB
FC5
FEB
014
FD9
05B
07C
0AD
04B
0BD
136
264
0FD
1D4
02C
042
070
1E5
141
007
010
FF3
FC7
01A
041
036
FAF
F92
FE7
F8D
011
FE8
048
058
01F
077
044
0E8
047
0BF
17A
13E
08F
051
12C
15F
0D1
050
00F
023
006
FC8
03A
FF8
FCE
060
001
044
F96
FEF
06F
FA2
02B
FF8
F3B
F5D
000
FE7
FE8
10A
10A
05D
11D
12B
0F8
06D
01D
FD2
FE0
FFD
027
FCF
007
05C
05B
014
007
011
FFE
FA7
F62
F14
EC2
E6D
FE3
F89
FA8
092
10B
FD4
0B7
05E
04F
02E
045
086
F9A
FD6
FCF
01B
009
078
01A
01B
04B
FF3
F7F
F68
F75
F7D
F1C
EDE
F57
F26
F4B
0B4
09F
FB9
0C6
00B
004
FFA
FB8
08B
027
F7B
08E
00D
02C
FCB
02F
058
039
074
FD1
FC6
00A
F72
F08
F8C
FAB
01E
FD9
0A1
024
020
FEB
03D
092
FF9
0A7
05B
035
0D6
037
03F
FC6
025
055
080
0BC
0A5
05D
FDE
06C
0A6
071
FDE
0B7
03A
F8C
08B
FD4
05A
078
067
0DE
092
034
0D8
064
038
06E
01C
07F
05E
0BB
082
069
091
0BF
0C3
FDA
003
033
0BC
0B6
00E
01D
070
F86
FF9
0A6
06D
00E
061
FC1
FF0
08D
0E0
0B9
127
0FC
156
05D
14B
05B
01B
037
041
FBD
FC0
0BE
0E2
FC1
FC3
00E
