7E7
00E
04B
00F
09F
7D2
721
7C2
014
017
07E
077
78F
05B
7CF
77C
729
7F7
7F8
7EE
031
00B
0BD
0D8
7C8
03E
026
017
7AC
002
78A
075
008
030
038
7F6
061
7C9
77B
7E1
7A4
7F5
7E4
7D8
045
04A
083
08A
00C
7EA
029
0AF
0F2
010
7F9
089
09B
007
7A3
7BB
07F
027
052
7D7
008
7FE
02F
01A
019
7F1
7D2
024
7D7
7D8
7ED
081
00A
7EE
07C
060
07A
00B
09E
099
7EE
032
056
7C7
79A
002
7EB
7B1
00E
00E
022
01F
7EC
7C6
017
035
7F3
792
7C0
007
06E
052
007
053
05C
02F
76A
7D5
04D
03F
04A
01A
7F8
00F
004
7D1
7D6
7ED
02C
7B4
7F8
7DD
7BF
7FF
023
7D3
7D0
009
00D
00C
009
7E5
038
787
079
7D7
065
7F1
012
01F
7FF
7B3
019
7FC
7D4
7E4
7EA
7E7
009
7C9
016
00E
7E3
021
7CE
7CB
7F4
7D9
063
05B
064
031
096
79C
0E1
083
08C
7C0
086
036
03A
014
006
019
7FA
051
05B
006
05A
068
031
027
7EA
038
022
7F4
019
02C
032
066
069
075
0C2
046
027
7CD
02D
79F
7DC
047
01C
04D
009
02D
02C
05B
7CD
075
052
03D
015
040
046
029
070
009
06A
010
7C5
12B
0A1
090
041
7C2
0B5
00C
7E5
7E1
021
03F
00F
02F
004
007
006
018
00A
048
072
06D
097
03F
099
022
03B
7B4
788
031
07B
01A
065
062
043
7D8
000
059
058
01C
00C
052
066
04B
05C
01A
7F0
001
016
029
028
001
7A2
7C6
75D
68F
73B
6D1
036
7B8
7BA
02A
00A
7F8
049
7C1
7F3
018
05C
029
017
7CF
025
047
7FA
7CB
046
756
795
790
779
6DD
723
689
66F
6FD
049
009
028
010
030
7E5
7D3
7FC
7E6
7F7
00C
019
015
7B1
012
7C1
7D0
7D1
7A5
79D
79E
77C
7E9
7BA
6E9
633
79C
758
00B
026
026
00D
07B
7D4
032
7D0
012
019
002
7F5
01E
04D
7A0
02D
002
7B4
76E
7F4
013
03E
027
7A7
754
64B
6AD
660
766
7C4
7BB
7C2
7AB
7C5
004
7BC
7A7
7C8
7CE
7DE
7C7
00E
02F
066
069
021
0CF
040
09A
059
06B
043
6F2
6BE
728
70B
015
78E
7DC
027
7EA
02B
7DC
7D1
7CE
7C3
020
7E9
78A
005
061
041
04E
061
06E
048
090
054
07A
76D
64A
66F
623
694
0A6
7FB
7CE
7D9
7DF
00E
00A
016
7F1
7F1
7DC
75B
014
05F
063
06C
02E
07B
050
07A
091
135
096
676
62A
5E6
671
637
00A
7E0
7D8
7D8
793
7E8
024
7E6
004
7E8
7AC
7B2
001
0A3
0AB
041
042
070
035
07C
01D
072
766
598
57E
5A4
656
624
7E3
7BC
7FD
013
7B3
7D9
7BF
7DB
795
7F7
7D3
06A
043
047
03E
033
039
05B
08D
051
04D
064
62F
49B
612
608
630
68A
03D
00A
7F9
78C
7F1
7EC
7A8
7D0
7D5
01C
015
7EF
020
068
044
00E
001
03B
073
001
0D6
6DB
478
536
595
6C6
692
631
7D2
039
010
02F
00A
024
028
00B
028
00C
002
7AB
7E8
061
011
00D
006
7BE
7F5
097
7F7
512
4D1
57D
56C
64D
681
6D7
01F
78C
02D
028
7DD
073
7E4
028
02F
00D
7F5
001
043
070
054
040
081
06A
069
7F2
5EC
4D2
539
607
635
6A8
615
715
7F3
7EE
061
010
039
016
7E4
7C4
030
041
009
032
033
031
02D
026
7AB
79D
752
66E
4DF
532
5B7
62C
6D8
752
6CD
771
7ED
7F1
019
7C1
00B
7B4
7F7
00D
006
7C0
021
049
05A
7CA
076
03D
7E4
751
71F
6A2
57A
628
667
70D
74A
764
030
039
036
027
010
7D6
000
041
7D8
076
029
7C5
002
016
7B9
051
079
095
75E
6FC
708
5D4
560
6F5
733
79D
7B5
739
7D2
7CD
784
7C1
7A0
7A7
78E
7B6
7D3
7C5
06D
7CE
7F9
7BE
062
058
050
7CA
6FF
66B
5C4
5B9
60A
71B
724
74B
77F
7AB
720
7E3
7F2
7B5
7DD
7DC
7A9
76E
789
79E
042
00E
7AC
003
056
7D1
725
62F
5BF
5C3
547
625
67F
748
733
762
6A6
794
77B
7C7
07E
01E
06C
7BB
779
7F1
01B
087
06B
00B
00B
06F
03A
773
569
581
5DC
592
572
5AC
640
771
74C
717
795
7AF
065
018
0A8
0B7
065
7F5
062
07C
030
7E0
03A
779
75C
721
6C7
610
5DD
07B
5F7
57A
5D7
5E3
66C
72A
778
744
77A
756
78E
7FC
