7EC
7F1
01E
01F
0AA
0E0
052
052
7FB
057
066
7FD
0E3
038
010
7D8
773
71B
6B3
73F
7AD
7E4
7BF
7E1
059
7FF
7AE
041
07F
7E7
06B
0F1
0E7
076
7BA
7F9
7A7
7DD
72B
7B1
050
784
6F5
6C0
644
60A
61C
67E
6C3
6D5
74D
739
795
7EF
7CB
7D1
72B
001
07F
115
03E
7E8
749
75C
748
738
737
779
7A3
76E
7B1
73F
708
6E1
695
073
64A
71A
6B2
659
736
738
683
75A
774
79E
09C
7F3
04C
7F6
7A9
79A
02B
031
7F9
7FD
7EF
798
77B
77A
74C
710
7B1
7B4
013
7D0
767
67E
6BE
645
6C7
764
707
77A
78A
7D9
0AD
0C8
06E
072
046
010
790
78D
784
7CA
012
007
7BA
7B5
78E
7A8
01C
7E9
7D1
75C
716
613
681
68F
77A
003
7D9
7FC
072
031
007
7E5
727
758
77A
75F
002
046
01E
014
79B
799
778
79E
7E6
7E6
7D9
755
651
66E
5C0
689
77B
7A2
775
7BF
72A
765
72E
75F
6AA
755
004
7B4
015
015
7DC
7CA
7C2
039
006
042
04B
7B3
7BA
7A6
6C7
5C8
699
57F
7BF
74C
7D0
76F
746
6FF
73F
6CF
768
7EF
7D2
025
7F8
7C9
750
7AD
79B
7ED
00D
027
011
06E
751
7DB
715
63A
532
61A
6D3
6C6
752
74E
6F9
7B4
770
7EA
7C5
062
7E1
7D7
792
766
75A
73A
7BE
79B
7D6
018
034
01F
772
7BE
6D3
559
556
5C2
682
7B9
785
742
71A
7F7
7BA
7AD
043
01B
01B
7F3
798
7DF
794
7EC
022
009
7A1
7AC
7C8
7C6
7B4
7C8
5EC
57C
573
619
7BC
7F4
7C7
78B
033
7FE
005
7D4
7A0
7E7
000
001
7DA
007
08C
03A
03F
7D5
05D
790
7A0
79E
7C3
712
657
51B
634
66C
6FF
7B0
7B2
7C0
781
7A8
759
788
7E4
7FF
016
7D1
7D3
039
78B
7FF
02D
788
7F2
741
7E7
7F7
791
70B
65F
520
7D1
66D
7CA
7B7
7E0
028
01E
707
04E
767
790
7D1
762
7CB
7E2
7A2
792
7AE
7C6
79C
75F
7C9
7F5
039
003
701
616
625
60B
720
7EA
042
724
6CE
67E
7A8
79F
79B
783
765
72B
787
794
711
718
74D
71E
782
7F3
7B1
7FD
008
016
627
51C
5A2
67E
777
7BC
7C9
7DE
78D
7E5
7C0
77E
739
6DD
6EA
758
715
701
6BD
734
785
7BF
041
041
7AB
7FF
7D3
7DC
6D8
5CB
687
6D6
75D
78C
74B
7DB
015
7ED
019
76B
78E
773
73D
779
6FE
741
7CE
7C0
7CC
02D
08F
7F8
7BE
012
015
729
6FB
6C6
682
74A
03C
7AE
7CB
017
7C2
7BE
7F8
000
04A
013
774
7D5
7EB
073
086
045
00A
038
078
098
001
003
7FD
79A
7B3
7B2
748
7F3
03D
7CE
016
70E
76F
042
019
0D1
06A
009
047
0A6
12B
132
057
080
039
092
035
03E
05F
7D1
01D
754
7CB
7E4
7D3
7C8
022
091
7AF
797
7DF
7FF
7F6
08B
024
081
0A5
141
10D
161
071
06A
04C
066
047
039
025
008
074
06E
02A
7F9
79C
04F
7F7
07B
7E0
798
094
012
7F3
02C
031
0B0
117
0EB
0A3
0D1
0C1
0EF
06F
084
07F
075
7CF
043
003
003
7F0
0C1
0A2
7FC
7E1
0BF
7FC
7B9
047
06B
7EE
7CE
067
0EB
0D9
07E
0EB
0CE
0B8
0BB
07B
097
0A0
081
070
7FF
03C
065
09C
023
137
7CE
028
0DC
01D
757
7D4
021
010
7F3
7DA
0D0
092
06F
004
0B4
031
0C5
092
03A
0E1
083
0E2
09A
08D
074
059
0A0
094
09D
054
098
043
780
751
7AE
7F3
795
017
07D
7DB
013
01D
055
04E
004
07A
084
044
081
0BA
055
034
03F
055
069
0CE
074
7FA
07C
72B
74C
013
033
021
7DC
01B
7FD
03A
7B1
7DB
7E0
025
06F
04F
09E
7DA
7E0
017
063
080
075
04E
0C1
0A9
0B1
78C
0FB
025
7A2
066
7CD
7B5
008
050
00B
7B9
09C
00B
08D
02E
017
060
005
000
7E3
02C
055
025
7FF
026
05A
047
060
720
0C6
038
08D
02F
7C6
7DC
7EC
79D
02C
7FF
7CC
7EB
04A
02C
059
047
7A1
00F
099
09C
041
093
098
0B1
14B
074
7E6
054
7C0
00C
038
09F
05B
7FC
0B1
024
09A
058
7E7
0A7
069
08C
07B
013
037
00D
074
100
0C6
119
0C6
18A
089
044
7D7
7FF
089
726
7EC
780
78C
021
046
021
004
055
05C
7FD
00D
78F
7C5
0C1
07F
073
0B7
090
7FB
105
13B
09C
067
058
054
7E1
