7EA
7F2
7D6
059
0A3
0FA
143
14E
0B7
6D4
5F6
63E
6B8
65B
66B
5F2
725
666
6A3
60B
6C3
749
789
6B6
739
011
7F6
03F
077
7F0
7A9
0D9
0A9
140
132
1A0
7DF
725
621
585
685
560
5AC
4B8
531
557
5C5
568
695
6C9
7CE
6A5
7B2
7B3
774
7D3
07B
007
07F
123
172
1C9
16B
209
035
725
684
66F
5AD
541
4EF
52E
519
513
560
079
669
699
763
7F2
004
064
727
03C
047
0D1
024
129
1BE
185
150
1BB
70E
6B9
67C
5C8
626
63C
76F
700
729
70F
754
72B
7C9
764
001
7F8
7C5
7A8
751
6E2
783
029
050
112
160
1C4
1B1
103
786
651
706
79D
03F
094
064
020
05A
765
7B6
000
7C6
7D6
7D3
059
045
79C
6FB
7F2
04B
099
063
105
048
1BC
13F
031
7ED
7F3
07A
026
072
0CF
096
090
02B
04C
7FA
7A8
745
7DC
045
06D
0B5
016
024
0EE
05B
08F
0EB
18F
1A5
1AC
17D
0C9
7EF
064
0E9
079
0DA
093
0E9
062
7DF
7E0
7A9
7F4
7AE
7F1
028
070
08F
0A1
048
0CA
094
153
0FD
1B5
04A
182
124
7F3
7F1
031
0A2
06C
0A9
0F8
0AA
7D7
771
77E
733
751
705
7EC
02E
032
07B
06B
0D0
022
166
164
110
111
165
008
07B
7FB
7E2
009
04A
0BC
058
0BC
7EB
7FB
70C
725
717
6BA
6F8
7F0
056
04F
0B5
0A9
7AD
7B1
12C
02E
068
094
0C8
0E5
095
009
7A0
76E
02C
033
026
0A0
03A
043
01C
039
7EC
7C4
7D6
0B5
053
7E8
0C1
03A
7EC
002
158
0C0
07B
0E4
031
0C3
068
0D5
044
7D9
7DA
7DF
7FD
0A4
0C3
092
077
030
072
00D
0C5
098
02C
00C
06D
7D6
790
757
7B9
0B3
0C3
0F9
012
092
089
0E5
00A
790
7D4
7AA
02B
058
06D
04B
07C
7F4
045
01F
0DD
07F
05F
072
097
7E6
080
784
075
139
0A1
067
076
057
079
06A
7F5
021
7B1
7A1
012
022
02F
094
039
00D
018
06C
090
0B6
08D
0A3
01A
7EC
7A2
778
75F
0AF
09D
7F5
053
04A
036
7E3
026
002
7BE
01B
014
010
019
029
08F
033
7B3
075
0BD
0A0
089
039
007
7BD
7F1
78C
075
04E
059
785
7BF
034
7F3
00A
029
00E
7E9
03B
7E0
7EA
7F7
039
03D
011
02A
084
026
017
7FF
7C5
042
025
7DB
794
045
038
032
7F9
7BE
7F1
7AF
04E
7D2
7E0
069
024
068
046
00C
04A
03E
086
070
09B
06A
001
035
7F1
7CD
01F
7D1
003
04D
043
766
7F9
01F
7C9
043
782
022
7DF
004
07C
7D9
059
03A
059
7EF
04F
00E
7F3
7A6
7EC
7FB
029
01B
7F9
03B
048
07D
7EA
722
7A2
7D4
7FE
7D2
008
7FB
7DC
7AC
008
038
7A3
00C
02D
07E
047
02E
7FE
7F5
79B
044
011
779
7FF
0A5
070
030
71C
737
7F5
000
03C
7CB
7DD
7FB
029
000
7FC
7E2
791
7CE
7FF
046
06C
7F6
038
04A
7E8
00C
7B3
754
016
017
0B6
00B
794
7AA
7D8
7B1
7B7
7F5
738
04A
057
014
7C5
7F8
74D
7AB
008
021
0A3
033
029
037
7DF
7E9
76B
72D
7C3
0A5
177
02D
046
024
052
7E5
7DB
7F1
76F
772
7AC
7A8
7B2
79C
7AA
782
7F7
05A
091
012
04A
063
0AD
7D2
763
79F
11E
14B
0FA
09D
11C
00C
038
051
039
7DE
766
744
790
7C5
77E
029
7AF
771
7E2
7AB
00C
026
036
7DE
005
04A
0A3
088
157
189
0ED
0AD
0E8
081
01B
081
0BE
034
7A9
75B
7BD
7BC
78F
7C6
7FD
7CD
7B5
795
00D
042
013
015
023
05E
0A6
14C
19D
164
0CE
05E
018
0CD
0B4
027
077
065
051
02C
01F
016
7E1
7F9
02A
7E4
763
7DA
7A4
7C6
784
048
034
0EB
145
25D
15E
0F7
0C5
02B
0A0
036
07D
7DE
03E
0D3
070
072
050
7E8
03A
7D6
01A
7D5
75A
76D
752
79A
7BC
09A
0DC
169
0D1
188
15C
050
7AD
0A8
00B
0D3
046
04A
015
045
018
0AC
7E1
063
01E
7E9
7FF
795
7CC
7C3
7B3
020
070
0D3
1D1
16C
085
17B
066
06D
05C
002
0B9
09B
0C9
773
779
00B
7EE
007
013
090
061
0ED
0DF
132
177
150
243
207
16B
1FE
1B1
15C
073
0BA
048
776
7DC
795
0CD
0A0
090
051
027
0C9
0C7
05E
109
1A9
1C9
2A5
2AD
284
0C7
2C1
334
24A
215
214
196
0DC
0FF
7A3
7DA
069
7FE
