7E7
01E
02D
09A
0DB
0EE
1BE
138
149
1EA
172
106
1B7
1B3
19E
11A
097
01C
081
0F8
1A8
1B5
13B
059
04E
045
084
06F
76E
7DB
059
038
060
0D3
7C2
078
13D
0B7
0EE
178
220
2C0
269
255
10E
083
06B
237
21E
29E
21F
22A
245
0F6
0EF
12F
04E
7FB
7E8
7D8
78D
01B
007
048
02A
068
0E4
0E3
16C
1C0
2BE
259
13F
114
0EB
049
1B3
388
3D8
292
2DD
109
13C
0A8
7B7
7E3
7DA
00D
057
023
00F
0DB
03E
092
033
76A
707
729
05F
0BE
06A
7F1
778
76D
7C9
128
251
243
322
178
179
14D
780
7E6
03C
7EF
048
078
069
795
7DF
016
778
75C
6DA
734
0A5
17C
0D4
062
00E
78A
75E
744
7F9
091
0FB
123
14E
176
7CB
0A4
063
7BD
7F6
7F9
064
007
016
7FA
00C
770
6E1
74B
055
0CB
04A
065
027
7AB
733
77B
7D6
01A
7C7
018
051
103
031
085
03D
7FB
032
7B1
7BE
055
7FB
028
024
79A
758
7BD
087
0E5
097
034
7CD
74F
77E
7F1
020
016
03D
083
7FF
03E
02C
7C6
7DA
7F0
7C7
7D4
7DD
7EE
7F9
005
7F2
7AF
753
7F3
0A8
0AC
08E
012
7A6
778
7F8
026
032
00D
00D
03E
058
040
01B
7F5
78B
78E
781
7E3
026
7D9
027
005
006
77A
729
7E9
094
083
02A
7D7
743
7BA
02A
057
041
003
030
004
048
008
7C5
78C
786
74E
011
7D8
7EF
7E4
054
01A
7F4
7BB
743
79F
008
06C
04D
7B2
7A1
7BE
027
057
008
050
047
7FE
7CE
02E
7D1
7AA
759
74B
7DA
7A8
7A8
7E4
7EE
01C
030
03F
773
7D3
017
082
071
003
03A
032
025
7CB
7E2
7F6
000
06C
79C
028
76C
7C9
7E7
01A
7E0
7E3
7CC
7C9
7EB
055
032
7FB
7AF
7E5
7B7
015
048
7F4
7F7
7FD
00E
01B
003
000
7F7
009
02A
06E
7EF
791
02C
7C4
00B
7DD
036
7DE
7B7
7F7
7B8
7CE
7DA
7CF
7C2
7F8
035
7FD
01C
045
020
046
7C3
019
7E8
7E9
02A
075
090
011
099
035
032
7E4
7F7
7D9
7FB
007
7CE
7CE
7E1
7DE
7CF
7BE
7FD
003
7F9
00D
048
00C
006
7D1
04D
009
7F5
111
7B9
00F
089
02D
01E
7F3
02F
00C
7FA
7B6
7E5
001
7E4
035
000
7EF
009
7F2
018
026
027
037
01D
042
003
7D9
013
154
7A6
01D
044
7E9
001
013
016
048
029
7CC
7FD
7AC
020
7FA
010
02D
00D
015
00F
040
024
01E
035
028
067
03A
7F8
081
00D
08D
0EB
03B
7ED
01E
012
7CC
7C0
007
7D3
7EC
02B
000
002
02B
061
003
7E5
7AA
00F
029
01A
7DE
003
054
7C5
030
01A
7EB
091
061
005
042
054
00F
034
027
7DC
7DB
01E
790
014
013
046
7E4
7C9
7B5
7B7
7FA
033
007
790
7E0
7EC
0C5
7DE
784
7DB
08F
064
01F
077
065
069
061
007
05F
7FA
79B
01A
7F2
025
7F6
7E3
7B1
7DA
7DE
79A
020
7C8
014
7D1
031
7A5
79A
779
7DA
025
027
055
0A6
082
03A
071
046
045
7E7
7D4
01C
048
046
01D
019
74F
7A5
7AE
7AA
7B3
7F1
7FA
770
792
003
7B4
784
00D
059
04A
020
7FF
051
7FD
08A
0D1
03D
033
7F2
051
02D
017
053
7E9
004
044
01D
7D1
020
0CE
7D3
7B9
09F
0AB
040
7C5
7F2
7BE
7BA
04C
019
7FE
01A
04F
032
040
7C4
018
027
044
005
7CD
032
7CF
7F4
7BA
014
7ED
007
78C
039
092
7EA
7BD
7FB
7CF
019
02C
7F9
778
7DA
796
01A
7EB
021
7FB
03D
04C
030
068
03F
043
051
07A
7D5
7BE
01E
7BE
03B
7C0
02E
046
067
787
74D
776
790
7AB
7DA
7D3
7FB
005
01B
049
035
062
0BD
071
076
043
09C
7F8
7C6
766
791
079
087
051
06A
7F5
043
02F
019
7F7
7DF
058
7A3
07B
00D
033
048
005
010
04F
073
053
05A
06F
03C
7F7
764
02B
77B
000
7FA
7C8
041
01A
038
005
088
0E0
0E2
0CA
074
07C
0D7
06D
027
7DD
00D
03B
072
0C9
05A
03F
0AB
7D1
7E1
024
7BD
7F5
7A2
057
02F
002
000
042
093
098
058
0B5
058
00D
7D4
009
783
7A4
7EC
7B6
74B
7D2
786
008
065
74B
7C5
7E2
020
067
6AD
6F7
7A0
730
700
7B0
757
735
6DE
702
701
6D9
730
6C4
01A
6F8
6CF
6DA
63F
6AD
5F1
647
6F9
69E
7E2
7D8
01F
