012
7E0
042
7D1
7C5
7A3
78C
746
6BF
7CA
15D
135
1D0
08B
0BB
0D5
0B7
0BC
043
10A
035
0C5
094
022
0D4
04B
0A1
0B3
05D
015
093
7A1
03B
7D2
720
635
75C
025
241
1C6
180
125
15B
17D
14E
085
10D
1C9
16A
0A4
099
038
07B
115
106
061
7DB
7F8
7DA
752
6B8
7B9
61B
65F
71D
163
268
1E0
1A6
231
1BA
108
168
140
17A
009
12F
10B
10C
125
0D4
045
03B
7D7
7F6
772
7E3
75A
6F0
61E
611
6FF
7FF
149
1D6
177
135
12D
1D1
148
158
0A5
114
05D
0BC
0B6
065
0B1
081
051
01E
75B
78E
00E
028
774
6CE
729
6BB
6FC
797
0BF
098
066
7F7
051
7F2
084
77A
7E8
045
7BB
033
03F
753
769
755
7D2
099
011
784
7EC
7D5
72D
706
7B9
7B3
77A
7C5
074
7FC
7CE
00B
7C0
7FD
7D5
02D
005
058
044
01B
7A8
7DA
79D
6FD
00C
045
7B9
702
72B
771
7A7
7A4
759
7A4
758
005
7EF
015
00C
7F0
7C6
7A1
7ED
7AA
009
053
052
7E7
04F
7BA
7F0
773
77B
7C1
7C8
008
7AC
7F2
766
05B
7E0
02C
79A
78B
7CD
025
021
04D
026
010
033
7F3
007
7CF
010
7FB
048
7E1
7C9
012
7EA
795
7C6
7A7
7E5
7F2
7C7
03A
7F4
796
785
7C9
01F
037
072
036
007
7D7
03B
049
052
7EA
78C
7DB
780
7F1
004
032
7C8
7CE
7A6
771
7C5
015
797
7D5
7A1
7F6
7F1
7D9
7C6
02B
007
000
7FF
028
033
001
016
01A
7D2
7EC
036
003
7F3
000
003
787
7C2
010
7BB
7C5
7E4
7E8
7CE
7AB
01D
7B7
7DE
7C2
05B
00E
03F
027
009
7FB
022
7EF
7B1
7B6
788
7F9
7DB
7CF
7F8
7AA
0A8
6E3
7DC
792
7AC
7FE
7BE
7FE
00C
01F
7AC
7B9
7E4
02E
01D
7FE
7D6
7E1
00C
7D9
7FE
049
002
7CC
02E
7FC
7E6
09F
0B4
73E
78D
7A8
047
034
787
020
7E6
022
7D1
7B0
7F8
7E1
013
012
01D
042
009
7C7
039
7D4
7E5
7FF
7EB
01B
059
020
082
783
7D1
6F6
7F0
7BB
7D8
000
004
7F5
7A0
7E1
7C0
7C1
023
026
041
7FE
01D
010
02F
002
024
7F2
035
03F
7D5
03A
08B
737
713
738
7DC
7FA
7FB
7F0
7DB
7CB
7B0
7A2
79E
7C5
026
043
7C4
019
044
04D
03F
7C9
00B
031
017
057
045
014
7EA
7CF
698
71D
742
7CB
7B0
75A
752
7A2
7ED
7E8
7CA
7AD
7EB
7DF
7DD
03E
02F
7EA
01E
051
022
7A7
023
079
7B6
080
062
7D6
708
6F6
74B
74A
766
731
7AE
7F7
7D4
7E5
7CA
758
766
04B
7E9
7BE
003
01B
05D
041
076
031
00F
060
7A7
082
7B0
7AD
743
665
6C5
6ED
6E3
7B2
058
7F2
016
004
7D2
77C
7B3
7E4
006
00A
014
05D
038
0A0
07A
7EC
7E1
7A0
7AB
7AA
7A2
080
73E
659
684
6C3
751
020
050
01E
017
7B3
7D3
792
7AC
7E3
7E3
01B
03C
7E8
02F
007
7DA
7DA
7B4
7E0
7F1
7E5
00F
76D
677
688
684
758
055
08B
08C
7F9
7FF
7E9
7B6
7E5
7B2
01A
029
03E
02F
7C2
7AC
7F1
7E9
7BB
7DE
7B8
77F
014
7AF
766
612
5D3
611
71D
7F7
023
0DC
063
060
026
7C7
036
7D4
7EB
040
009
7C2
7DC
7DC
74B
7BC
7F1
01E
7BB
760
045
6F8
7D0
76A
688
65E
6ED
7F8
0DD
19A
1B7
1B6
199
133
066
010
793
7D6
7AE
7E8
7F2
00A
01C
7E7
7BC
055
74E
7D7
72D
04F
749
773
79C
7AD
7DB
005
7CC
047
0EC
0CC
14C
0DE
0C2
080
04D
07E
068
048
02C
055
026
00C
009
07D
037
073
7DE
7FC
79F
71A
7D3
7BA
041
7A9
7C2
773
7B9
7E2
014
0AC
0F2
0C9
06B
0B6
068
094
093
07F
0A7
0D9
0E8
060
033
052
0E4
0AF
033
719
7EA
7D4
7D5
7D4
7EC
00E
7F6
7B0
017
02D
077
08C
032
054
029
02A
041
065
073
002
091
04E
054
013
03A
04F
722
791
791
002
77C
7CD
79E
7AC
7C5
796
7E0
031
086
081
073
02E
073
03C
04C
02B
055
02C
051
05B
7B3
771
039
06D
761
720
7C1
7DD
068
7C6
009
000
7C1
7D1
796
7EE
7ED
001
08A
040
057
00B
040
001
072
06A
7A2
05C
711
6E4
0C2
7E2
00E
67B
67F
77E
05F
7FD
7FA
7B8
7C5
7AD
005
7BB
7FD
004
031
021
7EE
03E
07E
7F9
7CC
759
7BE
711
7AF
0F8
08B
7E4
