7F2
020
01D
07A
106
0A7
0CE
12C
100
17D
160
120
1D4
1E4
149
1C7
161
1CE
18F
172
145
1D3
135
113
0C5
7B6
03E
012
018
011
06E
089
102
024
0F4
038
0F2
7B8
066
10E
1FE
1C9
1AC
14E
224
360
2AD
36D
24D
196
12F
0FB
0A4
11F
0BC
049
7BE
02E
090
09E
08B
05A
05E
7EF
7E0
0F3
002
025
7F8
783
011
7C2
010
164
1BE
057
12B
1EB
197
20D
169
170
0B7
002
079
7E2
003
05B
00F
053
7E9
047
068
029
7F3
05E
01A
766
77A
701
7F9
0A5
064
7C7
7D5
01B
079
124
20C
2B5
172
157
7F3
7A0
7EE
77D
7B4
7C9
006
012
019
095
022
047
002
747
749
7A6
79D
09D
089
02D
001
019
006
010
04F
094
11F
094
056
7CD
00A
7F1
78B
7E9
7E8
01E
7D3
7FD
036
046
003
76F
769
762
7D2
05E
062
064
034
7DF
7EE
7E9
7D3
7F2
006
090
03C
785
7F3
040
7B9
7E2
7C8
002
7BB
7DD
03F
02F
01E
7B9
77E
790
001
027
03D
03D
003
7E5
7A7
7F1
7C2
023
7D1
004
092
7B1
7B4
06D
7B5
7AB
7F6
78C
7EF
7F9
7DE
000
02A
787
7B2
796
004
7F3
036
010
7E6
7FA
7DA
02B
7E6
00B
7F4
067
7F6
7CC
01B
7E9
7DF
018
7A8
796
7DF
7E4
7E9
005
7FE
7C2
7A3
7DB
02F
7F5
017
00A
007
7D9
065
7F3
7D8
7FB
7E2
017
02E
7C1
7F4
04E
033
7DC
7F5
7DE
7D8
7F5
00F
7FA
7F9
7ED
7BE
7C6
02B
7CE
00F
7E2
018
7F5
7FA
02B
044
7FC
05E
7F5
768
7D0
7BD
7CF
7E3
007
010
7E9
036
7C4
016
02A
7E0
010
006
7FA
7FA
7EE
7DB
7E1
7F2
010
00A
01D
01A
01D
7B7
033
749
764
738
7A5
7D5
034
7F6
048
7CE
00D
7F2
017
025
011
02E
026
7BE
013
00E
7EE
004
039
006
032
7D9
02A
05F
075
703
735
77F
76C
7F7
7E0
00C
029
7C2
01E
01F
019
033
072
015
010
7E5
029
7E8
054
000
7CF
7EA
018
7E7
7D5
037
068
02B
7BE
7BD
7C7
7FB
02E
022
7B7
7DA
017
029
00B
028
00F
7FB
000
019
7EE
7F7
034
7E7
057
012
049
00C
7A7
0BF
13B
071
0B4
024
042
019
7BE
7D1
7B4
7F2
7F0
01E
004
7C3
7F5
7D4
014
7ED
7D3
025
026
7C2
7DA
7DC
035
7BE
02F
021
1B4
116
216
15D
097
05C
003
005
7FB
054
7EB
7F5
7E8
7AD
7DF
7AA
000
014
026
7C5
7EC
023
007
7FF
002
010
000
024
252
140
224
202
2BB
1A6
0D8
04B
00E
005
7F5
7D7
010
7D5
7FA
7AE
012
005
029
049
041
02D
00E
043
79F
04D
01A
7DA
1E9
0BB
1C8
1B6
25A
35C
2E1
1AA
09B
04D
030
7B8
7B1
7F4
7EB
006
025
05C
01B
042
08D
032
059
05D
7C3
7FB
05B
04D
1F7
062
09E
06F
151
1F5
179
2C1
242
1A7
0B1
097
0A6
0B2
097
06E
02C
043
027
052
071
04B
05F
7D6
7CF
006
08D
094
082
02C
799
7FB
7AA
7B9
019
111
0EA
1E3
225
25B
15A
13A
0D3
040
066
062
7FF
039
066
03E
0BD
06D
797
096
7FF
094
74E
791
7AC
79B
700
750
7EA
7E0
08C
7F3
0C3
072
078
095
048
08E
01D
071
7F2
007
7DD
01C
030
03A
06D
053
011
07D
71D
7A3
7BF
78B
795
77E
7BE
783
7EA
756
7DA
00C
7F8
041
02C
038
086
05A
032
02B
7FF
7E3
7ED
7FA
7B4
7E6
03C
7F5
745
7E9
7B2
738
749
744
703
6E9
728
742
73B
787
7A8
7B5
02D
028
039
04A
052
031
024
033
07A
7FF
00B
7DE
03B
7CC
748
7BF
78C
75D
79D
762
74C
6FE
74D
771
6FC
76F
7C3
7C5
796
7D9
00A
7E8
03C
031
025
02F
7E2
7DA
021
7C2
7AB
6E7
762
04B
7DC
7ED
7B3
7E8
7AF
05A
06E
073
02D
024
7C2
7D7
7EF
7E0
7EB
01C
7E1
023
03C
00B
7DE
7EC
040
06F
02A
008
7FA
7DE
7A1
78A
020
7F1
03A
067
025
082
088
03A
03A
04E
0AA
07B
093
0C7
06C
081
056
081
0AD
0A8
186
025
095
7BC
011
007
7A0
76D
7D7
7C0
015
04F
7C4
773
01D
7EA
010
7E4
061
05F
069
070
07D
0E0
104
18A
14E
1EB
132
0E6
09B
048
002
03E
764
799
7DA
75D
7B3
7CB
751
78D
792
7F3
00F
7AB
7B0
752
013
7BC
778
78E
079
0CE
0CA
124
0C6
0A7
09B
004
7F3
