002
7E2
7D7
7BC
770
752
6ED
762
72D
6C0
797
6C4
700
665
739
70F
6F1
6E1
7D0
665
70A
7B9
781
07B
73D
7C6
7DA
7C2
0A5
7FB
7B6
757
72B
78F
7B7
782
759
0A4
7A8
787
6B6
73E
76B
789
7EE
7D5
7F1
7EE
7BC
01A
7F4
7A4
7AA
01F
032
7D2
09A
0D1
054
727
75F
715
7FD
7A4
782
7BA
765
7C4
77C
05A
7B6
007
068
7D9
086
06A
7F1
7FE
7C2
037
7F0
75A
7EE
74E
056
090
7A4
7B3
783
7DD
7E0
7C5
7BF
7E8
762
7BE
7CA
7E8
74C
04B
069
040
001
046
02A
7F3
7F2
7D1
00B
7C5
72B
7F2
036
002
776
78C
708
7A8
00F
7EC
008
7F1
7F9
7F4
7D4
7E1
02E
03A
026
7F4
039
062
7E0
031
7E7
7EB
00E
054
76E
7F3
003
760
7B7
6EC
78E
7A9
7FC
7FB
7C8
7FC
7F5
7D7
03D
7FB
033
7E1
7E5
7DB
7E4
037
074
02D
7DA
01C
7E6
7E0
000
058
002
7E6
00F
7C2
746
74D
7B2
7F7
7EF
7DC
014
7C0
7D0
7D2
7EA
7D6
005
7B3
7C9
7F2
00B
79E
7BD
79E
018
7D6
028
11E
7D4
783
7EA
7FA
79A
78E
7AC
770
7CC
7F9
7E9
7B8
7C6
7F0
024
040
04A
010
7D2
789
77D
76D
768
7B3
74F
75F
0D8
1DE
7EB
786
794
7BE
7AB
7A5
7A6
79F
794
794
008
013
02E
038
031
7F2
7BF
780
7B8
76A
787
7BD
7CE
7DE
7F1
7FF
0F6
264
7D3
060
795
7FE
049
7AB
7AE
77D
723
7A2
01A
012
044
05D
02C
012
03E
7C4
034
054
001
7C6
7D8
7F3
7FD
067
192
2AF
005
065
005
082
054
05C
79E
779
056
7F8
0DF
0FA
05B
00D
046
025
071
083
0A5
060
7CD
7B6
7F6
7D0
058
12B
200
19A
7E2
033
7CD
0A1
075
086
064
0B4
241
221
15C
08E
0A6
018
7D4
059
056
025
0B4
067
087
044
7CF
7AC
14B
31A
0B4
079
7F1
7AA
00A
00D
066
0CB
093
369
37B
1B1
027
046
005
054
068
054
058
0B0
0A4
09D
08C
04B
05C
7D9
250
3D2
1BC
0A6
776
7D0
7C1
07E
082
0A9
210
2B6
266
060
7EF
7E0
050
059
023
073
064
0D2
09B
0A4
07D
7E8
007
044
319
3AC
181
0FF
7B7
016
047
7F7
07B
14A
298
2CE
1A7
7F8
7D1
79E
7DE
03D
040
0B0
01F
080
050
053
023
053
7D6
089
2F2
251
0B0
130
048
06C
7E8
0E7
1A0
2E6
1ED
1AC
0E9
792
043
7FB
015
7B3
040
093
059
07C
043
05C
02C
020
04A
185
237
0BD
01A
6F9
7DC
048
162
219
25C
1E6
0EA
11D
7F7
015
7D7
7A3
011
7A3
7E3
095
042
0FA
056
089
093
09C
153
130
0B7
7CC
77A
6BF
0DC
08B
0D7
1CA
1B8
116
091
0B9
036
06F
7F3
7E2
7CE
7A9
007
06B
0B7
100
128
088
05E
0B4
11D
0CA
7AC
74C
7BB
636
0B9
162
1A3
271
0D3
12D
08E
08A
7EB
7E3
042
04B
7EB
7AA
7CB
75E
033
087
0B0
0C3
0A9
024
051
05D
776
740
6C2
650
0E6
16F
1B5
0CE
06E
05D
072
7E8
7DD
7E6
7F6
7D1
7D1
7ED
78A
782
010
061
08A
090
0D8
040
016
048
050
766
6CC
723
0C4
0CF
116
0B0
7E8
7D0
00D
78A
779
71B
756
7CE
77B
7C4
75E
767
7F3
7F7
00B
04C
051
0AD
05A
064
77F
6A0
79D
721
0AD
0A4
05E
791
7B6
7E3
020
7B3
7C9
7CF
7D7
7E9
7B1
7CC
048
00D
78F
795
7AF
003
00A
00E
026
035
00D
69A
772
7BF
0B0
04C
034
7F5
00B
047
080
04C
018
020
01A
045
038
7E7
02C
7FD
7F7
767
74E
7DC
03A
7F4
023
78C
75A
7AF
0B2
051
121
062
0AC
055
7FD
069
09F
0D6
07B
04A
018
7C8
7F3
7C5
7ED
79E
7E1
7E0
78E
780
757
786
795
77D
75F
7C7
0E7
7D9
0D6
0B1
0C3
04B
06C
087
01A
7F2
009
7D9
79F
01C
7AD
7B2
7B7
7C9
011
7F5
76D
70E
70C
70A
7EC
7BB
713
7CE
063
067
095
7E2
7AF
049
7F9
00B
789
740
77E
749
7AB
019
7DF
073
052
00F
00E
7B5
77A
793
761
714
725
6F7
6EA
6F4
776
77C
0B8
096
725
749
71D
719
774
75F
7F1
004
01C
06F
05E
076
08F
024
072
7D2
045
7B8
73F
048
6C6
790
712
7E8
7B4
7F7
0C2
060
7F8
79B
728
767
7D9
7F9
026
00F
0D5
039
06F
01C
035
042
083
0C5
10E
0BD
01A
7AB
7FB
775
018
743
7A2
01F
