7F8
7FB
035
77D
738
727
7FB
695
74D
674
787
72B
7E7
000
08B
092
052
02C
7A9
749
6B5
70E
7BD
0D5
7E5
7ED
076
7A3
031
021
028
6E3
6E1
6D5
76F
68D
606
6E2
679
75D
77F
77A
797
7AE
789
7D4
766
6E0
71F
7BF
7CA
7D1
03A
0B5
005
07C
020
074
762
74C
683
66A
62D
600
6A4
717
733
024
7A4
00D
79D
02D
7BF
709
751
003
749
79B
7A1
017
06B
0A0
11A
187
77C
00A
761
03F
699
601
5B4
615
647
754
7FC
011
7CF
7CE
7C3
02F
01C
792
7A4
7C1
7BD
7E1
040
7F3
7FE
013
14D
1FA
705
789
717
74B
627
590
59E
66B
6D9
71D
770
7DE
7B9
034
7F8
7D8
7C6
7CB
7AC
79E
7E3
7ED
024
08C
046
06D
0FB
314
6D5
6FB
65F
630
5FC
593
69C
668
6F3
76B
7DC
7F7
7B4
005
7E2
7CF
7C8
763
74D
7CD
795
7D9
7F7
012
052
066
0CE
310
6E4
75B
713
607
69C
5CA
68E
69D
6EB
752
796
014
01B
7C4
7FB
00A
7E4
791
7CD
789
7D7
7CD
7CD
7B9
01F
021
027
318
7B7
697
6A3
664
04F
626
61E
602
634
753
7FC
034
7ED
02D
045
025
7EA
7AF
7D2
01B
054
036
7AA
7A0
752
798
7DD
21A
6F0
695
68A
6B2
701
065
651
4EE
577
77E
0E3
0A9
08A
061
0D1
050
06D
018
049
058
03F
04A
061
006
7C6
77F
746
7BA
741
79E
6D8
77E
751
7AB
571
46B
52F
072
19C
102
0F1
0AA
062
035
032
7FA
7F6
033
0AB
059
073
7FC
0AF
78F
734
6EE
039
7CB
01A
014
727
63F
551
403
62F
0F7
10D
070
076
047
096
076
01A
7AF
04B
7DC
012
05F
02E
7E6
07A
7FE
008
732
7B2
733
7A8
04A
69B
646
506
500
7B0
160
05B
7E3
081
05E
081
03B
7EE
010
7D9
7F9
018
7E6
7E4
014
016
02E
7F6
7D1
78C
72D
08E
78F
05E
5F8
76E
615
044
002
006
7CF
021
090
07A
025
7FF
02A
03F
030
02C
003
015
048
07E
023
050
0BD
7C7
6F3
774
7AF
70D
682
6C3
776
7E9
03C
7F1
008
01E
025
08B
044
015
024
001
02F
03D
01C
053
7F9
028
02D
080
060
013
769
759
7C5
792
733
7EA
7A3
7DD
02D
020
013
025
06B
068
7EE
01C
7E7
7E9
023
7F4
013
7F9
019
7BA
7ED
062
7DE
7E7
76D
798
07B
7BD
7D3
7F0
78B
00C
7F3
026
044
080
0BC
010
7C4
7CB
7FF
7DF
7CA
004
01A
782
009
7DA
018
7B9
053
00B
7EB
74F
783
74D
778
02A
7E0
034
7FF
093
074
074
03F
7CC
008
014
7E5
7D4
7CA
7FC
026
005
7F6
7CE
7CA
7C6
016
7D6
7E3
097
77F
73F
7A3
7F8
073
005
7D7
003
083
062
7D2
7FE
030
01E
00A
009
7BC
033
015
061
033
7EE
029
06D
079
7D8
712
7F7
7FC
75D
7B0
00B
00A
01E
03B
057
019
7F3
000
010
025
7F9
7BF
00C
040
01C
019
033
011
09C
064
04C
7EC
75E
72B
7A8
774
775
7CA
007
7F0
014
7F6
043
7C9
7FD
7E2
7CB
03F
00B
00E
7CB
7ED
063
046
035
03B
046
05E
0EC
7BA
7A2
753
06F
760
76F
01B
00F
059
7BE
01A
02E
006
7F0
049
7F4
01A
008
03B
03B
02A
07B
067
09D
02C
7F1
06B
08C
01E
787
029
04F
00D
76B
008
017
7B8
782
7C1
7DA
7DA
008
011
005
01B
017
04A
7E1
004
053
7FB
7D9
053
013
07F
079
7A9
035
03C
031
04C
7F1
00E
002
7F3
7D0
781
7D7
7D1
028
01A
7B1
01D
03F
7DA
073
024
021
796
085
0A2
0B7
04E
059
0AB
085
03E
028
002
7E2
7D4
01C
063
018
781
78F
7D1
7AD
7DC
7E5
7F1
7F7
01F
7D4
7DF
793
001
7D8
05B
04D
05B
06C
7CA
762
07F
0A2
75B
7E6
7EE
7B7
7F2
051
02D
01E
034
79D
7D1
7DD
7DC
7E4
005
79F
010
785
79B
00A
7FC
7D6
00F
10E
06B
78B
7BB
039
7CB
795
791
7CA
7E0
7CB
7C3
79B
061
7B2
7EF
007
7E3
045
7B2
00E
01E
00D
012
7C1
011
78D
7B4
044
7CD
733
062
7CF
7FC
7CB
788
791
7FD
040
7CA
019
01B
005
7F9
7BE
7D7
7F7
7B8
7EC
7F2
012
08D
7F2
0CC
7D1
7DE
01A
017
01B
752
7B6
7CF
7E0
7AA
749
024
7C7
7A1
035
7F2
008
014
7FD
035
03A
043
7DD
7D0
7EE
6E0
7C3
7D9
0BB
789
7D7
7DF
