FDF
FDC
FAF
FCE
FB8
006
031
014
063
05E
FE9
032
09F
FBE
FF6
00C
057
03B
000
FF3
017
043
03E
043
08C
0B8
044
05E
FF3
FE7
F9D
FED
F20
F46
FBE
04E
033
0B3
09F
0A4
0BD
113
0C5
053
055
015
00C
08A
FDA
03A
08B
021
FF3
02B
02C
074
FE7
075
0F3
07C
FB0
068
01B
FED
FD7
07E
078
0D0
032
034
06B
02B
F6F
FE4
037
080
008
019
FEE
FB6
027
FAF
02D
04E
087
033
016
04B
04C
072
08A
07C
FFE
05A
FF2
000
023
00E
FFB
003
FD1
F9E
009
FB5
015
01B
FB3
FBC
01B
02B
FCF
009
049
0CD
098
0F6
11D
082
012
030
0A9
052
038
07C
05E
068
05C
FEF
069
F59
FFC
017
FFF
03A
046
FD7
FF9
FBC
F0F
FBA
0B2
027
FB4
100
040
064
064
06D
077
052
06C
06B
058
065
074
094
FC4
FD9
FF1
013
019
033
077
FFC
FCD
FE7
F3C
F51
107
053
FCC
0A2
066
005
0A2
037
FFD
039
031
046
07C
083
034
04E
FF3
033
FDF
041
086
01D
025
05C
02B
FD7
F9F
01B
0E1
0B5
09B
0EE
079
00A
07D
056
04D
07B
05F
098
0B3
080
FF1
035
054
05D
061
0A0
053
059
01D
014
F3B
FCF
F0C
F8D
010
09E
09F
0C4
115
077
0D9
08B
029
009
018
05F
004
073
09C
01A
06A
001
020
060
05D
095
04E
016
F6F
F75
F35
FA3
F91
F89
FD3
03F
084
FF6
005
04F
000
F0F
F2D
FD4
03E
003
008
F8A
FEC
F66
FD2
FAD
032
018
040
FF4
FCF
FA9
EE4
033
F9D
F04
F73
F91
F06
EDF
E89
E22
DBB
D97
E2E
EDF
F57
F49
F62
F81
F7C
F3B
FCE
FC2
03B
022
003
F90
F3E
F7D
E74
FA3
F76
DA6
E77
D78
D2F
C9C
BF9
CE9
DCE
E48
E52
EA2
F18
FB0
FA4
F45
F47
F80
F35
F57
005
010
F99
F6C
EE4
F9A
FF8
F38
F9E
E74
D00
DF8
040
DB4
FDD
F91
F87
F7D
F85
FB9
FC7
007
F7E
F4E
F50
F82
FC2
FB0
008
FBC
025
F6E
EC8
E6A
EC6
FC3
FB8
EF0
E2D
E86
E87
F8F
FDD
05E
074
001
FF1
F9D
002
FD3
FF8
FED
038
F81
008
007
01D
FF7
FD5
FE1
000
01D
F85
052
F77
F05
FB1
FC5
064
0F0
0DF
0C6
071
065
031
062
090
057
000
040
FD0
009
040
FD5
055
042
FDD
027
FC0
058
09D
116
077
01B
F4D
0A8
080
0C1
0B9
08F
116
052
068
066
04A
020
068
002
014
FBB
FF0
007
016
02B
063
032
023
02C
FD4
07A
105
FF4
023
01A
022
036
032
074
034
066
0A1
077
07B
071
03D
004
FF4
FE8
054
013
033
04F
05A
01B
F51
FAB
F97
FC2
128
042
01C
08A
01B
02F
023
026
FFC
066
04C
083
04A
007
009
F54
F94
014
072
00C
FEC
016
FBB
F9F
F52
FB0
F7D
FD7
03F
044
02C
092
075
00C
058
065
040
048
084
054
052
FD2
FD1
FEF
FDD
021
006
FF8
00E
FAF
F8B
FB2
F9C
050
03D
0B4
FF4
065
036
089
02E
046
075
043
054
024
02B
034
FFF
FD2
F50
F2F
FC1
01B
FD0
FDC
000
FAC
F81
F98
F7A
041
FDF
0CD
F9C
FE6
0A2
027
027
033
031
004
010
FCC
05A
FC8
F8F
F92
F23
F58
06B
FF8
030
FBC
FF4
00C
FCF
FC2
F6F
FD8
FF6
084
07B
02A
04A
FF5
F36
FC7
00B
FFF
019
FF0
FF5
011
FD5
F18
F46
FC9
032
02E
002
FF6
008
FD9
048
F6E
EF4
F55
FEA
041
0C5
FC8
017
FD9
FED
027
037
011
025
025
020
001
FF8
F30
F38
FC4
FDD
02C
027
061
04E
009
FD4
FBF
F97
FDD
F64
FA3
000
031
FBC
FD6
FA5
05C
016
057
052
04A
068
FB0
F31
F20
001
022
07E
050
050
04A
067
FE3
04E
FB8
F70
EDF
F6A
F7D
08B
09F
F60
F49
F4D
FCD
FEB
FD7
01D
FD1
01C
F31
F33
F5B
FD1
FC1
008
050
034
092
0DB
FE4
FF0
F64
F8F
EEE
F5C
FBA
033
031
FB3
F80
003
FD3
F9D
FFF
FF3
FDE
F42
FC7
F70
FE3
F73
F98
FFB
F85
F8C
FF4
019
080
F75
F91
F1E
F87
F8F
FBF
FD4
FBB
F4A
F35
04D
F41
F74
FA9
F8D
F1B
F48
FDE
043
FB2
008
FF0
010
FD7
F87
FA5
F67
F9D
F82
F23
F95
FEB
F83
012
F72
02F
FE6
09F
FAF
F49
EA7
EDA
E6B
FBE
FD9
F8E
043
04E
032
06D
07F
057
096
FC1
FC7
F2B
ED6
ED4
F70
020
F85
FF9
