7E3
7FA
7AC
7B0
77F
73D
706
762
73E
729
6DD
70B
038
7E3
743
7C7
027
7EC
01E
001
012
776
71C
6C0
767
6F0
7C0
7F3
7A6
009
741
750
76C
6FA
7E6
704
729
759
728
744
744
776
055
7F6
080
034
7DF
063
096
050
79A
771
7F0
76A
7BC
76E
0B9
7A6
73E
00E
7C9
024
7E4
795
064
799
7A6
7B3
00B
031
004
092
067
05F
018
082
03B
039
7DF
03C
7DF
7BD
04E
7B7
0A7
737
005
01C
7D8
6F8
6A5
78A
7E4
79C
787
7C2
744
79C
7BE
046
044
048
7F6
7DB
033
04E
03F
78C
068
004
096
010
7FF
72A
7B8
7CA
7E7
78A
76B
73D
6BD
736
6F1
760
745
76F
770
772
7CB
014
028
7C8
045
058
01D
06F
7E6
055
7A0
7F1
060
794
037
7CD
75F
753
783
715
76E
75C
754
75B
755
77E
7CC
004
054
013
7C8
019
005
015
7EE
045
7C4
02E
7F1
075
080
010
7F1
7CC
786
749
720
788
725
770
7C9
7AF
776
7F4
03B
7F5
7F3
036
05B
7FA
75F
7BD
05E
7E7
004
051
79F
71C
01F
023
7D4
79E
787
72F
730
7BD
768
006
7A8
7C3
7C0
016
022
000
05F
022
0F9
09F
0FF
04C
050
070
09A
084
727
73E
04E
7E8
793
74D
7A0
010
7A6
01D
7F9
06F
7F2
78E
7AB
037
067
043
065
075
0C2
0BC
0E1
0B2
079
05B
0DE
053
6AE
66E
7C3
7BD
795
7E2
7B1
005
7F6
089
03B
028
008
7DE
755
025
01F
7F3
7B4
06A
7ED
010
025
05B
05D
089
7FB
714
6C1
71B
7AB
7BE
7B9
7B4
79F
7E8
001
046
062
023
7F9
787
703
7A0
063
021
025
098
0BC
0C5
08F
05E
095
0A9
715
665
719
031
7E1
7D1
01C
038
02D
03B
7BE
019
008
7C9
7DE
7CE
73B
0A8
0AB
064
0B0
0A0
078
03A
042
062
099
00B
64F
6AE
04E
043
06E
053
02F
0F4
09D
7B4
7D2
017
7B8
7D0
760
7AD
7E0
11F
0CB
0E8
0BC
0B1
0A4
08F
027
00D
07F
727
63C
68B
097
086
0D4
04F
061
029
7EE
02D
001
78A
774
720
7F5
04D
0B6
0A5
023
0CD
096
08B
014
0A0
02D
064
7AB
677
71C
754
104
030
044
0D5
7AD
7BB
02F
067
789
6F6
71B
750
7D4
07A
108
026
080
04F
088
0A0
0C6
0B8
002
06D
709
6E4
73A
025
07D
041
0DA
084
00F
7A8
790
770
74B
65E
715
73C
7F7
0F1
05D
771
02D
09B
08C
0BA
127
0E5
098
7F3
707
797
7C6
7FF
0A2
094
0B4
079
7F2
746
683
6AE
691
67A
6F7
72C
01D
0A0
034
7F0
7EF
058
06E
01F
08B
0C4
020
7EC
727
785
784
788
08D
7E3
047
713
703
6D3
5A4
60C
680
697
78B
783
02C
085
7E9
7DA
04E
051
7E7
02C
061
049
7C8
77E
748
7CF
7C2
777
7B3
005
721
63B
61C
5DF
638
6E3
6E0
70F
00B
7B9
057
08D
038
7A8
06F
7DA
027
7BD
085
00D
779
76F
6F5
789
7F3
051
7AC
7D5
74A
637
67C
67B
73B
6C6
015
01C
7FB
7ED
038
037
007
033
059
057
037
7DB
099
730
724
7FA
7D6
7D1
00D
7F9
786
740
7CD
6F5
71F
726
762
7A9
7EC
02D
784
746
7E7
084
04B
049
025
02C
013
079
799
715
78D
7DC
009
7FE
01B
021
775
7C7
01D
01E
047
764
7D6
01C
7E9
007
014
011
068
0AB
06E
0AE
027
0E3
0FA
7EE
760
73D
7AE
01D
7E3
03F
00D
717
72A
029
0F5
09F
0A7
019
7EB
7C4
7B5
02B
00E
05A
021
0C6
059
06F
073
0C7
0A3
776
75A
76C
7A8
784
003
055
019
011
715
777
00E
07E
028
0A2
7DE
7EF
7A9
7DB
7F8
029
0DB
164
103
137
146
0C1
02A
7C5
786
748
7F8
762
007
094
004
7F3
7BB
7E0
075
7FB
751
057
00D
7EE
785
76F
742
00E
033
0A8
05E
0A0
102
036
009
772
04C
024
7F3
749
78C
7F7
79B
002
7F8
781
027
002
7E2
79B
756
7A4
7FD
7DD
7D5
79F
7E2
06F
044
7F4
00A
7B6
766
7DB
03C
013
7B8
7A1
00B
02C
010
061
74C
7C5
77D
7CC
000
7E2
79B
779
7C4
01C
005
003
032
03F
031
793
710
74C
793
7C0
7CC
7B1
057
104
021
0B1
7B4
069
7C8
01E
73A
705
783
00E
008
7CB
78D
7F5
7C0
7BA
7B7
762
763
775
790
079
7B9
05A
026
089
0AD
103
093
069
73F
009
7A7
7E8
