7FF
00F
7A3
7AF
772
763
783
752
76E
67F
717
75D
798
79A
7F0
78D
7EC
690
703
6A3
72D
704
689
6E1
71B
798
011
78B
7BD
7F1
753
718
6F0
6BF
7BD
66C
78C
079
726
7F4
708
79D
70F
743
7A4
7F5
71E
761
756
78B
765
7A9
777
7DD
7E5
72F
069
07B
78A
696
7A7
6A5
767
6BF
76D
7FA
7A0
756
024
03B
777
7CE
06D
7E2
7A2
0A4
72A
010
02F
7F2
7DD
037
79A
0BD
7BE
78B
005
0AC
7BE
7EC
7DD
70A
780
7D6
7AC
00C
777
76A
766
772
764
79F
798
7CD
7D3
015
7DA
7A8
7FD
7A1
04C
7D2
06E
7CC
01B
7BD
001
74A
79A
78C
7A1
753
000
7A6
77C
758
794
787
7B0
76C
7AE
015
000
7B4
085
030
00E
051
094
029
797
7F1
747
7C7
73D
7AE
7F4
71F
7C8
7D5
7FA
7D6
7D6
78C
798
7A8
769
7D1
7B7
7CF
79E
049
067
057
079
055
0B6
033
789
013
07F
7C9
78C
77B
786
7C5
76F
7B5
03E
009
7F4
7AF
7C4
7C3
76A
7DB
7CE
755
710
7E6
7F1
007
061
01B
021
004
7D3
787
080
7ED
7AE
009
7A5
7D9
7FC
7D8
03C
7B2
006
7F0
040
7BB
7EB
042
7FE
7FD
061
07C
05D
091
03D
05E
0AB
082
053
790
033
799
032
7F6
7E2
7A8
7D3
7C6
05F
068
02F
00A
028
036
005
036
7E1
04E
087
094
052
060
01E
7EA
007
029
0E7
78B
7D7
015
05C
7B6
7F3
795
7D0
7E0
020
7A3
7DB
006
7CE
068
053
033
7A5
7D1
082
02E
01B
0C8
043
7FC
7B7
09A
099
03C
03D
7D4
005
008
025
025
00A
7E0
773
79E
77B
048
7C6
070
072
003
0DD
052
05C
050
02E
038
02D
79C
7B0
7E4
0D8
04B
7DB
783
019
78D
79B
7A4
027
7D8
004
7B1
055
054
7E7
000
01F
7B9
775
048
7EF
025
7E3
035
75C
717
055
053
7EA
7F5
76C
7D8
0E9
02E
0E7
058
089
7B1
7DB
7BE
054
03D
03B
7EE
01A
7BD
7EB
7D3
025
7D5
7FD
749
7B6
79E
7FC
7F1
02D
074
05A
7F4
015
059
7F2
048
7FD
7B5
787
794
071
78D
7BD
7FD
7D3
7EC
7D4
7A6
7A2
087
77A
765
777
047
068
06C
7AE
042
0B0
7B8
052
07B
046
022
7F2
793
7CC
033
016
006
795
79B
753
088
7F5
7BE
7D6
779
788
725
7FB
028
7C0
03B
7E7
7E6
03E
7FA
04F
02F
076
028
7E2
7E4
016
07B
051
796
7FB
009
793
01C
7D5
7A9
7AF
765
758
6FE
769
745
79C
028
066
794
004
056
08E
0BC
7EA
7C2
7A3
020
097
0C1
070
7F8
7DA
7B0
779
76D
7A2
74B
794
7B9
77E
737
776
77B
012
001
062
026
04F
073
0A9
7E5
797
759
06A
061
0B3
0C3
0BF
079
025
7AE
759
798
747
72B
76D
7B8
7EE
779
7F5
025
7E5
7F7
006
7BA
7FB
067
7F5
737
748
7B9
057
075
09B
0CE
0A1
020
05C
78F
728
731
74F
6F2
6EF
79D
75A
010
006
726
7FF
7AA
75D
759
7CA
76A
6DB
6FA
7A6
7DF
01F
0A5
0DA
06C
057
0A8
09E
7FC
73A
6F1
7B2
781
6FB
033
7BC
791
7FD
746
760
766
675
729
6FC
721
6EC
7A9
04E
066
066
02E
056
03A
00C
07F
0BD
7A5
59F
5EA
696
77A
6A7
70B
7A3
79D
005
688
799
7B0
6A0
60A
6E1
64C
785
016
027
019
00B
041
057
089
080
0FD
143
689
511
593
609
593
68B
703
6A1
76F
792
73F
7B0
062
70A
6D3
6EE
7B4
014
062
030
022
02A
081
0DF
096
0DC
202
16C
6C4
49D
559
560
53B
61C
699
797
7CE
73A
72E
0B9
01D
721
7F7
732
782
019
021
004
02A
08F
0BA
12A
1DD
156
227
132
5C7
51A
61D
631
606
5A8
6A7
6D8
7FC
7C1
01F
009
03E
7D1
02D
7D2
7B4
025
011
046
051
01D
12C
05B
0F7
0D8
237
07F
5B9
5CA
5A7
5C9
5EF
562
685
6D6
762
7D7
771
0CC
00A
7DE
094
03C
7E9
7E4
7FE
7DD
0A9
031
053
7DF
0A5
110
152
006
60B
593
52F
4C8
579
649
66B
6E3
775
7CC
09A
0A8
7DA
021
03F
070
791
768
764
75B
017
7D0
0C5
100
13C
167
12C
75B
683
56D
513
4E1
589
64A
688
72D
6FC
097
03E
026
011
75C
093
04E
08E
0A3
7F4
7D8
04D
0C0
1C7
267
195
178
069
74B
0C8
57C
4D5
4C3
5D5
60B
700
79F
01B
0AF
7BB
7C6
023
