010
3DE
026
023
005
3B2
03D
0D9
067
013
10F
051
10B
191
13C
0A7
15A
14C
05D
11A
0EE
10A
0C9
0C0
10A
07C
3DB
009
0EA
010
3C4
10F
39D
396
013
385
3E9
004
3C3
3A2
002
09B
137
16B
175
130
061
3F4
024
047
05C
3D7
3F7
00E
339
2D6
371
065
062
00F
36E
2D5
2C1
2ED
346
3AF
397
39A
320
318
390
340
02C
3ED
39F
3EB
3F8
041
024
3B8
3BC
036
3F5
04F
06A
36E
36B
067
396
2F0
281
278
2F9
399
329
369
323
32A
384
3B5
01D
3C9
02F
049
3C7
061
04F
3DB
381
00B
3CE
3A3
3B3
2E9
3A7
375
39A
3F5
32D
35D
360
356
3EC
39D
018
034
3B2
044
01A
090
039
011
3CB
025
3DD
026
3E7
38E
37C
047
3B4
035
015
020
3B0
322
315
2E9
3A3
3AD
011
01B
3CD
00A
035
055
087
080
072
015
3F2
03F
074
3F3
3DB
3FC
364
3CB
397
079
04D
007
3F1
380
37F
331
363
008
08C
042
056
03F
057
071
073
02B
097
037
041
3E1
032
3EA
3D2
3CA
35C
3E1
394
3C4
3D6
3B4
33F
38F
3B5
37E
04F
3CB
3CC
047
3FC
06A
073
02A
01F
061
020
077
025
046
075
03A
049
3AA
364
3EF
366
3D6
3CA
3C0
366
0E6
3DA
3F8
002
074
062
033
060
033
3DC
38C
32E
3AD
07A
0BE
0D2
3F7
3ED
3EF
3E9
384
3CA
004
2F5
3A1
301
005
39C
3E8
390
018
016
022
07B
014
056
039
012
3E6
3D5
069
0CB
0D7
0AD
3E1
38A
016
3A4
030
3FB
02E
098
3CD
357
3BE
06B
3F2
057
042
396
3CF
029
040
07C
045
035
034
028
0A9
052
0FC
011
365
3E1
3B4
03E
01C
3A8
016
394
3EC
042
014
032
023
018
04C
3AE
020
03D
0AD
06A
077
033
00F
0DC
0A9
11D
0AB
3AA
321
30E
3B6
000
3CF
00E
3CE
320
011
035
0AB
3E4
02D
06C
036
059
008
090
009
045
066
0CC
072
035
0A1
0F5
02B
365
366
3A7
369
383
3D8
369
3CD
3F1
055
04B
0D8
01C
074
020
036
015
3F0
023
3DF
025
04D
078
11E
0DA
0E7
0CF
3EC
3B0
382
365
01D
3C5
2FB
3BE
3BA
3FB
000
044
089
3BF
3B5
3CF
389
3CD
3D1
3F3
012
05A
0A6
080
107
090
05D
039
393
31D
334
395
398
003
3AB
3AE
39E
001
3FF
3F1
3BD
3EE
34F
3CB
3D7
01C
000
009
107
04E
3DF
3F2
0B6
015
004
028
2B1
2C9
353
348
39B
340
3EC
005
3DD
099
07B
020
3F6
3EC
372
008
019
01A
05C
084
09C
039
03F
002
000
3E2
029
3BD
2AD
38B
393
39E
3BD
01D
38B
35D
3C1
04C
3FE
34F
3F6
3D7
378
32E
017
04A
0D0
0B7
06F
032
3E0
3E1
06E
3EF
05C
325
2E2
32E
3A7
38D
3ED
3A3
33E
364
046
33D
345
008
019
3DA
370
3CD
3BA
03A
051
08B
01D
39A
3BA
3E3
377
3B6
04C
301
347
37D
39F
387
3ED
022
39F
3C9
052
3F3
3D1
3EA
3B8
3CD
317
3E4
384
3D9
02F
041
3CB
3DD
029
005
3EF
024
3EA
39C
31F
3D5
381
3C1
3C0
3AA
341
018
048
3E6
015
06C
050
309
361
000
01C
3FC
035
066
388
00B
012
3AD
028
014
007
354
370
394
338
3A4
00B
371
3D1
064
10C
3E8
09C
3C2
3FA
3EC
38D
3ED
076
03A
037
384
3C9
030
3FD
033
028
3F2
057
014
381
3D8
364
006
38A
3AE
01C
043
06C
06F
01B
366
392
3A0
3FA
3DB
020
04E
38E
326
3B0
017
043
049
001
3C5
3E2
003
37F
3B5
3C8
3C7
3B9
00D
3F8
062
0A4
0AF
091
007
3B7
37C
3CD
3EB
044
040
3BE
337
38A
07F
09C
0AF
02A
3CD
3DE
3D1
051
016
001
3D3
05B
089
03E
08D
0B9
3C8
09D
3AE
354
003
002
048
385
3BA
381
09C
3D8
064
3C5
00F
017
3E7
3D0
3B4
3AB
3B0
3F7
3E5
015
0BA
007
07A
040
3FE
014
02A
3A2
31F
3A9
36F
368
064
07F
019
070
3E1
01F
018
3B5
3F1
00B
015
3D5
03D
080
3C6
07D
070
098
0EA
3E9
382
3C3
3B6
0A1
3F3
026
3EF
03E
3DD
3DD
3E1
00E
3F2
3CE
388
3E0
014
005
3FE
3EB
02B
00D
0EF
073
121
075
0BE
018
3B6
368
049
0A2
044
088
039
049
3CF
078
045
3E4
3E4
025
007
3FD
037
00E
048
0E4
0A6
0EA
0AE
0AD
0D3
03F
000
023
