1AF
F4A
F43
F50
D9A
0FB
EFB
F19
B41
DCD
193
121
EB2
17D
193
095
077
223
E58
F75
37E
1E7
1E6
020
B7A
F12
ED3
D12
198
020
18A
E3E
CAB
0D2
F99
046
22D
D98
E60
CD9
23E
29F
D19
1D2
F57
181
28A
122
0C9
194
22A
DEB
0D7
F4B
0C0
FE6
FAA
0FC
FC8
D23
D02
CE8
0AA
1C5
06B
C4D
103
E38
F60
F94
D8C
EDD
ACE
E0C
0F2
E4E
067
DEF
CA8
080
B39
E18
180
FD4
FFB
1D0
1B2
1C3
26B
161
F35
0E3
DFB
16C
110
E30
E09
D93
078
EEE
FD9
FDA
0D5
F71
284
0D3
35C
187
133
E8A
F75
F2D
122
C8F
280
F7C
F0A
F51
F1C
18D
FC5
388
F71
CF7
09A
0DE
D1C
DB8
