020
7E5
07F
049
039
13B
199
1C6
0B9
0B9
0A9
1DE
11E
1E4
14C
158
234
1A3
0A7
0A2
174
1A6
165
0DA
20C
0F0
132
015
03E
021
00B
052
058
038
7B2
016
7C2
7D9
0A9
023
06C
01B
076
0B6
014
0FC
0AB
0EF
0B4
141
22C
282
2E1
7F0
078
7BD
791
7FC
7F9
0BB
767
7E9
7DB
06E
04F
055
029
07D
02D
01A
7E2
7D6
7D8
7E1
013
7F0
781
02F
029
109
166
0AE
7BF
757
023
048
7BC
024
106
7F6
010
059
040
7D9
010
7E0
040
7EA
7B9
01A
036
7EA
01B
01A
013
045
080
076
095
093
73F
719
019
091
76E
067
06D
01E
03D
03F
058
7D1
021
022
7F1
009
022
7FC
015
7F8
7CC
7F7
7D1
00A
051
02C
00B
7D6
052
74B
7A1
002
03A
08F
0A4
7F8
04B
00D
019
7FA
7BC
7E1
7CF
7F7
015
7E3
7DA
7CF
78F
7DC
00A
7CD
796
7C7
7C1
7AD
75B
7F8
775
792
7FD
05E
00C
000
076
020
01C
001
7D5
7E8
7FB
7DA
02F
018
001
016
7B8
7DB
799
006
770
7B6
7FF
797
01D
767
7AE
76D
7C8
02D
01E
03F
074
08E
01B
7D8
7DC
019
7D7
068
065
03D
01C
7B4
7FB
7A5
7B2
04A
7EA
044
7E1
7A5
7FD
74A
7AC
758
06B
06C
031
0CD
05E
0C3
054
7E1
7EF
7C6
034
032
7F6
060
7E1
7C5
797
7C6
7B4
7D0
014
7E5
7B2
7B4
031
73D
74A
7E4
099
04E
7D2
7FA
067
08F
049
7E7
7B8
014
04A
00D
7F0
016
7DE
7B7
7EE
7D8
7BE
7AB
016
021
7AB
7E1
046
797
01F
78E
080
07D
7D4
007
7E9
074
04F
024
791
7AE
034
7A4
7B8
7F2
7D7
7E6
00A
7CC
7B3
027
017
01E
04D
058
050
03B
7D4
7A0
7B3
024
7FD
017
017
0B0
091
7FA
7FB
038
00D
774
00F
035
777
7C3
7D3
7D5
017
010
04F
019
7C0
063
7CB
01F
774
7A2
7C8
0AD
7FE
017
034
0D7
077
06F
019
06A
7E6
7B5
7AE
7BD
7B9
7D4
76A
7ED
7A4
027
03D
7E1
7E0
01D
7BF
7E9
7D5
078
7E9
015
039
7FA
002
0B6
044
054
08F
047
7D3
769
015
7E6
7ED
7F7
7C1
7A8
7BD
019
01C
790
77B
798
788
001
7D3
06D
08E
02A
7F0
036
0A2
04E
097
027
067
087
7F0
7BE
033
005
7CF
025
7B3
016
004
021
7E7
00D
7F1
7C7
7BF
79C
057
037
09F
04B
7FD
7DC
033
08F
033
08B
04D
018
7F6
7F5
05D
074
04C
03B
7E2
7E5
7EC
046
7FC
7A8
7BE
774
02E
7E4
7C4
7A4
03F
02A
011
02B
023
7D0
040
061
05D
04C
021
026
01B
08A
08F
067
006
023
7FC
037
79C
011
77A
76B
079
0A6
7F9
008
7ED
004
7EE
020
7F5
027
038
062
05B
021
05D
047
041
045
070
02D
7FE
001
052
03A
7DF
7A9
7D0
7F4
03D
7E7
7C5
7BF
794
7F3
02F
7D7
007
00B
02E
7B8
011
7ED
057
09C
085
09D
083
066
045
000
7EA
7D8
7B7
78C
04F
7D4
757
092
02A
7E3
020
7D5
7CD
02C
004
00E
045
039
7E2
04D
7CB
008
050
029
081
011
004
021
00B
019
013
0BA
052
7DE
780
008
05D
083
7E6
7DD
7B3
7DE
7F3
7E4
7DE
009
7E5
04A
000
068
054
02F
056
052
7FA
01C
7CD
06A
05F
031
054
048
7E7
00E
04F
02C
02C
05E
048
7ED
010
01D
795
031
02C
01E
066
05E
060
030
097
059
097
01E
069
060
02B
075
044
106
0A9
0C6
7E3
012
02C
085
003
7F1
7EF
007
7A5
7F1
001
009
7DB
01C
020
045
048
028
7C6
03A
040
008
069
030
06E
04E
0FE
016
039
062
78C
00F
001
000
02B
7E8
7C0
7FE
780
7BF
7E4
7C6
02C
053
030
078
04A
004
09D
022
011
018
057
0DC
0BA
7BB
092
078
023
7AE
019
7E8
7E1
036
7FD
79B
7ED
764
78F
7C5
012
036
7DE
018
7E1
77B
7F8
78E
72B
7ED
771
71E
0EA
08F
034
04C
05F
79F
7DD
7CD
047
038
7B6
7D7
7AA
76D
7C2
7B9
74C
75D
778
75D
792
79E
7DA
761
721
73B
776
7DB
7CE
081
791
792
798
6FC
716
750
767
7B4
74F
768
6B0
6C9
6EB
656
5F1
6AF
6D1
709
761
763
753
7A6
6FA
6EE
6EB
019
087
7E8
042
021
00B
74B
73C
723
794
7CE
6DB
7B6
7ED
01C
747
6D0
666
032
694
6F6
788
712
691
7C8
651
736
777
08B
093
7F9
