7DD
7E0
049
7D7
027
039
070
056
0BA
0C0
06B
0DC
070
0BC
077
0C6
7CD
7A3
718
007
131
0A1
092
0AD
067
7EB
7A2
7D9
06C
7F1
070
7EE
0A3
0C9
068
01F
017
019
08A
008
02B
788
7D2
00D
7F9
075
798
001
7CD
092
04A
038
7E4
02A
7EE
75E
75A
7A0
7AF
06E
073
000
7F1
030
002
025
018
7B4
01E
7F1
7FA
7A3
7B1
7BC
78F
014
79B
004
00D
77E
012
776
78C
7BB
7C1
053
092
7F3
034
02B
009
05B
032
04C
00E
025
018
037
05C
7C8
089
04E
044
04A
7EE
7F3
041
74F
787
7DA
7F2
05F
047
07E
000
7F0
037
7D5
000
009
028
01D
01A
041
7DA
001
7B2
7FB
7FE
01C
7E5
7DE
00A
000
7FB
7BE
7E5
79E
7AC
70A
7A5
79D
7D3
7A1
038
7C2
7C4
788
000
02E
7BF
7BB
7ED
010
7E0
7D7
7A2
7BB
7E0
7AE
00F
7E3
053
7D7
7C3
77A
719
714
7A2
7FE
036
03D
014
7E7
017
7F2
7DE
00F
7E4
7F3
7B3
7EB
7FC
7FC
01B
7DE
7D1
795
7E6
7B6
7CD
7A1
7BA
7AC
72E
74D
7F8
00F
01A
7D9
792
7DF
7D0
005
019
02C
7DD
00A
00B
004
7E3
7CE
77A
018
7B8
7E0
793
772
7B4
791
7AD
005
7FC
6FF
042
7F9
7E2
7BF
01E
039
027
014
7FD
797
7FF
7C8
7FA
01A
7EB
7CB
012
7E2
003
02C
7FD
009
7B3
7E4
047
01C
057
0BA
024
7FD
7E4
7E9
7C8
02B
7FB
7EB
7E2
00A
001
00E
7FC
7FF
7DA
7CD
7BF
7C3
7D2
021
060
02C
03B
7EC
7C1
7C9
7F0
014
027
003
020
008
7FF
04D
7EF
7FC
7EA
7E9
7C9
053
7E1
7EF
012
7C4
795
7D3
009
029
00E
044
008
7E1
7E8
751
042
059
78C
0AD
00F
7CE
7C5
059
7D3
006
004
02C
000
01F
040
02F
009
78B
03B
7C7
7F9
7D7
045
064
00D
028
717
700
7B3
769
79C
084
7E4
004
021
043
027
796
020
023
7F8
037
025
010
7F9
7DE
7F7
034
00B
01A
088
07D
047
040
774
76C
70B
791
75C
7F8
01A
012
029
014
7D2
016
7C8
06D
7E5
7DE
7BB
7EA
7D7
79B
7CA
7EB
7E1
056
024
08E
055
06A
045
001
7FD
76A
7AC
7F7
7EE
7CA
774
7AC
7D7
023
02C
7DB
041
01B
7B1
7EC
7BA
79E
7F8
001
023
094
056
040
043
03F
011
7CD
781
644
7FF
7C8
77C
79D
722
7AB
79D
783
740
7A0
7C2
755
792
75C
77C
7CE
7D9
021
09F
06B
050
00E
044
006
02E
7BE
001
701
01E
724
011
7AB
7C5
769
739
600
6F1
6CA
731
76D
78B
786
7A9
010
03C
09C
078
7FC
035
078
034
7F9
7C2
7E0
78A
7B8
02B
7B1
037
789
7F9
796
796
729
6F6
69B
69E
6F1
73C
039
023
06A
083
076
06D
02B
034
038
03E
7B1
02C
7B3
75E
73E
08F
04A
05F
7D4
022
04F
02E
00D
7BC
7B0
730
7D9
053
0D7
0A0
062
052
7E4
011
04C
025
7DB
7A5
7C2
787
761
767
011
076
7E4
023
01E
012
7C8
007
08B
088
06F
0A9
0D7
0BE
09C
01B
00F
02B
7FB
7C7
7A9
796
7F4
7FF
79E
041
022
066
021
095
058
043
7E7
013
08D
050
09B
0D7
0FC
13B
124
0C4
075
06A
031
013
7D4
7AA
016
7E9
7D1
7E9
7B9
029
034
099
062
0A5
0A9
7AA
065
7E0
03F
068
0BE
095
0D3
0C3
0A7
0A0
08D
081
01E
010
7EB
7DE
00B
009
7B5
02E
7FE
047
790
052
059
1E1
0B6
01E
7F8
05B
0BF
0A0
02F
048
052
057
001
060
042
00E
7F3
7D4
00B
7DD
7DE
7B4
011
7A6
043
00D
7B3
017
0C0
1BA
0FF
0F4
0CE
09A
0B2
02D
08A
08C
0BD
07A
066
06F
061
051
039
787
7EA
7CD
7DE
718
77B
7D5
018
775
7A9
112
11B
13C
092
0D7
0CB
0B6
078
085
06F
073
07E
0A3
009
007
7DE
7CB
02C
79A
015
007
798
7CE
6C1
7E5
74A
7E0
06E
12B
10E
7C1
7DE
725
7A8
6D1
732
6E3
79B
7DA
6FA
70D
720
6E9
725
7C1
7D0
7E8
7CA
034
78E
734
6A7
7A8
7EB
031
057
0B0
07C
0AB
78D
6BA
70D
695
5F4
557
50E
513
5A4
568
574
51E
5F6
704
781
7EE
7E3
042
7F4
7CE
6FD
6EF
055
0D1
0D5
0CF
000
059
768
68B
625
657
5BC
548
5A9
591
59C
509
52F
4B7
678
67B
045
79B
026
0A6
003
016
7B0
7E8
039
02E
073
088
7F0
