023
014
79A
7F5
7AF
013
75C
7F5
05D
734
7C5
029
6A8
686
680
73C
773
79E
636
75C
783
7E2
789
648
5FB
7B4
7F0
7C8
0AB
7DE
741
735
74F
04F
717
769
79A
071
7D8
052
7E2
7A1
011
090
06F
08C
79F
7F3
79A
781
796
7C2
7F6
7AB
005
77A
79F
060
790
713
7CE
76E
7BC
791
77E
7DC
00E
7E6
751
7E7
7C9
028
770
76F
008
0A3
792
082
018
79F
022
04C
7F6
000
728
7FF
02C
7C4
7C8
774
77D
7DD
794
7D4
7C3
770
771
73F
7C9
7AC
750
727
767
796
7F5
077
049
7E1
7FC
026
033
7BC
7F0
7E3
725
75C
7CD
799
7DD
7B3
7F4
785
783
786
7A3
779
7D8
793
77B
78F
7B3
7ED
7CE
7F1
04F
7F0
757
76E
78B
77B
79F
6E8
787
766
080
7FA
7CD
7A3
7E0
7EE
7DC
7AB
78B
7A8
7A6
7CE
787
7CD
7AC
79A
03E
7F2
7F7
785
7B2
7B6
73F
7B3
7EA
730
765
7F9
7C1
792
7B8
7EC
79E
7D3
014
7C0
7D6
7AD
7C5
7B2
7C0
00E
007
7FA
0A6
04F
7BE
777
7D6
04E
6FE
739
78E
64D
6F6
7E5
00F
03E
01B
011
7F9
7BC
016
024
7A3
013
7DE
012
7CF
7EC
028
7E4
7D7
055
06D
012
783
7E1
757
700
66D
667
6E5
789
7D7
03B
018
030
79E
7CD
7ED
761
76A
772
011
7B3
029
018
018
7D0
7C5
7CF
7F3
7E6
02E
757
722
7A5
6C7
6F6
72E
732
799
006
7FB
7C6
7C7
7A4
016
76D
741
7CF
7E2
7BE
7F7
045
019
043
06C
013
7A8
016
7C1
738
7CB
07F
769
7C2
79F
7D8
7CA
017
016
7E6
7C7
7B4
02A
7DE
7E2
7EE
7F0
778
7EB
7BB
05E
06A
018
7F2
7C1
7D0
000
7D6
037
00E
72C
78C
05D
01D
016
046
076
021
7C4
7A9
03B
7D5
05D
7FA
7C4
78E
7A5
7B5
7C8
066
0B0
01D
7A2
7D5
7E7
011
029
7F5
796
7F8
02E
7E4
084
019
098
007
05A
7E6
04E
05A
059
7F6
00A
77B
761
703
737
021
045
032
7AB
04F
0A6
006
78F
64F
02E
0C5
05A
7D3
7F3
7FD
051
7F8
7B2
034
06C
05C
07A
06F
085
7D1
770
6AD
6BF
78B
77F
7BE
03C
063
066
01C
79A
76E
79B
00A
002
032
02E
044
037
036
02C
008
085
065
06B
04D
04D
06B
040
6BF
673
745
7FC
012
05E
7EC
041
031
75A
7B1
79A
047
047
042
037
042
061
001
7FB
070
057
087
096
030
0BB
062
7B5
740
636
655
7DC
006
7F9
794
778
77A
770
763
78F
7C8
040
037
03E
04E
7E4
02D
041
051
07D
08A
087
0AF
043
0C8
03F
6C9
650
6C0
7CD
778
74A
6DC
6FA
689
7EE
797
7B7
74E
006
037
082
7FC
7FD
7E5
0C6
0BE
04E
075
0A7
08F
0C4
0E4
0C3
7C2
657
735
6B7
695
5CF
690
6E3
799
790
02C
069
798
7A5
01F
7F3
04B
7D6
015
01E
041
08B
0BB
088
0B3
087
0EA
0F8
786
676
661
634
67A
650
663
673
6B3
7A4
05B
0F9
00D
7CB
007
054
00D
7FD
7FE
7CB
099
0D5
7EA
07B
0DC
056
08F
0FB
73E
64F
5FD
5FE
663
709
6B0
6DD
6E6
7CD
089
7E9
783
007
082
02C
03D
03B
08B
061
7FB
040
031
081
016
7FA
067
07A
732
5C9
67B
6F8
6C0
77A
745
781
735
74A
083
72A
76C
046
048
045
074
7FC
7F7
03B
02C
063
038
011
7D5
05E
06D
06C
78F
6B2
688
74F
6FB
6BA
6D2
763
7E3
06F
0E7
747
764
7BC
086
031
00C
038
006
065
0A0
080
053
022
7BD
7F3
0AE
7CC
78F
6DB
63E
61B
681
6BD
777
747
7CD
0BF
0A4
7EF
754
7B6
030
060
06B
04D
080
006
046
05B
056
076
08A
065
0FC
0A5
034
6D8
62E
60C
67A
6F2
7E1
70A
7FC
092
12E
7B8
7CE
786
07F
076
7F3
000
05F
051
033
7E2
08A
06F
099
0B3
0DB
08C
02D
6AE
6A7
566
60C
6EF
753
030
037
0E8
08C
7E2
7E8
7E4
7BA
014
7B0
096
7BF
029
7DD
038
088
055
006
086
0C8
041
78F
66D
615
60B
62E
6C4
714
72C
7B3
04B
00A
047
78D
7CE
7B0
029
07E
034
001
767
7BA
7FA
7E4
081
013
09D
0C4
03D
6EE
617
589
5AB
669
706
73F
7C0
7D6
040
7FA
071
000
029
7D6
0BB
025
085
077
07C
0AB
04C
7F4
06E
07B
069
0A7
757
6E0
6D6
624
630
6C1
6E2
70B
7BC
7BA
7FE
7EC
