014
7E4
044
7F4
099
0C1
013
065
0CF
0F4
13A
14D
06A
100
0D5
7FA
0CA
059
05E
0CA
117
000
053
0D1
049
0BA
0D0
7FA
7F3
7EA
104
10F
063
05B
774
76F
04D
081
0AD
039
7DF
063
06E
018
0DF
00F
045
06D
0FA
0D0
121
038
077
05F
03D
0CB
7FD
7A4
09D
793
7B5
021
010
072
049
030
048
063
018
0AC
063
06E
047
044
04D
020
060
025
7F2
05C
03A
7B3
0C0
1D0
7FA
7E6
073
02D
077
003
7CF
7B0
01F
7F1
097
7FC
7F9
00B
025
08F
01F
041
01A
027
064
00C
03B
02B
04B
072
0F4
0FF
090
04C
7F4
051
7D4
007
02F
022
069
7F8
041
034
7D5
080
044
022
06A
044
00F
043
013
026
033
032
048
0A2
147
1A9
045
007
044
074
7E2
01A
002
01D
032
010
7E4
011
7F1
023
00D
00B
008
027
031
01A
7FA
7D1
013
03A
051
7E4
078
206
082
066
04B
039
06E
03C
7E2
01B
7F7
7EB
00F
7DB
051
00E
02A
028
002
7E5
001
7EE
00B
7F8
03B
00A
034
06F
0CA
195
7CB
7A5
7C0
01C
022
031
031
027
024
7E1
001
7D5
7EE
7CD
7EB
018
023
00F
7C2
02F
7D8
7DC
000
011
060
04C
03D
1E1
01C
77E
025
01D
013
01C
025
7B9
011
02F
041
7ED
01B
02C
7FB
004
03A
029
7D5
01C
7EB
7DE
7E9
040
7E4
7F4
771
1A4
06E
7FE
009
79D
775
00B
017
021
001
7F5
7E4
7F7
055
023
7E2
05D
037
017
019
048
7F8
032
7F6
7E5
7D4
693
6DD
17C
03A
06E
038
7EB
75E
7C9
7CB
00E
00F
7FC
7FF
7F6
026
03C
02C
049
05D
02F
032
7F5
01A
014
7B8
74A
6BA
67E
703
046
00C
023
7E2
00D
7D1
001
025
026
014
01F
7EC
00E
033
059
04D
08E
051
7B9
047
012
7F2
788
79B
75A
712
706
046
03B
06A
7F5
79D
7FC
049
7B8
011
7A5
006
7E2
01E
035
055
02C
07F
068
034
07C
009
7D0
7BD
76C
754
7DF
7F0
044
045
7BD
02F
7E7
01B
7FB
78E
024
776
7B2
7DB
7BB
003
01A
030
03B
08A
0BA
050
011
022
7C0
7BD
7B3
043
028
06E
0C6
068
0B2
0FD
0A5
7C9
7CA
7F5
780
7AB
71F
740
737
759
781
7D1
7FC
07E
150
0AF
0CC
021
046
074
07D
0B0
0AB
111
140
089
0EE
007
79D
784
7E5
7BD
76F
7D9
7A2
77C
767
739
718
715
749
7DE
0FE
129
0F1
0DF
0E0
0FA
0DF
0F8
0CF
0F7
0EA
0E7
0A8
7BC
031
797
7C7
7F4
7F5
001
7F8
7BD
7A9
77C
746
6BF
68E
6B8
7FF
0C0
09D
0E1
0C0
081
0DD
0B5
09E
094
0B8
0A4
06E
7BA
7DD
7B1
79D
777
7FA
018
009
00E
001
001
7F9
7C6
711
700
75E
003
010
035
068
07F
096
079
02A
090
0C4
0B5
063
000
027
784
7AE
7C9
7E9
7F4
7F1
02D
002
7D9
7E0
7A1
7F0
726
75F
7AB
7EB
03C
066
030
057
01E
08D
07A
057
083
7D6
100
035
7DF
7FA
7DE
004
004
7BD
7C1
7C0
7D6
7B8
010
7CE
7A1
7A6
7AA
7EC
7F3
00E
005
030
7BE
7F5
7CC
015
080
01F
0C4
071
75F
001
7BA
005
7E2
7D6
7A2
7AC
7D8
7C5
7F7
7B8
7E4
7D6
79F
7E1
7F3
7D9
7B3
039
004
007
044
7F2
023
6F6
038
07E
061
01A
7EE
039
02E
7EF
032
03A
7FF
7CF
7E2
782
01D
7E7
7C3
7B5
00A
7C4
7DF
7DC
02F
01D
010
03D
7CE
6B4
7E8
003
079
04C
023
01F
7F5
036
7E7
001
019
028
7D0
022
7D3
002
018
7E3
7DA
026
7E9
7B9
01D
7BC
04A
034
7EF
7E9
7E7
002
022
7AE
037
79F
00A
7A4
03D
7C1
004
7FB
7D1
7DA
7CE
7AF
7AF
73E
752
74C
77C
71C
773
065
067
7CD
790
01C
7DC
765
00D
7C8
798
010
7AF
7A4
77F
7A3
7D4
7DF
057
7D7
7A4
7A0
770
796
75C
7A8
770
787
7B4
7A9
7BF
7B5
0C7
01C
026
009
788
7D6
092
7A2
72E
057
7D8
024
7D5
03C
06A
02C
047
7BD
069
7FF
7E0
7E5
080
02B
6EE
7BE
7C0
00E
076
786
7E4
024
7E1
7F5
71C
7DD
75B
778
038
063
039
78C
003
04F
7D0
7C9
731
724
73A
772
758
02C
7A4
7DD
75C
06E
0BC
001
089
77F
748
75D
770
6B0
65C
6B3
640
647
67F
6BF
617
57F
5E9
030
58C
5EE
58C
626
5F9
704
7A3
741
7A9
01B
753
015
