7E3
7E6
7A8
775
7E5
021
7A8
7E3
01F
6DB
022
027
0ED
132
07F
064
02C
0F7
04A
75C
01D
05F
74C
034
0AA
092
7A6
7CA
030
017
052
0AF
058
0D7
78A
01D
775
7C7
057
071
06E
066
0BC
04D
091
7B6
7E8
03D
0CA
7F2
035
7E7
7DB
039
094
706
0A0
05E
043
09C
07E
05D
7F9
7EA
7CD
765
011
7EA
7E7
7DF
001
78E
7C3
7DD
03E
02A
04B
079
03E
061
75F
7E0
7A6
0BD
09B
11E
0E7
0E2
0B1
0A7
061
059
00C
060
074
05C
041
067
04A
05D
078
045
027
04C
08C
0B1
0C5
0A2
0BF
7F7
07D
0E1
0ED
141
013
089
0A1
0B3
0A4
0FF
083
0A9
0CB
091
08E
07A
081
055
056
00E
024
000
05D
0BD
054
08D
0DB
0C1
08F
0EB
75C
03B
7DE
083
009
086
0CF
03B
00E
034
011
021
06E
0A6
07A
061
7FD
02E
030
091
06F
064
063
07A
0E5
110
05D
714
747
792
7C4
7D8
7B9
7B4
7F1
7AA
7DF
7A4
79D
025
06E
006
008
016
013
05A
07E
03F
051
062
094
040
072
0B3
084
5AA
68F
723
6E1
70E
7EE
724
731
7AF
74B
756
7B0
7D1
02F
034
092
07A
067
013
021
02B
031
012
001
048
03D
11E
013
567
708
6BC
717
6B4
739
755
744
7CD
79D
7F8
01D
02A
7C3
0CF
048
02A
088
7F7
7EC
7E5
01D
026
032
78A
00E
04F
7C9
5B4
747
723
7D1
782
00B
7AC
77C
7EF
7EF
7FE
7DA
7C0
7E0
081
070
04C
06C
7FA
023
082
088
7FF
07F
020
793
715
5A0
5DF
774
76C
7BE
7AF
005
015
036
7ED
7E6
7A7
023
7BC
7C8
037
01E
01B
042
046
00D
7E8
044
026
036
7EE
012
709
602
663
776
785
7B2
010
775
7DD
7FD
7BF
00D
7E7
00A
7E1
01A
01E
074
016
021
030
01D
061
061
03D
073
7FB
003
79B
016
776
058
7F6
795
7CB
038
7C0
048
7BD
7DC
7BB
7B4
7C2
7D6
7DA
0BA
080
06E
06F
073
068
04D
055
030
7A8
00F
738
709
7D6
000
7BA
073
7CE
7C7
757
7DE
78E
794
75B
78D
786
76A
076
06D
058
064
094
060
055
043
029
00D
779
027
044
7A7
7B3
060
05C
08D
7B9
7F4
791
791
7AF
752
701
743
725
6F2
7E8
0D1
036
06C
08E
061
0A5
00A
7FB
7AB
7B9
7D5
7FB
04B
002
0AD
7B5
764
77C
72B
761
766
71E
6F0
70A
751
6D0
6F8
027
104
050
05A
043
0A8
066
054
7F6
01A
07F
7A7
7D6
7A7
79C
06F
005
784
77F
763
79D
745
7BC
74D
75A
6FF
700
730
03C
0DB
0B5
05D
070
096
060
02A
081
04C
049
7EF
004
008
75D
087
7C8
7BA
7E6
78E
7E0
7A0
76F
7A3
7F2
774
742
758
071
0E8
088
05E
044
06A
04D
067
0CF
0A0
05A
10C
036
0B3
740
762
7F6
7A7
7FC
7D9
79E
7DB
00B
7BF
019
75E
6E1
777
070
070
058
015
08B
0A2
0AE
08D
077
074
084
0E2
039
09E
7E1
008
708
7C6
772
7BF
7C0
7D9
7D8
029
7F4
012
783
763
059
094
04A
02A
051
046
078
052
078
0BE
055
0EE
087
110
028
074
738
735
78E
759
78C
7A9
7CC
7DC
7B5
7BE
720
6D0
768
04A
026
02A
040
088
067
037
03F
05E
057
0CD
05F
7FE
782
7C2
74B
7B2
003
03C
7B9
7B2
7B6
74E
75A
700
6CB
6E3
75C
783
7D5
072
041
021
038
05E
0D7
019
109
062
7E7
088
007
7B0
6FE
7C3
7C5
091
061
056
7BB
7CD
7C2
792
701
71F
771
7BB
02D
05C
00E
042
04E
046
0B1
046
06E
07E
070
08E
0C3
76E
6A3
06B
05C
7EB
761
78E
772
752
739
7B4
72B
77A
731
761
7D7
01B
034
01E
047
033
7E7
07A
7F0
011
7EF
107
04D
776
7B9
71E
773
7A9
065
7F9
760
7D0
7BF
016
7D0
7A2
795
799
7B0
7EC
02E
7D7
7C5
023
7F1
004
067
0A6
01D
01B
00C
737
012
7BE
7B6
059
036
000
7CA
7B9
7F2
798
7C1
77A
7CE
799
7C3
7E2
796
058
003
003
797
7D5
7A7
049
05B
03B
7E8
005
04B
7CF
03B
7C6
7FA
7C2
7D7
7DD
006
7AF
7D9
78C
7FC
7EF
7A4
7E3
01D
7E9
03C
00A
760
020
7AD
09C
07A
7FF
010
066
775
08C
01D
01D
02F
7DC
017
7E4
082
04C
04E
014
78D
012
02F
01F
048
02E
7E9
7E6
7D7
6ED
77D
7B8
735
009
022
