021
3FC
002
3B4
314
31C
336
328
2E4
053
3DC
03F
34C
30C
368
39C
30A
3E3
3A2
367
3A6
2D1
281
36F
012
395
3B9
3C4
3CF
003
3A0
352
366
3C3
021
35D
35C
3E5
00A
012
39E
370
3EC
03B
3D5
328
3B0
331
03C
3B4
3FB
3D7
3B7
01C
3F7
046
36C
3D9
028
3AE
058
023
3A7
3EA
081
051
037
055
049
003
012
01B
3FA
3C3
3F9
045
341
3FF
083
000
059
3EF
3C5
3C7
3F0
0D9
030
051
016
3F1
070
071
067
3AD
062
00B
0A6
064
0E5
046
036
05A
077
011
019
063
077
3A6
011
055
2D4
3D3
021
072
0AD
07E
3B0
00A
3E2
008
3E3
3EB
01D
059
036
050
3B7
055
024
3DB
053
08B
090
04F
07D
02F
029
03E
3AD
00F
035
3CA
3E6
05F
3F4
018
3FA
3C9
3F0
000
04D
009
3EB
009
024
0A4
0B4
047
0D6
09B
09B
09D
013
3EA
3E8
051
0AD
076
0A0
3A7
344
3B4
3B1
3AA
37F
00A
38B
3F9
3BC
3D1
012
058
011
03D
019
075
040
0B6
068
02A
3F5
053
057
3ED
067
33F
3A7
3B9
3EE
3D3
328
381
002
3FA
022
000
3BA
01F
045
048
078
015
002
00B
02B
00A
066
01F
008
3D8
3EA
353
3BC
3D6
0A5
3D3
396
3CB
39A
398
038
3CD
060
073
091
06F
074
095
076
06E
041
001
3DD
3F4
3D9
014
007
020
018
018
358
31A
082
3F4
3F5
038
057
06A
04C
04E
039
079
05B
06A
02D
067
074
0BC
0F5
09A
07B
04F
036
3F6
3F2
3B8
397
3C4
3A2
3C7
3DF
3F0
04A
061
0D6
053
07B
0D2
03D
091
074
092
0A4
059
065
0C3
0AE
0F6
06D
043
029
025
3F9
3F1
067
03B
3DF
02A
372
02E
0F6
05A
08C
01B
080
085
02A
002
017
049
053
3C2
3E8
383
3A3
3EF
00D
04A
3FE
06C
034
006
035
039
3ED
3DB
399
027
09C
03F
05D
399
3FC
007
3CE
3C3
3C6
010
380
3AB
358
367
332
387
3D8
3FC
013
014
03A
034
3D3
3E1
3A8
030
3A5
376
012
3CB
395
345
39F
3CC
009
37F
391
341
32D
35C
346
38D
3AD
390
39F
3F5
3E7
053
058
016
07A
05A
3C2
01D
3D2
3E5
3E5
3DB
014
3B3
3D7
3AD
3A9
378
309
3F6
3CE
3B8
00A
010
3B6
3C3
3D4
3EA
3A0
3F9
009
056
3E7
02A
003
3CC
39E
3C0
030
3AF
026
3C6
38F
38D
397
3B7
3F5
058
013
3E5
01B
386
3C1
3DE
3CE
3C3
3FE
3ED
000
042
3C0
3A1
3CF
39C
3F7
058
033
3E7
3F9
015
3C1
3CA
017
028
064
0A9
030
39B
3C1
391
357
3D4
3DD
386
392
3CA
3F2
038
3DD
3E6
3C6
326
3DE
036
3E3
38F
006
3D7
3DE
36D
042
03A
078
088
02D
390
3D9
3DB
378
3BA
3FC
3C4
3E9
3BF
3FC
00C
3C4
00C
057
3EA
3C6
3C2
00D
3A4
3C5
3D9
3FD
011
06B
06D
0F2
03A
011
389
00C
3A5
3EB
3C6
3B6
3FB
3D6
018
3EF
39A
3E4
3D9
02B
3FD
340
012
3BD
3D0
389
3F0
06B
07C
0A2
081
074
002
3E0
3F8
3CF
3E0
3BE
36E
368
3CE
011
3BB
3C0
3A6
3C6
3F2
03F
3BD
3F5
392
3CC
010
022
3FC
036
083
087
090
076
398
3C6
3C1
390
3CB
3B7
3A6
01B
3DE
3AD
3AB
35E
3D0
002
3F2
3A1
2F9
088
0BF
04F
029
3FE
07F
094
0AE
08B
070
04B
342
37A
3DA
350
384
3C1
016
368
3C5
38B
393
379
3D6
3EA
007
347
369
016
0C8
1C8
0C7
0E8
0BB
072
074
3FC
098
066
3C8
3AA
3FC
3CA
3B5
3DA
399
36D
379
3A5
3BF
395
058
3A1
356
3A9
3AC
0DE
0EB
1A4
190
14D
0D2
089
069
03A
031
034
3E8
000
3C1
39C
378
366
3F5
3A8
3B3
05F
3BE
3BE
074
0E3
3F9
33F
06F
0BF
11B
0EF
13E
16A
166
3CB
3D4
057
077
3AE
050
3E4
000
3B4
3AD
027
057
027
091
0B2
079
01D
009
102
084
2B7
03C
089
0AD
0B3
047
070
0F4
0BF
138
0D3
084
09B
0C9
061
0DB
0A1
092
09C
04B
041
07D
047
39F
04E
3C7
021
067
37E
390
041
04C
0F0
019
08F
030
0BD
0BD
0E2
0AE
0BE
093
0E9
072
082
076
05B
066
3E9
043
3F2
3F8
3BF
007
05C
03E
36D
3F9
069
0D2
3EF
35D
393
3DD
065
00E
049
08C
0F0
0CE
0DD
10E
0F6
088
0A8
03E
03A
080
3FF
020
029
081
0D7
3D5
394
017
