7EA
012
7CD
7E1
7AE
796
7A9
78E
74D
7C1
77F
7D6
770
7C0
778
720
720
72E
702
713
7F9
755
75C
6DD
6EB
743
752
7A7
78B
7EC
061
782
72B
764
6F1
7B2
7EE
765
74A
78F
7ED
7CC
01A
7FA
7C4
77B
7F7
78D
7A6
7EB
795
7F2
7DE
76D
033
746
0C6
03D
016
739
789
013
012
006
749
788
75D
7C5
7A9
7EA
77D
770
74B
7A6
7B5
043
799
7C9
7CD
01C
010
7FA
00B
7A3
7A3
02B
00A
085
7DD
007
027
02A
7F2
796
7B9
00F
79D
790
7A5
6F6
7E1
7CA
04D
02D
051
00B
077
057
002
793
7AA
77E
7F5
0A0
7AB
7F4
038
033
089
7DF
06F
029
7B5
7F6
7BE
7D3
787
78D
754
76E
78C
7D0
76A
7D4
7B0
79F
79D
771
763
7BE
788
7E3
785
7D2
7CB
05E
072
7BE
7B5
7D3
012
7A3
00A
79D
00B
778
732
754
73E
6D7
709
6CF
762
762
7C1
7BD
78A
72D
005
03E
004
022
7E5
014
01C
031
7BD
7DB
01F
01E
7EC
78F
7EE
786
7A0
794
7A8
76B
73B
70C
74A
781
7B0
7BE
028
740
7F1
07A
7DE
06A
00B
00A
03B
008
007
7C3
7D5
7F1
017
039
7B9
7D8
7B0
7EA
7DF
02A
797
7C2
76C
76C
793
021
028
0A3
009
744
026
006
796
018
7FF
072
7FB
01C
777
040
7CE
02E
039
04A
042
035
02B
03B
044
7F4
7D9
053
096
0B4
10C
156
091
028
027
014
7E4
793
07B
047
7CA
79C
7B2
7B6
791
77F
7A0
032
097
08F
038
0AD
066
05D
036
0EF
113
0BB
135
121
79E
053
036
7C9
7E1
7E0
00A
066
058
01C
7A0
769
774
788
7C2
7BA
042
08A
0D4
0A6
0A6
0CF
088
0C9
188
0A9
7A4
0BA
0AF
0C1
057
08E
073
03E
01F
086
7F0
7CB
7C8
747
742
79F
79E
76E
774
016
067
0FD
122
130
11D
12A
0ED
06E
03F
766
0AB
05B
7F1
075
0DD
7DB
09F
07B
05E
090
7C2
769
73F
77F
705
775
75B
774
7DC
01A
08E
077
05D
079
00C
7D5
713
6FA
7C7
798
7B6
00E
091
059
02D
072
091
0EA
044
033
79B
774
75F
7A9
736
723
6CF
6AD
66C
61F
5B5
59A
63E
6CC
69E
72F
043
78D
7C9
7B8
7F2
018
05A
087
0D7
0BA
11D
0B1
04F
011
7D0
005
772
74D
6C4
608
507
52C
559
542
59E
680
5A0
6DE
7FF
74F
78D
739
78B
7A4
01F
0A0
119
0F5
129
0E7
10B
05E
06A
097
088
051
795
6CB
650
551
5B6
5ED
619
5FD
652
65D
7E1
7A6
784
71D
6A0
72F
730
765
7FE
096
132
0CE
110
084
05B
04E
046
07F
07C
012
783
6EB
669
6BE
699
64E
5CC
5E1
038
7B5
012
024
7D7
77C
75D
730
738
021
01D
08A
0B6
0B5
046
01C
076
083
06C
062
08C
012
75C
730
763
6EA
6C2
66B
7FE
7D7
02C
7C7
033
021
796
01D
7C3
77D
7F0
06A
0A3
069
02A
09A
046
05E
029
059
03F
098
077
78D
789
6C4
706
735
0F7
7D6
00F
006
04B
004
7F9
7CF
73E
782
775
7F0
01C
0AF
042
03E
08D
7E8
028
036
03E
7D9
0E6
010
7C9
68B
71E
7B2
0E0
002
044
7F8
015
05B
000
033
7DC
6FB
73F
7A5
796
002
040
028
09F
092
06F
061
063
046
06E
7D2
7AB
62C
694
015
05A
074
00E
7DD
7D8
06D
00A
089
05F
004
764
73C
74D
7BC
7DD
016
7F5
05E
036
036
00A
063
030
7BE
77F
69B
684
778
0C3
09C
03D
044
045
012
7EB
7D7
036
7A8
00D
7CD
7A8
76E
7E5
7D6
000
039
01F
7F4
7CB
04D
00F
00E
7F9
74E
72F
735
011
060
071
01D
004
028
7DD
025
041
7F3
007
7B8
7D2
78D
7AF
7A3
015
048
064
7F3
039
06D
054
020
7DA
758
7B8
7FE
7A0
03D
01D
01E
002
7EB
7A4
008
7D6
7BF
7A5
7FD
7A1
039
7A9
027
7B4
07D
040
013
7FC
015
03F
7B7
7D4
7E1
751
02D
011
001
07D
7E7
7F4
7F3
032
7D8
7BD
7EE
001
02B
7DD
79B
06D
004
7FC
000
049
037
7FA
7A3
052
023
7DD
033
039
7E1
0D1
7F1
09D
060
02E
021
7DD
06B
02D
017
7F6
7C6
7D3
7B5
01D
7D2
034
7F4
056
7D5
7E3
786
0AC
018
06F
075
089
7F1
0A1
0D6
0AD
0B6
0B1
044
087
056
7EC
091
033
006
069
7B6
029
093
096
0D9
137
0CB
026
7C1
05F
7EA
01E
755
7DB
7F1
