075
1EA
18B
104
12C
098
000
057
D58
185
FC5
F43
E30
165
B93
F76
DAE
20F
0CF
F45
27A
192
19E
FC7
CB7
345
F9A
EC1
04E
053
CAC
1CF
D9C
C6C
E66
240
13D
FFE
FDE
AB2
BFD
CF4
CE4
337
F4E
24F
294
088
07A
FDF
07A
18A
073
DD7
0CD
161
F0E
19D
1C5
E02
F4F
35E
304
080
B67
D28
D9C
F1F
340
ED6
071
E59
103
240
E9B
0F1
FBA
EAA
0C0
F47
FF5
07E
1E2
B23
F68
141
FE3
01F
22F
FFD
EF1
E99
0FE
0D9
178
D31
E40
DA9
0BD
B61
E2F
11F
D31
148
E66
0FC
CE5
C52
EEC
14C
238
42A
1E6
D4B
0CD
16C
29B
EBB
0B1
E66
2B3
E18
040
05D
D80
D7C
35C
F08
