7EA
00B
052
002
7EB
019
7D5
0A7
161
0D1
0FB
1AB
15F
20E
0C8
125
268
1AC
1D6
126
132
198
1EC
06D
03D
02F
130
0DF
7CE
7F1
0A2
052
76A
7E6
0FA
165
1DA
138
17E
126
0FD
080
136
137
15D
05F
07E
0C0
104
12E
168
111
096
072
005
0E8
004
079
0F3
7E3
129
09A
131
149
0C6
058
7FC
797
7DD
01C
7FD
7E0
00F
016
7DB
020
031
7DA
7D5
77D
7C0
7B0
7C5
0D9
037
0DB
12D
059
0EF
12D
11D
0B8
026
7F6
786
7BB
7AD
7AC
7BC
006
7F1
7E6
7FC
038
7EA
7EE
7D3
030
78F
720
7CD
02B
0FC
0C5
163
18A
117
14B
0B2
019
776
7E0
021
7E3
02D
7D8
7F5
00D
795
7D0
006
014
7EB
015
089
021
7A3
740
77D
717
16E
0C5
0D1
107
039
040
7B5
793
762
7C8
7F0
021
010
7FC
7F6
7F7
7C0
7EC
000
7CF
01E
057
08E
7E9
748
73A
6FE
729
100
0EB
0F9
000
019
7D1
7BD
7CE
7C9
01B
021
026
034
01C
7DA
7F6
79C
7D6
7BF
7D5
7E8
083
08B
7DE
769
73F
715
5B1
120
0FB
056
04D
00C
045
031
7CB
7C9
7D6
00C
7B4
01A
021
7F0
7AC
7D7
7EA
7B8
002
078
051
021
78E
6CE
693
78D
5EB
067
0AD
7EE
7D2
02C
000
012
017
00B
7B0
79C
7DA
7F7
7E5
7A1
78C
7ED
7DD
7EF
038
03C
0A2
7BF
703
683
718
751
758
127
019
06E
00E
7EE
034
00B
7E0
00F
7A5
77D
7EE
7E0
028
765
7D7
063
014
007
04B
049
7DE
722
6EB
703
7B3
785
724
08F
021
029
01A
7F7
013
000
7EE
7D1
7CB
791
7D2
017
7F4
7D0
050
7FD
051
030
02C
019
7BA
73C
7A2
7C4
002
7DF
003
049
045
095
7CA
008
7D9
019
7AF
7D8
017
7E3
013
7B9
7C0
002
7EB
039
00F
044
7EA
788
72D
755
7F3
017
005
070
0D4
09F
0D3
7EE
027
01C
7C5
7FD
7C7
7F3
038
021
7C3
002
7DA
7D5
036
030
04C
7B8
7C9
72B
7AC
7A5
765
7EF
086
0CC
08C
069
7F6
7F9
76A
7CA
789
003
024
015
030
7CD
034
034
018
027
018
7FA
004
7C3
7C3
7CC
798
7AB
00E
054
0AE
105
0A2
7F4
786
7BF
7C8
00F
7FF
028
023
7D5
7F4
01D
01A
7FF
02F
7EE
029
015
029
7FB
05E
032
050
0E6
0BF
10A
0F3
06A
056
04A
7CB
788
7EB
023
006
071
7C4
013
051
05E
08A
053
01F
022
060
016
071
078
08D
0F9
11C
0D0
0CD
0DA
044
044
070
7F8
71E
01E
068
019
05B
7F2
7FD
05A
045
08C
03B
7DF
01E
044
01C
017
007
7DF
01D
7FB
092
073
067
098
010
04F
78D
072
009
7EB
01C
7E8
7FE
021
039
071
074
046
7E7
7FB
010
055
051
7CE
005
7F2
7F1
007
02E
02E
021
072
067
7EF
7AD
0BF
053
08B
003
077
7DD
008
036
043
7F8
7E2
7C6
04A
058
081
7DF
7DA
7E1
7B0
79B
778
7FC
7DD
7F6
7B8
005
04C
760
7C7
02E
034
034
7FB
013
013
04B
04D
015
79C
040
7FD
043
061
02F
033
7DF
7CD
7C6
7F5
78D
7BA
7D0
7C1
020
03D
799
7DC
018
05E
02B
7C6
7D6
7F8
06D
02E
020
027
00C
02B
04A
03B
03D
048
7F1
03F
7E7
7CA
7A8
7D4
7D7
7F1
7C5
7B0
719
76B
03E
036
79B
7F5
01A
7FF
01B
7D9
036
02C
00B
002
03C
025
030
7A7
000
00F
794
7DD
77B
75A
77F
029
75F
736
698
02D
7EC
79C
7D4
7E2
011
004
06A
034
03E
031
01F
003
01A
00F
7D7
7BD
7DF
016
01E
7EE
021
715
7BB
757
6E9
78E
788
047
78A
7D7
7F5
00E
02A
066
056
00A
03A
01E
027
068
026
037
011
7F7
02B
0BD
004
7A9
790
73F
799
73D
761
6EA
72A
024
768
7EC
7CC
002
01A
011
03C
035
036
00E
7FA
03E
01F
7E5
7D5
7D2
7DF
02B
7EC
7D6
73E
6E8
753
78B
042
03E
76B
7C7
7E6
7B6
029
000
796
7FD
7E2
7CC
7C1
7FE
7C9
7A7
7DA
7D9
7DF
791
7CD
006
059
027
00B
6BF
73C
036
060
01F
7EC
7DD
7EA
7F8
018
04D
057
7E7
7FB
03C
7F1
7BE
01C
7CE
7DC
7E2
7D0
770
7FB
034
019
054
74B
740
7FB
100
695
6FB
015
7ED
100
06F
03E
7E8
040
03C
06E
080
7FB
7DE
7FD
0A4
08B
046
052
774
79E
793
70C
6C2
6A8
70F
7A3
7E6
71A
01A
7DD
