020
3E8
39E
36A
314
2E8
26B
281
2EF
27F
28F
32D
3AA
2C0
292
26D
306
321
2EA
2B2
380
2C0
22B
2A0
302
38F
0A7
07B
3F4
3E7
06B
072
37C
32E
39C
367
38C
3D4
3FA
00E
38E
37B
39A
321
3A8
294
323
2BE
2ED
02F
2EE
33C
3FD
397
028
013
3CF
039
06E
051
093
05A
0E1
3F2
076
054
050
003
02A
3AE
00C
381
020
367
32F
000
36B
342
3AD
01A
00F
3F3
028
3F6
0E7
05D
01C
3F0
030
3FA
04E
3F0
08E
03E
07C
064
070
026
087
04B
3E3
3FC
3CD
369
3EE
3FC
37E
066
3AE
3D8
01A
032
141
07C
036
08E
08A
097
097
0C8
059
061
0B6
094
07A
071
08E
00F
00F
055
3C2
3F1
376
3F2
3A0
02F
392
3FF
38E
3CF
12D
154
02C
025
03E
026
02B
04D
021
030
062
04E
093
034
071
039
07B
04E
05C
034
3DC
040
3B8
3D7
36E
3B7
021
3D6
0A6
11F
3FE
020
3F2
027
3E0
3AC
012
03E
058
074
084
04C
025
3FE
3DC
015
00A
3DA
027
3B0
3E7
3C9
375
39B
34A
378
051
145
006
0AD
3EB
3F3
015
015
061
016
033
015
0B1
0C3
091
063
3FB
3F2
3EF
064
3C5
3BF
011
3FF
38C
3DE
3A7
383
098
042
3EC
03D
01C
026
3DB
017
018
009
01C
038
02A
052
0AD
0D0
05E
3F1
3F7
3FF
3B0
3AB
020
3E5
3E5
3EF
36B
33E
0A9
015
011
024
3B4
003
028
3F9
3BF
3EE
010
021
01B
032
054
0F9
0F4
071
3B8
3BC
3D3
3E4
02B
031
3FD
3EA
293
23B
029
03A
03F
3EC
03A
3DF
3F1
3D0
036
009
3FE
005
3B2
3BA
06A
0CE
123
0CA
01D
024
3FB
3A6
39B
3B4
38C
2D0
2DF
31B
065
044
039
00B
3CA
3E4
37C
3C3
3FC
3D0
041
3F3
00C
378
3D1
055
13A
109
143
0A2
389
2FE
31A
2BC
28E
229
3FE
34A
080
041
3F7
058
03E
3C5
006
3F3
3FD
002
3F6
017
38B
3E1
3F6
024
07D
13C
1A8
074
3BD
2B0
241
253
24B
2BB
317
30F
08D
3A0
3C4
3E7
39D
3FE
3BB
00C
3F9
3F4
3F1
00B
3EA
3FB
00A
3F4
079
163
0F9
3C2
255
235
2A5
20F
24B
2C2
2C1
2B4
100
3A8
004
03C
3E1
3E2
3E9
3D4
004
3E6
3E8
3D8
009
05E
00F
043
029
0D8
0B9
2AB
206
2F7
309
2C8
2B7
2A7
3C2
3B0
0C8
32B
37E
399
3B5
3ED
3E9
3E4
035
3F0
056
3E1
3FD
3D0
009
02E
02B
016
34D
2A3
24F
2E5
369
359
028
379
399
397
3C8
3CB
3EF
3B6
3A2
047
3CF
3FC
3F3
3E1
022
02A
01B
000
014
027
3CD
3D3
376
325
2DC
3D3
01A
03F
06D
059
01A
34E
020
3F8
011
3C5
029
3C3
3CA
3C8
3C0
024
3E0
002
022
00B
02A
3EB
3E8
02E
016
3B6
3C8
3C9
3AC
098
0AE
07D
06B
39B
02D
3DF
01C
3DC
00F
005
00B
3CF
378
3F4
3FE
01E
3F4
010
3C2
02E
02A
01B
3F9
03C
010
04C
062
065
0D2
06A
027
3C5
3CF
016
033
3D7
3DB
014
3FC
3D1
006
3E6
3D0
3B1
3C2
3F5
01E
016
3F8
01E
3CB
050
050
074
062
018
071
054
026
374
3FD
016
3DD
39E
00E
3CC
3F8
3F3
015
3E0
001
3DD
005
3B5
388
011
02D
03E
052
00A
3E5
035
06F
07D
3F9
036
01B
3EA
057
047
3D8
3F4
00A
3FB
3CA
3DE
3F2
028
3F7
01A
3C8
3F3
3A4
3B0
3C1
3BA
3E2
3D3
00F
06F
03F
00A
3F3
00B
056
3F0
00F
054
3CA
046
3C1
3D4
3EC
3EA
031
009
3EE
3F0
3B7
3AF
016
3A6
3B0
3F4
3D3
02D
019
04A
3DD
01A
3B0
07E
3A9
379
3BC
3D6
3F0
3DF
3DA
3CB
3B4
01A
3F8
008
00F
3DC
37B
37B
00C
3F2
3CF
3B3
333
3BC
3D7
016
027
3AB
3B0
3C1
3B4
342
0B6
3C4
3C2
04C
3DB
397
3FC
3BF
3E6
3E4
3C3
008
3B7
385
3BA
3D0
3A7
3CA
3A8
3A0
387
380
396
393
3DA
01E
32B
3A2
076
3A9
3F0
382
051
01D
021
3BE
3F7
393
39A
3CA
3C1
021
3EF
00F
042
018
3DC
3BD
374
38A
35B
33C
01E
3D0
398
05C
3E2
383
3A6
017
01A
3DE
3EF
02C
3C9
011
027
3F9
3C3
36A
3DA
00E
032
368
007
31E
358
374
3CB
3B8
013
366
2FB
3EB
072
0B4
074
37B
360
3A0
3DA
394
3D2
3F0
3FA
03F
39D
31D
336
033
3E6
3EE
3C8
022
328
390
3BA
3ED
355
06C
063
3E0
