E9A
251
183
FEE
FB1
020
2C4
F84
0A7
036
272
CB5
1E7
0B3
ED3
120
FED
A68
F61
270
C68
08A
12D
F30
1EC
F63
D79
B5F
A87
FA0
0DC
BDF
D9A
0F2
1A7
D66
ED5
198
0D9
26F
30D
DBB
292
B1A
EB6
E91
D3D
DBB
084
DAC
EC8
DA3
E99
154
E6C
D0C
0ED
2D4
CA7
441
0CB
1E3
FBD
C59
0F2
FE8
D54
1B3
FFE
064
F82
0CE
357
FA3
0C0
ED1
C4D
F87
07E
177
1AA
163
E5A
0B7
44F
DEC
E2D
D89
17E
C35
0D3
D2F
011
CDB
FEC
0FD
0D0
EB9
F1A
ECE
168
F8B
04D
E81
E34
0CB
FD8
FA7
DD3
06F
E15
BD2
D2C
AF9
BEA
F27
05C
253
093
F71
05E
053
FBE
363
115
0D1
0E6
1CA
