020
007
7E5
7D0
73D
735
70C
6E6
641
77E
678
6B4
73F
759
711
6F2
6E7
6CD
01C
7F5
73B
763
6F2
7F3
762
7E2
7A2
01E
7FC
000
6E6
6B2
72D
6B5
66B
67D
624
6D1
60C
633
6A9
7BD
77B
757
7B2
7DE
79D
7A8
7D9
7C8
77D
769
7A3
7C0
75B
731
0D3
772
6A7
743
720
797
75D
70C
734
787
007
7A1
027
7FF
015
00B
042
046
7E2
065
7B3
008
062
030
02D
04C
013
7DA
712
764
6C0
028
7E9
723
02E
7DE
056
00F
7F5
7ED
013
79A
7DE
7C7
7BE
7BE
7F7
7F4
7F8
023
7E9
7E9
7B9
016
7D1
082
709
750
741
7ED
77C
7D2
02B
7DD
032
7D7
7E8
7EB
7DF
7B2
002
7DE
7FC
7B7
031
03B
006
00C
019
00A
03C
02D
029
066
014
778
7DC
773
7BA
7B1
7BF
79C
791
7B0
7CE
7A7
01B
7F0
00C
002
7D5
018
003
00D
015
02E
063
058
7FA
7D5
7F8
0C2
095
7D0
79C
033
7C2
789
79E
7CD
763
78A
7C2
7C9
025
014
03E
00B
034
01F
051
03D
055
024
7FA
7F8
017
7B6
7EC
06F
055
75B
790
770
7E9
7E2
7BB
7D9
008
040
068
081
0A2
07B
00E
02C
017
033
009
005
000
01C
005
7AE
035
7BC
024
14F
00E
074
7E0
069
0A8
001
116
138
180
106
0C6
0A2
090
058
05A
04E
7B9
7B0
011
014
02B
002
04F
7F6
7FB
028
7D1
113
102
176
182
166
1F7
2A2
1C6
1C9
16A
094
060
02A
036
03D
02B
000
7F7
7F1
010
7C4
7EC
7E7
7DB
024
012
034
7C5
026
050
199
16B
12C
15E
0A8
069
041
019
001
02A
00B
7E6
004
014
7F0
7F5
009
7FF
012
7D4
7F9
00C
009
036
7F6
78E
01D
083
09E
08B
013
7CD
79D
7A7
784
790
7AC
7DF
779
7E0
7FA
7EE
7D6
7E9
03B
7FE
7F2
01F
021
031
7FB
033
062
00F
001
7F1
017
7CF
77D
7E7
76E
7C9
79D
7F5
7AC
7B6
7B8
7DF
022
7E9
00C
7F1
028
03D
7F6
7FF
7F4
7E6
02E
7D6
7C4
01D
009
011
043
792
7C3
004
7D7
7F5
7DE
7DF
7F9
7EF
000
7BC
018
007
000
7D2
008
7B9
7AC
7FE
036
02B
7EE
7C7
017
07A
03A
009
042
720
7A2
7C9
01A
7B9
007
006
011
7BB
010
037
027
029
01B
03F
015
013
025
035
7EA
7DF
016
029
009
044
02A
044
78B
7B9
008
002
7EE
7D2
04D
7D7
044
7EB
015
017
022
055
042
01C
7FA
011
01E
010
7FF
7FF
002
00A
004
7C8
011
7EE
052
00C
7D6
02E
027
060
7EB
05A
02B
00C
035
026
038
04A
03D
002
03D
7DB
04E
070
034
057
7EC
7F9
03C
7FD
029
04F
7EE
03D
026
038
7F9
042
001
7CC
7F4
008
00D
7EB
01E
019
076
029
01A
022
067
018
02F
01D
036
03D
7D3
017
09E
7EA
015
03D
7E0
7E6
026
7D4
7A2
7F6
7F2
7A9
7F0
7E1
7CD
02A
012
7FD
056
030
026
035
01C
005
7F8
7E7
021
026
057
7D4
0A0
061
7DB
7AD
793
7EB
7E6
7F3
7D5
7CE
7F5
7E6
028
010
027
022
030
028
05D
03A
014
064
028
03C
060
00F
036
059
086
04E
7E6
01C
056
7EE
031
014
036
010
7FA
005
7F2
7F2
7E9
02A
7FF
07B
03D
7C8
7FF
7DC
04D
063
037
050
0FF
05C
08C
062
076
076
058
001
09D
00F
019
013
047
046
030
7F7
01A
022
046
073
06D
070
022
02B
06A
7CE
016
0C4
0A2
02F
08D
01E
03B
059
047
019
016
03C
040
7F3
018
028
7F5
7D8
7FE
02B
052
01B
086
05B
05E
03C
055
0B2
05D
089
07F
7EC
038
7F6
000
7FC
009
01E
067
7FB
029
0B0
087
04C
022
02A
7CD
7D1
7E9
020
7F4
7E7
7E2
782
04A
010
079
0AA
023
7AE
015
7F2
081
09B
02D
7F5
018
00F
018
7D5
7D5
065
098
03E
010
000
7D6
79E
7B9
7F6
7A3
7D1
021
756
024
00B
002
7C1
03C
7BF
02F
06E
050
00D
7CC
735
797
72B
69D
73D
760
77A
77F
772
7C1
7CA
03C
063
01C
0A5
140
73D
718
74D
786
74A
7F0
7F1
7C4
7E9
00B
006
025
054
02C
029
025
00C
048
01A
019
7B0
044
7FF
7EB
04E
046
133
17C
00E
7E9
03F
012
7D4
72D
7EF
7EE
770
7D3
01A
033
7E3
059
0B6
09C
056
033
04B
002
065
7B6
007
0BF
05F
0B8
0F7
0C9
7F8
766
7BD
7F5
