7ED
7F6
049
006
7EA
798
76B
799
086
022
7B9
6E0
778
789
75A
79B
7A3
02B
0EC
0F8
03A
0AF
1EE
0CD
024
0A9
06E
7E8
7AC
7E0
047
03B
79B
04A
0C5
03A
7C8
086
722
6F8
718
6B6
778
79F
7DC
0C5
7F5
0BD
034
0FD
181
17E
0BB
127
0C3
04A
00E
7DB
0A2
799
758
75A
719
777
7FD
7D4
73E
77F
7F0
073
080
02F
00B
085
0A4
06A
079
133
128
0E6
0E4
0C1
7F2
01B
7B9
79C
005
774
6EB
73C
765
72E
7F5
70D
746
75D
05D
001
027
06B
012
004
028
0CC
022
096
05C
7D6
7C5
7B8
736
71C
769
78C
7BE
71F
741
710
745
023
783
7C7
785
75A
7B7
7D3
7CA
038
7D1
08D
07D
0C3
085
00C
019
08A
7E0
7F9
7CE
742
74D
76F
739
74A
7CB
7F5
027
009
7F1
7A3
750
7AE
7C7
78C
77D
7DB
011
07A
094
07F
071
7D5
006
00B
7B2
70D
007
7CB
779
7A9
7EF
7D5
034
08D
069
04C
7FA
78B
7BB
7C6
7DD
016
7FA
088
08C
11D
103
109
012
7B1
721
749
7D3
760
72C
7CB
700
021
01B
01F
067
00D
01E
08E
02F
020
02C
7BC
00B
7B2
05E
024
078
0AF
0A5
09F
7B7
78B
784
715
76C
746
7A4
7A5
791
06E
054
074
009
055
048
0D1
06A
008
7DA
7E0
7FE
086
073
0C9
022
05D
7F3
763
732
734
774
7B7
7A0
031
7B1
750
789
0B0
071
06B
07C
0EC
04C
7C2
014
009
7B7
7A0
02D
0B1
0A9
0F0
056
039
01B
77D
773
754
041
7DF
7EC
7B1
77B
035
103
074
020
7DA
008
743
77C
7A2
7B8
795
73B
781
7D7
05E
0F4
080
084
010
026
742
72C
743
7BE
7A8
7D7
7E8
047
7BE
053
002
7A7
722
73D
6D4
73C
736
6EF
731
7A3
77E
022
02D
052
7F8
7BA
7B2
75A
701
6B3
728
751
76C
77C
77C
03D
7B0
7AF
001
6AD
718
015
624
011
66A
6A7
74B
7B7
756
7DE
028
7BC
7DA
74E
739
724
702
6F7
762
75A
70C
751
791
038
7D3
6ED
710
604
622
665
6D0
71B
77D
7E2
7D5
79D
78E
030
7F1
7AC
7A8
774
76D
78E
76F
6B3
7D0
796
75E
7CC
7E8
059
023
736
686
76B
756
72F
004
026
7E5
7B5
7C5
7F8
792
034
038
00E
7B2
7AC
791
7CD
78C
6D8
783
7BF
7E6
7DA
013
03F
083
046
7A9
7B5
7E4
7C4
7EC
006
042
7DC
7D9
7BE
7E1
040
05B
01E
790
7AA
02B
029
7B9
74C
77E
04E
7F3
04A
0CE
0A3
7EF
7C2
71D
7CC
00B
063
032
7FC
7CA
7FC
7C2
01B
7D9
058
7D6
7AF
79E
727
778
009
7CE
780
7C0
05F
022
0DA
0CE
057
7E2
059
7A4
78A
03D
77E
7EA
7D6
776
75E
74A
7E9
03E
7E4
066
02C
7A9
7BD
7A3
01B
02E
7CE
0A2
072
06C
106
080
089
778
77D
7FB
7CE
00E
04D
79D
7A3
759
74D
728
76E
789
7CA
01A
054
7B7
7E0
060
04B
0A4
0ED
127
062
0A0
014
01B
078
75D
024
031
7CA
031
02A
053
012
7F7
762
77E
731
705
73F
7DC
082
08E
030
064
074
0EE
0B3
0DB
0EB
055
02F
088
046
034
7DC
0ED
031
05F
7C6
01D
7D6
003
7ED
75C
752
73B
71E
7A5
028
025
07F
0C5
0A5
0DC
0E3
0B1
0A5
032
791
7F7
0B2
7E1
017
054
01E
018
036
7B2
7CF
048
021
032
039
002
7E7
7E7
03D
083
049
069
063
097
084
0C1
0F1
082
7B5
7E2
7FD
092
069
047
0BC
04E
7C3
05A
058
04F
0B9
07B
0D8
04A
078
04F
034
03F
7FC
02E
089
05F
040
085
020
022
753
7F0
05F
0A8
7E2
008
07D
7E6
7FD
055
08B
08D
0E2
0E7
07F
06B
064
08A
06D
045
037
7DA
0B0
7D1
7BE
7BC
7A9
7EE
753
002
016
117
7FF
06B
0C8
00C
7E5
077
020
06E
04C
019
048
04E
037
138
0D5
074
7DE
03C
7EC
7D2
7F6
01D
7CC
7BB
7A4
72B
0BD
0FC
08C
7F0
039
004
0C2
7C9
06A
028
7F3
7D9
7A3
03F
05F
095
0AF
04E
0D1
027
763
7EE
770
73F
76D
7EB
6EF
7CE
082
787
0C9
7DE
786
009
791
721
7B3
7E6
024
074
04B
7AD
076
03A
05E
056
7A6
7EF
796
7CE
7AB
7B3
746
730
78C
0C6
020
005
01E
0D8
031
7E7
7BF
748
75D
7AE
77A
725
03F
086
7BF
7B2
007
08D
73C
754
742
5EE
74E
026
769
762
04C
7F8
75E
011
