01A
008
7D0
7BA
78A
776
7BC
72B
75B
002
03F
03F
796
6FA
791
77B
701
760
0C3
05A
03B
02C
03B
7EE
05E
762
7D7
7B1
018
014
068
08F
077
7E5
04A
044
00B
750
0DA
04C
023
740
6DC
680
7EF
065
098
0C7
117
7F5
12D
01C
03B
7C7
750
75C
04A
007
0C4
0EC
010
02D
0E3
0D2
077
7F4
01F
070
093
00B
74D
6A4
5D6
71D
7CD
031
7CF
049
079
0BA
09A
091
74B
6BF
062
0FE
0EB
0EF
0B2
016
01A
7BA
044
7F8
016
058
045
0DB
77F
571
4D9
65C
7EF
012
0B5
0AA
031
098
08B
015
03C
6F7
106
182
19A
05C
09F
006
7D6
040
073
7F0
7B7
08B
09D
0E5
795
4BF
48F
5DC
799
06E
0A0
0FA
093
0E7
039
0C1
0BC
005
10A
103
0AA
036
06F
7F2
7AD
0AB
069
006
085
045
087
0AE
790
4DA
483
58E
01D
09A
073
090
0B7
049
053
042
7E3
75D
06C
0B0
046
05B
01C
7FD
7E6
7C3
042
07E
06B
00F
04E
0AB
79D
5AA
468
6EC
7CE
073
7F0
7E7
056
045
021
010
023
6A2
034
0CF
027
003
044
03E
7A8
7D6
7F5
01D
7FA
00A
041
034
7DD
5B1
5CB
7DB
011
0A0
060
029
02F
0AB
03C
021
025
758
0C0
07A
7D3
7E5
026
024
7E6
01F
049
05C
015
055
045
083
72A
553
71B
09B
054
0B1
07D
027
013
7C1
7C1
7FD
07C
042
013
0A3
7E6
011
000
02D
061
7D1
067
07C
047
0B0
08B
09E
6E1
5C4
743
085
055
072
024
08A
044
00F
7ED
022
0A7
02A
04B
04E
7BA
7AB
009
7F3
005
7E0
7D6
04A
079
037
05E
083
6DE
6D1
7E6
052
086
058
033
03D
058
04C
06B
7DD
738
00A
7B3
02E
7FA
7F8
7EE
02A
7F0
7CA
7F5
7FF
7C2
00A
01D
016
746
78B
7D1
042
06C
7F9
046
02F
7F3
078
032
00B
017
001
024
77B
07C
036
04C
7E8
7FC
7CB
7AC
022
05F
7FD
043
7D6
767
751
003
05D
01E
000
05B
7F0
044
7DF
025
7F1
792
010
01D
79B
7DC
797
7C3
7B0
7AA
79C
7BF
01B
7DD
001
7E3
7B7
7B5
7CD
026
03F
033
03F
035
006
7FD
7C4
7E1
7D5
7D9
05C
7B4
7AC
7D1
01D
799
7F6
7F6
7ED
7A5
7A6
008
005
7C3
7C2
7BC
7C2
021
004
7F5
02E
7D7
7F5
7C4
744
7E5
7F6
023
0CD
757
7E2
063
7CA
7B7
7BD
7A9
7C7
7F3
7EB
00D
029
7E8
00C
7F6
78F
023
02B
019
007
7E9
7E0
7D5
7E7
7D5
013
053
04C
7A4
7E8
7DD
780
772
796
7F2
7F8
031
004
01C
7FB
004
7CB
7BD
7C4
7E8
7F2
7FE
7C5
7C8
7BB
7F7
7FD
001
7EA
7ED
7C6
027
033
7FA
7F4
7B5
763
7E2
7B0
7BB
014
7F0
00E
7F6
012
00F
7D1
7EA
7FA
001
7E8
05C
023
035
00A
7AB
04B
7C5
098
097
03B
7CA
7F8
02C
797
00F
041
7E6
7F1
033
02A
012
00A
7FF
7F6
7F1
7E3
01E
035
056
008
0DF
0A0
0E2
0D3
7E1
075
0F6
04A
03E
044
023
06C
02F
01D
7F3
036
7F5
025
00C
034
7CF
001
7B9
7E8
7E8
7BD
027
033
025
7F9
058
0BD
0AF
012
0D4
0FD
08F
76C
7E9
028
7EF
7D7
7E8
045
7FB
04D
7FB
053
7F9
00B
01A
041
035
040
004
000
7ED
039
7C7
002
04D
014
09D
0C9
04F
7CD
00D
07E
041
014
7E2
7EC
01E
7C3
031
02E
01A
02A
00F
7D2
7FC
7EC
7E1
7AA
027
021
7D9
7BC
7CE
7A6
0D6
133
03A
7B1
024
096
001
06A
7FE
7E4
7E0
03D
7ED
7D3
01E
007
00D
7DB
00C
7F4
03A
7EE
7B1
7DB
00B
009
7DF
7CA
03A
02C
005
01B
02D
081
0C4
082
0BE
05E
7F2
018
020
7ED
01D
7D5
7EC
7F8
7F9
7FA
7FF
7F4
7A4
7F5
7F0
7E2
002
78E
0C2
04A
036
03F
061
09B
033
04F
05F
050
09D
03A
04C
01F
7E2
060
02A
031
02B
7CD
015
07E
7F8
064
012
00A
022
00C
09F
7FF
7B4
057
01B
00B
7E1
008
797
00B
008
019
04A
03B
075
069
045
06F
050
0E3
0F8
0D8
09E
093
077
021
004
002
074
044
7DB
053
04B
016
7F3
7EA
790
7F3
014
024
029
00B
03E
042
05A
029
099
08F
0D0
064
064
097
097
06D
08F
7EB
0BE
02F
77E
010
7FB
075
05F
0B6
7FB
7FA
013
018
04B
042
02F
031
081
069
029
7FF
004
7AA
7BD
7A2
08C
04D
7FF
00E
