E6E
F27
1EA
16A
2D0
F78
FEB
EFF
2EA
15E
F92
E7B
E80
EA0
CCD
F23
14A
323
0E8
D4E
E99
0C8
0DD
D0D
2CB
021
276
F9E
F65
CDC
0A1
0C7
260
0C6
D8B
17B
FE8
DC0
05A
412
F9E
D39
0FA
FCA
DDD
1D6
1B9
258
0CE
E03
CC7
0E4
D05
DC1
EA8
E38
D26
346
241
3E8
4B4
E9D
E0C
DC8
16D
05C
167
FD6
D91
D3F
FA5
23B
11D
1F2
D38
188
05C
DE4
CA0
CEA
253
2DB
F4C
EB7
47A
FDD
276
EA5
3E1
F65
E84
28A
E54
0FD
20C
12E
220
3C3
E59
2BF
EAE
AC3
CFB
E9B
00A
095
DD2
110
D5D
2E4
1ED
25F
334
FB4
F85
E78
148
E84
FFB
FAC
DC6
21C
D8F
F41
2C6
D99
F51
D6F
