7F7
00E
7B0
049
083
0C0
0BB
12E
0E0
11C
0C8
02F
088
7B5
7E8
7B6
751
7D1
06D
7EB
0CB
7D7
7E4
03B
075
7A6
7A2
7B4
7A0
7E3
7E4
096
0EB
075
0E0
0FE
0CC
03F
038
031
7F6
08E
021
01D
026
788
07D
023
061
006
026
7B3
7F7
01B
7FC
74B
72A
7FB
06E
098
0E8
125
11D
058
005
7F0
03B
017
056
03E
02E
04B
04B
7B3
7F9
00F
006
00A
019
02C
024
02F
01D
7D3
09C
070
022
070
0C5
0BA
0A8
06C
066
01E
7F1
7DF
003
018
012
00B
791
7D4
7EB
011
02C
7F9
7FE
7E2
022
01F
7E7
038
7BA
003
7CE
05C
053
045
7EB
7ED
050
05B
05B
03B
004
02D
033
067
026
028
02B
029
05B
024
7BE
01D
093
086
02B
062
7B8
7EA
075
0B0
7CA
088
01C
061
04F
068
00B
02C
068
019
002
064
7FE
015
04F
01F
04C
04A
057
019
020
043
03E
001
7A6
7F3
158
0C1
045
037
01C
053
7FD
01D
028
7FF
007
02B
0A3
073
7FC
770
021
008
7F6
008
03C
017
004
789
008
75E
04B
043
0CC
07B
7FC
026
033
7EB
7E8
03F
054
7D7
03D
7F9
7FE
00F
033
02C
7D7
7E9
7F8
787
7B4
7CE
7AC
7B8
723
6A4
079
71F
02E
07A
04F
026
030
026
098
05C
023
02F
7F5
7F7
064
02A
7AE
7B8
772
7CE
7DD
7BE
782
76F
741
79E
6CA
7A0
037
7B1
04C
7FF
04F
009
02C
796
7CA
035
055
017
01A
021
046
07F
03D
02A
7EE
77D
7B6
6DC
773
737
6EE
75E
79F
7D7
0C7
0B2
0EA
7F6
046
0C9
792
7CF
7C3
031
7FE
7ED
7ED
017
08E
040
052
04D
067
7BA
7B8
75C
7FF
733
7E5
75A
086
6C4
712
04A
0DC
024
054
08A
7D5
791
7C4
7C2
7AC
7D1
007
7F5
7EC
044
06D
04E
06E
03E
036
037
0A3
749
7F7
01F
017
015
767
7CA
0F7
0A6
02C
140
7FE
781
78F
79B
009
00C
7B2
7F0
7D1
04F
093
066
0BB
0E4
0ED
0D9
10D
0DD
7B0
0E2
0CE
7F2
05A
11C
0D6
184
16A
0DD
0BE
7B9
78A
780
7E5
783
78A
7E1
7B2
063
040
0A8
09A
0F8
18B
28E
1C4
12A
086
08B
135
1A8
0BA
056
066
050
0BC
0F9
0C8
043
01E
7D8
031
7D2
7AE
77C
7C0
036
061
041
0C5
0D6
153
254
256
224
1CD
179
288
13F
040
7FB
010
02C
0B0
02B
0B7
0AE
05D
01D
7C6
7BA
7FA
7B6
789
008
03D
7FA
7D3
04B
0CE
193
2A6
192
228
239
21C
247
05B
05C
0A4
039
7CE
061
021
04C
042
07B
02E
7FC
7BF
769
783
7C2
7D2
7F9
060
7EE
790
0FE
2C7
1E9
2B4
262
1D7
22E
7BF
050
016
002
795
7F6
01E
029
026
007
044
7E9
7F4
7DA
7C4
7FD
7F5
7D9
01E
00E
7EC
05E
2D0
2DF
269
25B
209
243
78C
015
002
001
7D0
7BE
7F5
7A8
7C7
018
062
03E
022
037
7EA
7FC
026
7DE
7BD
79F
78D
140
1FC
359
2C3
275
25B
2B3
7EE
7FA
7DE
7B2
7A7
011
7D3
7AF
7CB
04B
046
7DF
7FF
060
004
7CB
034
017
7AF
7B8
7EE
10F
315
34A
31C
2C9
246
201
7DC
02E
7BE
7F9
7C9
7E8
01E
053
7BE
7CB
7DC
7C8
039
7F6
7CA
036
019
7EB
04C
78B
01F
209
2FC
2F8
31B
2E7
230
187
06B
000
02A
7EB
7ED
7D8
00C
002
7CF
7F2
005
019
7F3
7EA
000
7F0
07E
7FA
7E0
7E2
01A
1E2
31C
351
2C8
1F2
0F7
145
004
043
0A7
01D
04B
7FD
7BC
002
028
000
026
017
02D
015
7EA
00C
09A
7F3
7E0
02C
092
2C6
2E4
28E
26A
171
025
06C
75D
7B5
7BA
7A7
7BC
7E0
03B
00C
002
7DC
7FC
05C
02D
031
030
059
068
00A
7F2
004
1F6
24E
2CC
249
229
053
755
7C1
058
05F
7B7
769
771
76C
7A4
779
784
7D8
7D3
014
01C
7F0
008
059
076
7E7
059
0BC
1DB
26E
248
205
1A0
7F8
78A
7C2
0E3
03C
006
730
7E4
004
7FE
7A6
05F
7C6
7E1
013
79E
7E7
050
0D7
036
048
136
14A
177
13C
183
115
109
0AF
78D
05B
6E4
015
03E
046
05F
04D
035
068
05B
04E
7FB
7F4
79D
7AD
010
03B
03B
7FE
0A1
0B8
184
136
195
078
0AD
069
7E8
7F2
7F3
04E
15F
728
7B2
7D2
74F
7AF
776
7DB
7C9
7ED
7F7
050
0DB
05B
0E0
0E8
0ED
0CB
0FF
12A
112
137
7ED
0B6
02E
7F2
