01F
7DE
025
093
0B5
7A2
749
7A2
04F
046
098
7E4
084
1AA
103
02C
0C3
085
0B9
105
04E
04D
10A
13F
09D
100
0E9
0E8
062
004
066
080
0A7
0D5
021
105
0E2
005
7B8
0BD
0E5
0AD
0BF
17B
086
136
06B
03E
0CF
09B
15F
074
778
01C
101
063
7CA
00D
09C
052
16B
7FC
7E5
096
057
7A8
773
790
796
753
778
7C6
737
7D3
7FC
058
012
046
07A
05F
089
045
7F7
02B
072
022
7EB
783
183
132
115
156
0A8
019
08C
7CC
005
027
79F
711
74D
6EA
7BF
7C6
7E9
7E3
7B3
022
09D
0B8
005
026
03B
069
112
182
151
04A
151
0D8
0E5
0E6
0A1
0AD
0A3
0DF
0AB
070
7C1
778
7AD
781
7AF
7AE
78B
7FC
7DD
7DC
7C5
7FB
111
0C5
189
231
11D
127
0D2
0B3
0D1
07F
095
0C5
0C9
126
0F2
11C
000
0B0
032
007
7D1
05A
7E3
02B
085
020
04D
7D0
060
172
193
249
232
187
02A
07B
014
049
03A
095
0A9
063
11C
126
0AE
048
07F
005
013
7F9
032
022
089
7F8
7A5
756
015
153
1D7
18A
123
0B0
08E
061
060
09E
094
061
049
0F2
0A1
0A5
051
7E9
7A8
7FA
012
7F3
7FE
07B
080
0CB
7D3
77C
13B
16E
189
0BA
0EC
7F4
079
023
032
050
057
02F
031
0CD
06D
062
7AD
722
796
7AF
004
7B0
7B5
062
00F
03B
048
7C6
15F
14A
05F
01C
064
0A0
060
7B2
783
79F
05F
086
06B
08C
04A
099
0AE
7E4
74F
6C5
768
76F
00D
7A2
042
07A
08A
78F
78A
0E6
02C
7B9
79F
04F
047
042
793
08A
01F
019
074
05F
079
0E0
16A
0A8
061
721
748
751
78A
769
00F
080
0A7
052
00C
163
086
76E
7E5
016
049
0A3
0D3
04C
038
7D5
00B
015
036
088
104
033
033
7F8
001
7D0
045
7BD
7EC
7C6
012
787
098
0A7
0B5
7FE
032
023
7F1
0E0
0AB
7D8
772
7AC
7A4
7B1
094
09E
0D2
01B
00A
011
046
7F5
00D
767
7AE
754
781
798
0E3
05E
05E
7D1
043
7BC
071
0B4
063
766
72E
799
7BC
7CA
7DE
094
123
093
785
7F8
072
07B
7FF
7DE
7CA
74A
04D
717
083
00C
025
7F3
7E7
006
772
0A5
021
703
775
7EE
7EF
77B
7C2
049
0FB
0B3
7F2
040
7F0
042
066
06D
7E8
774
008
799
7F6
066
7C7
7DD
7D2
02F
7DF
020
7F6
789
7B8
7E5
76B
767
7BD
026
0F3
095
03C
050
088
0AC
052
0BC
007
00C
03E
051
0A5
7AE
05E
7F8
7E2
021
043
7A6
7A2
7C1
79F
7A6
74E
794
78B
7E1
0A7
059
089
01D
01C
052
0B0
079
0A7
01B
091
01F
125
072
06E
7F1
798
0B1
007
015
7E4
7C5
76B
734
700
746
796
7C1
108
073
0D9
7E7
04F
0C7
027
0C6
0B3
035
7E4
7CC
0EC
06D
7FC
728
79C
05A
007
03A
7DC
7C0
789
79F
73F
6D2
767
79D
0C9
00F
02D
02B
0B7
0AA
087
0B7
035
7F8
03F
7BA
18C
7F5
79F
719
7B9
068
788
078
7F1
7BF
7D1
043
7B1
7EA
7C7
014
103
05A
052
06E
049
05A
085
10D
0D5
060
7A1
079
09E
7F1
77D
760
7B2
7E5
7F1
085
058
035
070
09F
7EB
78F
7B8
016
0F1
0AF
08C
051
023
091
088
03E
03D
0A5
031
061
7E9
084
0A8
7E7
797
7E6
017
080
7F3
7EC
014
029
053
7E3
764
7F6
060
05B
039
7BD
00C
7F0
03C
055
7E1
05F
79C
052
7B2
079
0EB
078
041
7CE
071
7DB
05C
064
05E
009
02F
042
7F6
05B
060
05F
0A9
102
0B1
0D4
096
7DE
761
082
7C6
01C
7A6
02F
08B
7F3
060
7C4
052
7D7
018
7FC
09E
069
061
06C
092
030
0B0
0DD
12A
0F5
075
00F
06B
024
00C
036
788
79E
038
05E
7E1
799
019
012
7C3
01A
052
7DF
091
7FB
042
01C
7E4
04C
0B4
0D5
08C
063
00A
060
793
7D8
0E1
043
755
77B
08B
096
03C
033
01D
03D
022
7DF
7B5
003
7EB
7FA
7B6
7B9
03B
7A9
033
07C
095
00C
7E5
6DB
754
6DC
019
075
79D
08B
7FF
0A8
0CD
0A7
018
7FE
75F
018
7AE
76C
7C1
01E
009
7AA
028
7CC
013
78D
7D4
7AA
715
73E
691
750
747
7BB
758
7F0
774
050
0AB
043
028
05E
055
0C9
01A
04E
03B
088
114
0D9
050
08E
7DB
77F
745
737
705
77C
7AA
776
7F6
786
06F
024
