00B
01B
03A
054
071
004
098
F5B
041
F86
F4F
FA1
F5F
F56
EC8
F18
FAD
F1C
F89
041
F6A
F83
F34
018
013
107
FEA
000
F80
00C
061
FDB
FE4
F8A
087
F3B
F7C
FE6
ED7
E5B
E91
E0C
E8E
EA7
F1C
F10
EB2
F3F
F98
FBC
F8E
FDF
021
06C
086
049
0BB
FE4
FEA
002
FB0
F13
F54
F59
E9B
E4B
E0E
E7F
E15
F7C
F0D
F73
F88
F62
F92
047
F41
F87
F8D
035
05E
FD8
0CF
100
FB0
035
050
006
F70
EF7
ED7
EC6
E5A
D70
D6E
DD2
E22
F15
FB6
01B
FE9
036
00B
FFB
010
FF9
FFC
FF8
FC9
FC7
F87
0E3
FC9
FEF
F3C
F50
EEE
E75
E40
DF7
DA9
E0B
DD8
DC8
E8D
F48
F70
F8D
FFA
FBA
006
015
013
006
005
FED
01E
FF9
00B
037
F0A
EDA
EC5
E41
E48
E8E
F44
D72
D57
CDD
D0B
E58
EF4
FA9
FC4
FCA
F9F
FDC
FF3
FE4
FCC
029
02B
03F
018
FA8
04E
10E
F1F
E8D
E85
E42
E6E
E6F
DE5
D95
D58
D73
CC9
EB8
F67
FF3
FBC
FF6
FF9
FE5
FFA
005
022
FEF
034
FDB
FDC
FE8
FD9
FF0
F90
E85
F6E
E5E
F59
F14
E31
D77
DDD
BF7
CCE
F35
029
051
032
038
038
02D
FED
03C
F79
FE2
FA8
FC3
FEF
025
F8C
F95
E9A
E60
EF4
E7B
E35
03E
E41
DEC
C8F
C28
E22
FBA
184
10B
0C2
0B3
048
029
045
FF8
005
007
02F
FE6
024
F85
FA0
08B
E81
E79
F95
FA2
EC6
EF0
D6E
D70
D6A
C40
EB4
050
0CE
0E1
0D9
0F8
099
09B
09C
0A2
035
04B
06C
FF3
FE8
FE0
F8F
09A
0AA
F57
EE8
EF7
EF6
DE9
E23
E26
CE0
DF9
EF5
06D
05B
094
085
043
093
043
07E
007
05D
065
FE4
026
027
FB4
02D
030
F18
FA7
E56
F03
E69
E4C
E02
D6B
D7C
EEA
FFF
022
02A
075
065
077
029
02A
040
02F
025
03C
07C
FCB
09D
090
01B
F88
F1F
EF1
E81
018
071
DCB
028
D96
ECF
FC8
FA4
029
003
008
02F
04D
018
03E
040
01F
036
006
FEA
FF5
01D
03D
F3D
F0C
030
EF5
E19
F71
F02
EB7
E15
DD7
03F
FFB
FF9
060
007
02D
027
01A
FE8
017
012
041
048
02A
040
017
FEF
FFD
F52
F0E
E9F
F0D
08A
F0D
F97
E22
E50
F4C
036
053
FD0
FE2
002
050
FF0
FED
FFC
064
020
043
04E
027
034
077
FF8
010
FF0
EED
F36
F0E
E84
EA3
F23
E1B
D7E
FC4
FF2
00E
082
06F
06A
05C
03F
089
016
03A
006
023
01E
027
03C
00E
FC4
030
F26
E8A
F62
EE2
F0D
EF4
E1D
CFD
DC0
FFD
024
03B
096
0BA
081
099
053
FFE
008
02C
01D
04D
01A
FEB
FD5
FDB
FF8
F62
EBA
E1B
030
FA9
ECB
ED1
DAD
E22
E3F
FFF
032
025
05E
068
04B
069
0AE
08E
05B
002
00B
038
036
000
04B
02E
034
F3B
E03
E78
FB8
F78
FC8
EFA
DFF
E52
EB2
00A
032
037
046
01C
040
014
02A
018
053
FF7
003
01F
01A
044
015
FEA
016
F16
DFE
E7A
F59
F5E
FC9
EF5
E4C
E6D
ED2
FB4
FDD
FE4
014
FFB
FFC
018
047
00B
042
02D
FF1
01E
00C
FE2
FAA
FD0
FEE
EA4
D99
DF2
F7E
F83
06E
F68
EB8
F07
FB2
F73
012
FB0
041
FD7
00B
00A
027
FFF
024
04F
02C
FFA
004
069
FF5
FAE
F65
E7F
F67
F51
F04
F9C
FEF
F87
F02
F6E
F1C
FCD
027
FFF
FCB
033
FE8
001
FFE
010
01E
FE8
FFD
066
FE7
066
09B
FF1
E05
F5D
F85
F5D
F7A
F26
FAF
F9D
F01
F3D
FDF
F70
FBB
FE5
FFB
FB1
FEE
FEC
052
FE0
015
041
00B
04D
006
01D
028
F1D
E2D
EAE
F75
F85
FED
FD4
F75
F1E
F2E
FBE
FCA
FC5
01E
01D
F7D
FBD
FBA
F95
FC3
FF0
FDD
FEA
FBF
F8B
06A
02C
FED
F3D
F2F
F95
0B1
FC6
FD7
F49
F99
00A
FED
011
FE9
056
06D
FD5
FED
018
FD2
FD0
011
F88
F84
FCE
000
FB4
044
FAE
F48
F3C
F8F
F1F
FD8
FCF
F00
F2F
F48
032
037
F83
055
06C
05D
03B
02D
046
033
FF7
005
FFF
02D
F94
FBD
F62
FE2
F56
F26
F06
ED5
FFD
070
FD6
F40
F09
FA0
FA7
FEE
018
F65
F88
FE6
02C
010
FD2
042
025
FFF
FD7
00E
FB8
044
FD2
FD3
F6C
FAE
FE8
FCF
FCC
014
FF6
FE9
EDB
000
F42
FD2
F7F
FBF
F4A
F9C
F92
F4D
FCE
F98
FD0
089
0B0
0AB
0BF
0DD
08B
14A
FEA
FE1
052
0A8
F53
FEC
FF3
