00F
005
04C
092
0FE
10E
11A
0F8
1B5
1B4
104
19A
13D
113
0C9
052
07D
109
039
08D
0BA
0A3
075
06F
1B4
16F
129
0EB
011
7F9
079
084
117
0B1
0D0
12E
164
1F7
16B
1DD
0CF
17C
1CB
11D
097
0E6
0DB
7C5
019
06C
7D1
0FF
0C9
070
09D
0A7
7B5
0A8
08C
12F
014
034
7E6
065
03F
00F
09C
097
0E4
116
07E
01C
026
754
769
0CA
061
7FF
7B7
08C
0A1
066
056
11F
01E
765
018
7F4
065
7AF
07C
00D
044
043
7E1
7E0
088
12D
0C8
7D1
7E7
76A
012
050
085
026
04B
036
016
02C
10D
0FC
6D2
78D
737
002
02F
08D
02C
7B2
063
01D
02F
06B
077
0C0
0EC
076
010
06C
7DA
763
735
7AA
74E
030
725
7E6
006
078
7EB
7EB
72E
7E3
059
7FE
029
010
066
066
098
05D
101
0E6
094
0A5
7DF
011
772
79D
6E1
688
69C
746
6CD
7F1
785
01B
6F1
74E
766
7B4
03B
027
795
03A
008
098
002
7FC
0E8
0C0
0F6
086
05C
781
7A2
02F
7C9
01F
6D1
797
78E
7F2
783
6D9
00A
7C7
7A2
04B
0A2
057
7D4
7E2
7BF
7BD
79E
01D
034
09F
0B6
06A
03B
7F8
7F1
03D
07C
0BF
7F3
03E
71B
788
754
631
6A6
77B
7D3
0AC
025
032
7B9
7D2
798
775
7E2
7A3
038
017
088
000
797
034
012
7AA
07E
030
7BC
7BA
721
73E
70C
70B
6FE
7C6
7E3
7B9
074
7EA
7F3
792
7C9
757
75B
772
7F8
071
0AE
0C4
032
06D
0B6
0A5
020
007
742
75E
777
7A7
766
7E6
7A6
7F7
028
033
001
7D2
7CE
7B3
76E
7DE
749
7AB
7DB
01E
09C
0AE
08B
012
052
047
018
751
71B
72A
76A
7DA
0D7
091
007
785
7FF
7D6
760
79D
798
00D
7A5
7E5
7C7
78A
7E4
7C1
001
01C
067
061
02E
06B
7FA
77F
72F
755
771
057
7CD
077
7AA
7F9
01E
7E7
057
7CC
01D
7F9
77D
7C4
7B4
7CD
7CD
036
79D
032
7D7
014
797
001
750
7C4
766
018
7CB
7E6
7ED
011
72B
7BC
790
7BD
7B6
7B5
7D5
003
7EC
00F
78D
02E
77F
7C0
74F
7FC
7D2
00F
7F1
02F
7BB
76D
043
03C
791
784
7DC
78D
7C0
7E5
7B4
7C4
077
003
02A
01C
7E6
7C4
73C
7F0
7D3
772
79E
787
7E2
7FD
053
07D
01D
024
07B
02F
759
7AE
00E
78B
017
051
015
7E7
032
7BC
016
7F3
7E6
79D
7F2
030
084
7A5
7D3
7F5
7F6
7F9
05C
05E
079
0AA
098
062
772
74C
76D
044
003
070
7FA
01F
055
038
056
02A
044
7F7
7EE
095
044
04B
054
020
032
033
08A
0BB
07C
088
0EA
06C
09D
046
790
006
7DD
7FA
056
03F
064
046
037
0B5
076
00B
044
03D
09C
05E
03A
076
070
02A
07E
056
0A3
07F
04C
7E9
0A8
034
7C2
079
759
7C2
002
004
01C
046
033
061
004
012
078
07B
02D
018
027
05A
050
013
7D0
7FC
048
007
066
02B
7E1
07C
7FD
044
78E
032
7DC
7B6
003
004
7DB
7F1
7E1
00E
0B1
048
7F8
050
021
06E
053
7EA
7E7
7E3
7E6
7C3
7ED
7D1
7F0
042
663
02C
744
7D9
73F
778
7AF
784
7C4
7E8
7FA
054
06F
00A
7C9
026
7E8
03A
04C
027
7FD
784
718
7BC
7AD
06E
0E3
0ED
076
0F1
724
776
74B
757
7CD
7FD
00F
7E6
7CD
003
098
06C
009
018
7D0
047
006
089
7EC
7BD
030
7DC
006
071
0BD
13C
195
120
70A
7A7
793
7C1
7B9
05B
7E4
030
794
7E9
035
02E
022
031
027
006
039
06C
001
046
7A5
7FA
0AD
195
223
1B7
109
0D4
706
7B9
776
7D0
7BF
7C9
790
792
78B
7FF
008
02B
012
079
067
082
063
05A
059
071
046
091
1AE
320
2CA
0E5
162
7E2
72F
7BB
78C
029
7EF
7AE
7D4
7BB
79F
7F2
7AA
7E5
012
0A5
05C
059
056
0A2
0A1
058
05E
051
14B
265
1D6
060
080
7BA
755
79C
7F1
7B0
71C
772
75D
7A5
7D5
7C2
79E
766
002
02D
03C
7F7
02D
07C
06B
065
750
068
262
1C8
157
7E6
733
02C
72D
01A
7E6
7D0
7CB
781
749
798
790
797
74D
7D1
78A
7B6
7E7
789
7ED
7C5
031
025
7D1
205
157
0D3
7DC
7A9
7FB
00F
7D6
7A7
05C
009
004
040
023
7B9
7EE
7E0
7D9
799
784
76F
768
039
782
796
7C0
009
0BC
136
1D1
0AE
00B
01D
04E
00E
