024
7E2
7F3
7A8
05C
0DB
7DE
071
097
070
0CE
0A4
07B
0B0
090
081
11A
057
077
0E6
78D
7B3
7CE
7D0
7B7
056
74F
7DC
0FB
014
7FB
060
7FD
03F
049
035
000
053
7B9
055
0C2
013
019
0E6
083
06B
7E0
098
780
01A
722
7EE
068
035
765
717
06C
7D0
7BB
7F5
7C4
004
00A
03C
050
01B
7C9
02E
018
7D3
006
005
7DD
7FA
752
7DB
6FF
724
7F0
741
7F2
015
7CD
783
797
7A5
0B2
024
030
06A
074
086
7D1
003
7EF
03F
006
000
037
77A
7DA
7A9
7ED
725
6FF
6F7
74E
7D1
7F9
7EF
095
77F
120
7F5
010
041
097
069
7F9
00B
0C1
030
7DB
024
051
7F9
05F
01B
039
7C8
7AA
74C
746
758
7B9
7D4
7EE
074
026
7E7
087
02E
025
05D
040
042
034
7C0
7DE
049
7C6
059
068
03A
050
03E
067
057
009
7D5
7AF
027
04E
7E9
007
05D
7C7
78D
7D8
00F
00D
7BE
016
7E6
027
028
011
017
02A
002
000
003
012
02A
7FB
031
045
004
06B
02C
09A
01C
01A
094
7B2
7A6
027
76B
79C
7BC
7B4
7D8
05E
7EB
016
7F7
7B0
032
7D9
7E6
7E3
7C5
005
7C4
7F1
027
7F9
03A
04B
045
0E1
00B
052
0F4
7D1
774
7F1
7F4
7D5
010
070
7FD
066
7FA
05C
017
042
7AC
008
783
793
7C6
75C
781
7E6
7FE
7F0
054
04A
025
036
077
003
037
7D4
7B9
7AE
7EF
7D4
7DE
052
028
02A
06E
7FC
016
7F5
020
045
054
02E
7E7
057
7D5
7A7
7FE
032
015
04F
165
067
065
7CB
7D5
7CC
7DC
7EF
7BD
01C
02C
05C
07E
053
024
07C
00C
02E
078
047
0A9
05E
030
7D3
7C8
76A
7BC
79E
108
111
7F2
04E
787
7AC
7A3
7BD
7BE
04B
031
0AA
0C0
052
04C
0A4
7E7
061
06C
0C1
08F
099
09E
7C7
794
00A
7C3
087
08D
095
7A4
75C
004
035
794
7FF
76D
7A6
031
07B
037
064
05E
043
098
088
06E
037
054
04C
010
02D
014
7BD
77A
7BC
751
057
769
03B
743
763
7E6
79C
72B
6B2
76D
7D9
046
0BA
087
043
05D
08F
037
061
066
030
039
7ED
7F7
03C
042
02F
029
7FF
01A
004
000
7C9
7CE
788
79B
6F1
6EB
749
038
085
099
079
009
042
07B
043
043
00A
7DF
7C1
77E
7D8
74E
7CB
784
06C
049
7B1
7F2
7F5
7BB
046
7A4
763
6DA
704
7B0
04A
061
041
01D
7F3
7EE
007
032
001
7E4
7F8
735
7CA
74F
7FB
764
7E1
021
796
7B7
002
7C5
01A
03E
79A
781
6E5
7A5
01C
01D
002
7FF
7CD
048
073
015
7DD
7E5
742
78F
717
726
77D
6FA
012
7D6
7D8
7B6
799
7B5
7D2
00C
007
745
70F
790
0F2
002
7E7
005
01E
03C
0A4
028
75C
00E
7AB
7EA
7B2
771
71D
73A
02D
019
795
7BB
006
7C2
7C1
018
7E4
799
73D
02A
061
7FD
029
017
069
003
077
022
7E3
76A
007
7AB
76F
739
70D
685
7DE
049
06E
07D
035
7D2
001
77A
7D3
77F
79B
09B
060
7CD
008
7EA
009
010
00A
006
7FF
7A9
74E
762
755
6F4
743
719
014
76A
7A7
7BF
79F
7F4
022
77C
795
79D
7D7
087
055
029
7DD
7BD
7C2
791
02F
029
7E5
7A8
7C1
784
6C7
61C
661
001
7F5
78B
7A8
76D
783
788
7A4
7DD
7B4
008
032
067
048
7E5
7FA
790
7BF
7DC
036
00E
7DE
7A3
7C3
6C6
6D7
776
799
703
055
776
773
7FF
76D
7E8
7C9
7C4
006
01A
7F5
7E6
01D
04C
7DA
775
7BE
0A9
042
7CE
7B7
7DF
7FE
713
6A2
6E6
003
00C
0EC
7AC
7E2
77A
00D
019
7C5
010
7EF
002
7DA
783
7DA
7C6
03A
04C
018
016
7D5
796
794
7B2
78C
6B8
731
698
7EC
053
0B7
073
054
7DC
006
068
05E
0E2
024
7B8
01E
004
07F
004
7D1
07B
08E
070
7D9
79E
7B3
796
75A
65E
6F1
763
7AE
071
0FB
0A7
7EE
02E
7BE
05F
7DF
05C
7D0
7BC
060
06D
7F0
013
0E0
103
0DA
047
7C3
7CF
035
792
6EB
618
63C
748
01C
7F6
0E2
7E8
071
040
74C
7C3
7CE
737
76E
77F
7EF
038
09A
105
228
2A8
2C8
21A
1B0
13D
044
761
6B5
5F8
6A2
7BC
7FC
023
7C4
0C0
0CE
082
00E
027
7C6
6F1
032
0F9
120
14D
1F8
1B1
12A
057
2D2
27D
274
1EF
0B1
793
62E
73C
7DE
766
00F
000
