003
7DE
07D
0BB
0F3
08E
0AB
112
058
08B
138
10B
0D5
164
0F2
20E
127
135
14D
0F7
075
145
11D
144
09B
0B9
0F7
058
7F8
01F
0CE
120
0AE
07E
03B
08B
0A8
076
0EA
09D
0DA
086
14C
0AA
0C1
089
12F
14F
0AF
0C6
09E
03B
7FC
7A0
045
050
712
7BF
099
099
059
795
780
7FA
018
0B3
0C5
092
06E
0A0
04C
02B
08E
0EA
14A
06B
039
795
708
6F3
722
70C
6E9
6DA
081
054
7F5
089
75D
791
798
771
7A0
056
11C
116
01C
04C
063
08D
04C
094
049
029
799
686
5EE
5C3
673
65E
76C
6DD
7D0
780
7E4
014
7E1
7F9
7EA
03A
0AB
07A
102
0AC
0ED
00A
7B3
0D3
05D
07A
7A9
79B
6C0
679
690
6E3
68A
70F
643
793
7BC
77D
005
7F5
7BA
7E1
046
030
00D
0C6
104
109
028
7C5
033
0A9
0CB
7F3
766
69E
636
6E1
751
684
60F
6D0
673
749
7DC
7D0
7E6
7F7
7A4
7DA
024
7FA
021
06C
0EA
07B
053
7E7
005
056
015
7A5
6DD
6D7
747
774
75A
6BF
66B
001
7B9
796
754
7F1
7A6
7A7
7F1
79C
7CA
7FD
04F
09B
0ED
030
004
02D
7E4
7FF
042
7B3
741
77E
041
7EB
7C3
6A6
6A8
6FB
755
741
792
7F2
731
012
7E4
7FA
7CF
7BD
072
08D
043
000
7DB
771
793
7C6
7B9
78C
6D8
7BB
7ED
79E
79E
728
774
66B
7DF
702
7F9
784
019
7A5
77D
797
7A4
7E1
0AA
046
00A
049
03F
7B8
7C6
036
01C
7AF
744
770
7AB
6F1
7EE
6A2
77E
6D4
760
7BD
0AE
039
011
032
7D1
7D4
79A
7A9
08D
065
088
028
00D
05E
0A1
136
095
7E3
7A2
793
718
75A
714
6C8
734
75D
794
059
786
07E
01D
01D
02C
772
79E
7FA
7DC
04F
071
0B3
05B
05A
018
0BF
0F9
01F
789
782
767
6FE
735
730
793
78D
7CA
156
7A1
7DE
021
056
0B3
7B8
072
02F
069
064
07A
0B7
086
0AD
7E4
0FC
00F
7CF
7DD
7E2
799
7B7
7A6
73E
7CF
06C
02B
114
769
76E
7D5
001
778
7B6
7B4
016
7D7
048
08C
078
007
06D
031
09B
00C
7BF
7C1
7B7
77F
7A8
7E2
7BE
04F
071
05A
07B
00F
050
040
076
03B
003
7D6
023
7FA
022
019
00E
7F1
02B
7B4
098
7C3
77E
7FA
7F3
029
043
7AF
00E
00F
0A3
04E
7F5
0B3
000
7C8
013
01C
011
065
02B
033
010
7A9
77D
7FD
7CE
01D
072
7AC
02B
02D
7EC
784
7FE
7DF
02C
095
010
067
0D9
049
051
01C
02B
7F9
7CE
055
056
011
7EB
79E
776
7B4
7C2
029
01D
7D7
7F7
006
7EE
7A9
01C
00F
027
00A
023
7D3
7C0
0A5
054
000
08B
7EE
7FD
004
7CB
7BF
783
794
797
020
7F3
07C
019
029
7EF
7F6
00F
048
003
0AD
00E
00A
7A6
7F3
788
037
7A4
044
040
029
7DC
7C9
7EC
78C
015
057
00B
059
018
055
032
7EA
01F
008
065
006
02E
78D
7C6
7C0
782
6D1
71E
06F
03A
0B7
080
030
01E
7E1
7E6
7A7
7E0
057
7E8
00A
033
064
063
7EB
01A
04F
04C
02E
066
7BB
7FC
7BF
02B
6F8
6B3
7DD
070
0A7
049
78C
02F
085
00F
7DF
01D
7FF
7E8
05A
05E
02F
079
035
01F
7D0
7E0
00F
7CB
7D8
78F
7B5
073
010
72B
003
080
027
02A
7BF
7CC
7DA
00D
048
085
7E1
03E
7D9
06B
03D
013
048
7C3
7BE
79B
7BC
7EC
019
038
017
7C2
058
77B
0BB
013
019
056
027
760
7AE
790
78B
06E
023
036
03A
04E
07C
029
7F8
7E1
7EC
022
7ED
026
072
7FC
14C
053
0B4
7D0
7D7
05D
058
067
777
78B
737
72B
719
02A
044
066
082
096
032
7E6
018
010
00F
01C
02E
7D6
039
016
068
777
0C3
00E
049
011
7E1
075
05B
061
7C2
7B2
76F
7B6
007
7F3
788
034
026
008
041
072
003
785
7F5
032
7D8
7EF
016
084
774
78F
7BC
054
008
08E
04A
014
01D
794
7FF
7AC
015
008
03F
041
04C
068
06C
01D
076
7D0
04A
024
035
018
7CB
7E9
797
072
78F
00E
01A
01D
061
036
7F2
785
7B5
78E
7CC
021
7ED
7AF
00E
7A7
7F1
7C1
007
7DE
7F9
005
78C
039
043
786
7B9
7EB
053
770
78B
76B
754
0AA
0BC
094
02E
7EC
7B9
7A2
74D
7E9
767
000
7BA
7E3
7A9
047
016
0AA
017
7B7
7FE
0B8
07D
7F0
