7EC
7F4
071
054
128
7FE
147
0F3
12F
0C7
07C
79C
79F
785
04C
013
04C
7B0
047
180
133
099
0C9
0E8
199
0D8
031
090
041
008
796
7F0
7FD
045
7C4
05F
037
063
083
060
79E
021
036
7AB
7B1
013
7E9
7E7
01F
0EA
087
063
155
101
178
14B
051
7BC
7C0
7FE
799
7C9
03F
02B
007
7E8
02D
047
022
78E
7CC
013
7B2
006
00D
7AB
7F7
7DA
02E
0D1
0CE
026
158
131
79B
6E4
7BC
735
7CE
7E3
043
012
7C3
005
7DA
78E
7A1
7E7
756
7ED
7C2
793
7C7
7F4
7C4
02B
7DB
11F
12C
0BA
010
0FE
6D0
610
6B5
70B
7DE
7E1
7FF
7BB
791
036
7D3
7DA
7E4
7D3
7AC
79E
7D0
7A2
04B
037
020
004
007
02A
05B
057
0A5
141
6B4
688
725
7BB
7E6
78B
022
7EE
7E4
068
018
7FA
016
01A
7B9
015
048
04F
038
0A2
06B
027
07E
08A
04F
0D1
0B9
15C
6D6
68A
707
7AB
006
79C
7F8
015
01F
02F
037
005
018
005
00C
03E
034
7F5
035
07E
0DB
099
077
09B
139
0DF
0EC
26F
00A
6D2
6E5
7C1
040
7D9
7F9
7DB
7BB
000
006
00D
7F2
044
7BB
046
0AA
055
04F
07A
012
053
003
057
0BB
034
038
195
65B
6A5
784
7CD
7F1
030
035
026
017
040
012
016
797
027
7B5
06D
7D1
018
07A
007
00C
7E5
7BF
046
728
728
6CF
6A4
5E1
66A
761
014
06C
004
7FF
04C
01E
03E
028
7ED
772
7CC
782
7B4
778
76F
6A6
6F9
67F
6CB
6AF
68F
681
5EF
4ED
5D0
695
785
75C
010
7F5
019
042
040
076
06F
03E
034
040
79A
7C2
7C7
7AC
724
002
6CA
6A9
5A9
5E8
657
5C8
57B
46A
4AD
688
71C
7F7
05E
06E
05E
007
7DE
048
037
0A8
07F
020
78B
7F3
78A
758
73D
71E
78E
7B8
766
739
5A8
576
4D3
6FC
520
74E
751
034
0AD
0B7
05C
092
056
001
035
031
05C
077
01A
7FA
7CE
787
7DD
7D8
7AF
017
7AC
7CA
6DD
57E
4F5
544
610
7EE
044
020
07E
046
055
080
03A
034
059
030
048
00A
7C4
7C2
7B4
760
7B6
7D1
7C6
044
068
775
759
72E
658
5BA
6BB
7FB
7F6
01E
04C
02E
04B
00F
02F
016
069
00B
035
7F0
7D7
7AB
7C4
7D8
023
014
7F9
7D4
7A2
7CD
7EE
029
7D4
62F
771
7AA
7FA
0A6
08B
0F0
09A
055
065
00F
07A
066
016
02A
00E
00E
7F6
03D
05A
7F2
00D
795
010
7CE
03C
75A
7D1
76D
03D
78D
047
7FD
04F
01D
03A
07D
076
066
0B7
012
7DD
00B
026
7EE
024
7F8
7F9
7F2
01E
7CF
046
021
001
037
007
7FE
724
787
7BF
7B6
038
01A
7F7
7EA
02E
05C
03D
02E
029
01D
015
013
01E
052
011
063
0A0
07D
080
025
027
051
073
7B9
0D8
7E2
7EA
00A
011
7C6
7B8
00F
03D
00C
7F2
063
027
015
01E
05F
00D
055
080
079
095
05F
0EF
092
0A6
076
022
050
126
7D1
7EF
00F
7E3
7DD
7DC
067
7FF
044
7BE
7CD
7E4
7FD
00B
03A
066
085
03F
053
118
0B7
046
060
080
0BD
0BF
00A
0B1
034
7F4
7E1
7CC
7E2
03D
7EF
00A
7DA
7DD
7F4
7E9
7CA
004
7DB
050
0A9
098
147
0F8
0A2
0AC
079
0EF
051
0BD
043
0DB
078
7F2
79C
7ED
7B6
001
7D5
7F1
7CE
7AC
764
76F
799
79C
768
001
001
07E
11F
11E
0E4
0A5
043
7E2
7FB
0C8
08A
0D7
035
02E
79D
77B
7B4
7E3
041
045
04A
7E0
029
7AD
7C7
7AE
7D1
7EC
7E6
057
09E
0AA
0BE
090
7E9
028
079
0FC
102
00E
020
073
012
771
76F
762
039
042
004
7D9
7C9
7F3
784
793
719
70C
7A6
007
795
00A
77A
04C
7DB
052
07B
0B2
7AB
02C
746
7D0
06D
010
792
7DA
039
780
7FA
7CD
7C0
7E2
7C5
000
7CE
7B3
77A
739
74B
77A
7DF
081
062
0C0
04A
009
0E3
024
76C
747
7ED
090
066
7C2
796
7C2
7CC
762
78C
7D9
761
7C8
799
6F5
6E7
753
7D3
79E
7B5
034
027
12C
05C
0F7
01C
7CB
79A
738
7B2
70F
767
7FC
029
023
7CD
024
7E9
7B0
776
788
733
6F8
63D
6F3
74B
69E
696
73C
7C5
7FE
7E6
06C
7EC
7EC
7E7
797
76D
786
77F
740
769
76B
717
68A
683
70E
663
5F4
600
034
526
587
5E7
55D
553
67D
737
7BF
7C5
7FE
7F3
024
