011
3DE
012
04E
0B4
0A3
037
05E
04D
0E2
100
0D8
071
182
0B8
0DA
0A8
0F4
0DA
02B
076
0E5
197
043
023
3FE
0C6
068
044
3F1
079
000
0AA
3E9
3DD
070
0F8
0AE
109
0B3
062
0CB
058
02E
3ED
02E
101
124
0AB
081
185
18A
0EE
0D8
3E3
3EA
3DE
06C
3CA
3C3
3F2
3C6
388
38A
38E
38E
350
2E9
2F5
303
37F
3B5
3A9
00E
3FF
00C
3FC
033
0AC
09E
094
024
3BF
073
3DF
3F9
3C6
3CF
35D
3AD
37C
3F2
325
326
2FA
2EA
3B5
3B5
02E
01B
043
06E
3A6
3D3
3FF
3B2
01A
3CA
055
36D
033
053
02E
3A2
3DC
396
3AD
3A1
3CF
335
394
384
38E
3BD
39A
3ED
3E9
061
38D
025
3CE
3D9
00B
38D
3CE
389
3FC
003
3BD
34E
3D9
356
39E
35D
3FB
3A2
3E9
2DE
3AB
039
3CA
007
032
0A5
07C
053
054
001
01E
3E5
3E2
001
3C9
001
002
023
03A
3E1
343
377
30D
3A0
32B
30C
38F
38A
3BD
3FE
3ED
3B0
3E7
09D
063
06B
02C
02B
022
039
004
3F9
050
00B
010
37D
3F8
2E2
34E
375
34B
2D0
33D
3D0
396
005
37C
3CF
3DF
3A7
382
3CC
047
02F
003
3D0
3B8
017
3E0
3EC
015
069
00B
344
37F
36A
3C4
304
302
36E
342
3B2
3B1
3C9
3A9
3B9
38C
356
32B
37A
37D
3E9
3FF
3F9
3A3
00A
02A
015
08D
05C
3A4
34B
3C0
396
395
373
32A
313
39B
011
3D3
3E0
3BE
3E1
39D
370
36F
3FF
39E
3F8
3EC
3F3
000
3ED
003
05C
02B
02E
014
3E1
3BF
345
3D4
3EA
3C8
3D1
01C
3ED
024
3ED
3E1
054
3D6
00B
3A4
014
00C
089
06E
03C
00C
017
03B
013
3D5
3E7
3FC
03E
3EF
002
08E
016
053
0A4
0A8
015
02E
06D
00A
3EB
065
015
016
3F7
01D
089
05E
006
022
3B5
041
03D
3D9
3A4
024
019
0AE
136
0D4
0EB
118
112
042
023
018
027
022
3FC
06E
0F9
0D9
124
0C8
090
060
03C
02C
3CA
3D5
3B8
3CE
030
3EC
086
3DA
15F
098
0E2
17F
0A5
06E
03B
3C6
02C
087
0B9
09C
10C
148
0E1
0F7
125
080
3E6
3C7
395
3F5
383
3CD
380
3D6
3D3
048
0A3
39A
385
12A
0D9
079
0B5
0BE
086
096
10E
07E
090
08D
0F0
0A6
043
042
3DF
3D7
388
3C3
380
3B4
39D
3B9
039
091
0F0
347
36D
040
0CA
0E1
3EF
391
08D
07D
0A4
03B
004
02F
05A
083
074
061
03E
3BA
3CF
3EE
3E0
3D6
3F6
356
3D5
3D5
0D9
30B
2EC
3E8
06B
06B
3B9
043
04F
1B7
0CA
3FC
057
068
3F1
3B9
02F
092
010
011
015
3BD
3DE
013
3CE
3FE
3D6
00A
0BA
353
35F
3ED
015
033
3E7
0B3
197
18F
0E1
0B8
069
031
01C
046
043
091
094
07F
07D
053
3FC
3FB
032
05D
033
010
080
34D
30A
3B9
3F5
011
093
0C8
136
14A
095
02E
041
3DF
3DC
3E3
3F7
02C
09C
08E
09A
01C
067
056
0B4
027
3F2
373
3A3
2B5
33D
331
388
061
091
0D4
0E0
3FF
074
002
3ED
392
019
01E
02F
055
0A9
069
08C
069
036
059
021
3FD
3E6
04C
01D
34A
2E2
2A1
2D4
3F0
3FB
066
09B
04E
012
028
033
3DB
39C
056
018
05D
06B
082
03A
03F
001
024
024
032
3A5
3D9
061
3DD
3D9
2CC
2B1
2C4
312
385
003
012
009
03A
3FF
3FC
3EA
3BF
3D9
3E3
3DF
03B
060
3ED
012
081
024
048
077
00E
0B5
396
3ED
325
25C
2FD
2BB
304
3DF
3D3
026
0BD
062
052
3F1
038
3E8
033
013
3E4
045
02B
00A
3BB
034
39C
3FB
03D
0EC
393
3B5
3CE
32F
30F
335
291
2EC
374
3E2
371
018
3EA
00F
006
3F8
08F
061
3CB
068
0A0
08F
045
373
314
024
05F
3B8
3E4
35C
377
3AD
356
2F6
363
2EF
2E9
2D8
005
3A0
3C0
018
36D
014
3CB
3F7
387
3AD
016
3C1
392
342
392
3F4
3CD
36C
371
37F
369
3D6
379
361
34F
364
33D
33C
37A
02C
3AA
390
3CA
015
3FF
3F1
3E2
3AA
08A
035
007
3F9
046
322
354
381
3A0
01E
3FD
3AA
2A2
302
3AB
2F6
353
3A9
3B7
398
331
3DC
36F
3C8
391
38D
3C4
3C2
01C
39B
07D
078
3BB
330
33B
3EF
013
375
00E
3B1
3AD
38D
3AA
322
32C
3BA
380
328
328
00B
31E
02D
34E
33A
024
379
313
011
058
3A0
395
315
381
005
