FDC
013
FA8
F99
F7C
F27
FB7
F66
EB1
E4F
EEF
E90
E85
FAF
F5A
DB1
ED4
F6D
FC9
F52
F7E
EED
F59
EEB
F04
FF4
F3E
F85
01D
002
FAA
F43
F40
F50
E7D
EFB
EB7
F1F
F4D
ED8
E6D
E3D
EB9
E84
F38
F66
FAA
FB7
020
03B
FBE
FCC
FBB
F2A
F91
F43
0A2
F38
F9C
F29
FBD
F90
F54
F8F
FCD
032
034
FA1
F76
FDC
046
03C
08E
07A
115
128
241
210
139
0CC
095
02D
12D
0C5
FAD
EE5
E64
FF0
F68
FC2
F2F
078
08D
0C4
056
030
02C
05D
080
008
033
13A
1CE
255
3E6
377
2DD
224
224
29A
278
1F7
F7D
F0A
E93
E50
FC9
F93
F46
FD0
062
046
FFA
F91
012
00E
FCF
FAB
FD1
02E
0E2
1AB
2FD
313
391
317
3BC
349
2D9
2FA
F35
FB1
F1F
EEE
F09
F46
FB8
FB8
00A
029
FFB
F96
F32
F23
F1E
F52
F5F
F79
00B
0BC
12A
136
212
321
310
2C7
34E
38E
FB0
FF1
FAD
EFF
E7B
FB5
FDE
FEA
039
032
FEB
F92
FB1
F87
F74
F88
F92
FAF
FAA
004
034
078
050
0FC
1FE
306
326
444
FED
F55
F88
E54
F00
F39
FDD
FDA
079
038
F80
FFD
FEC
FC4
FFF
02C
02D
046
031
01A
FF7
00B
FC6
008
122
195
2E8
38F
FA1
F21
F92
ECD
F0E
F9B
00A
057
052
078
069
038
04C
047
037
089
092
0B1
07D
034
081
0E6
09A
043
15A
1E7
1DB
27B
FD3
FD6
F2C
E89
F2F
F4B
FF0
039
05C
014
038
054
FCC
058
06B
037
040
01A
FC7
044
042
091
0DE
1A5
1AB
11A
128
13C
FBA
0BA
F3F
ED1
F14
F60
F8F
013
091
027
FDF
00F
FEF
03A
054
FF7
022
FEC
048
007
034
06E
080
0EB
1DA
13E
F6E
062
F86
FBB
FE7
F15
F5D
FCB
FE8
FC8
025
FD6
02B
072
03A
043
FFD
FEC
FD5
FC7
FF9
04D
040
0E8
073
0AF
099
037
088
03C
01A
FE6
FB1
F95
02B
FF2
FED
FEB
01F
FF3
042
FFD
FE8
FEB
F90
FE2
00F
FB8
01F
09D
097
0EB
04E
F77
F46
F4C
F9C
FD1
F5A
F46
01E
017
FF3
F90
FBA
FFC
FE8
FE9
FE6
FDD
FCE
FBF
FDB
FEF
FC2
FF7
052
071
06A
026
F8F
EB7
EC0
FEE
FC3
FF5
F48
FF6
06B
08A
035
00E
FB8
01E
04F
042
FD4
F9D
F82
FEC
FE1
FFA
00A
06D
07F
035
FBB
FA2
EE7
F04
EB9
F6A
FA9
070
F5D
FCE
050
023
048
004
FF9
026
02A
01C
019
FE4
00D
FF1
007
09E
053
092
009
FA7
FA0
F3B
F0B
EDE
F55
FB3
F97
001
FCD
050
083
00C
FBA
FD1
045
FD1
041
07F
05E
05A
FEC
066
089
04B
04D
021
FED
007
FD2
FB3
F4C
F1A
03D
FD9
FB6
F96
01F
012
07D
032
013
FF0
04C
FC7
FD0
097
080
06D
056
089
070
03F
03A
006
FFD
FEE
FE9
FCE
05A
06B
060
062
FD3
FE8
F67
FCD
056
048
039
026
018
001
FE1
023
08C
03A
06C
FEC
FD1
035
04A
049
FCE
FE7
009
00F
050
071
0EB
06B
05B
0D7
FD5
031
FE5
FDF
FFE
029
01A
02E
035
FDA
083
04F
FFB
017
FCC
009
02E
02D
FFE
00C
FFC
035
092
06F
034
0A4
107
09D
02C
003
044
FF9
FD6
FDF
03B
006
00E
017
02E
03B
004
FB1
F73
FAD
038
019
01F
FC5
04F
073
041
019
06B
0C7
07E
08D
F95
095
06D
025
01F
039
FD0
008
019
FF4
02E
FFD
016
F9C
008
FC1
FA8
03A
039
00C
023
FDE
FDB
FF3
09D
0D5
0B2
FF7
F08
FC4
03D
040
053
021
007
000
FA4
FB3
FA2
FAC
012
FD9
FDD
FE8
032
040
022
05F
FE5
FA4
038
09D
05A
050
FFE
070
F93
07E
079
055
FF2
038
FF4
F81
F92
F20
F9F
FB2
FD3
FEE
049
FB5
FDB
057
02B
005
FE5
FDD
FE9
005
FAF
FDF
F8B
F7C
F8C
014
0B7
050
043
007
F9E
FFF
FF4
FCC
FF9
FDE
FF9
FC2
026
F8B
FBC
016
04E
FE8
FBC
001
00D
FDF
FE1
F7B
FD5
F56
F93
FF0
05F
FAE
F94
F7B
FAA
FE8
F86
FE7
FF4
01C
FEF
FDB
042
F91
024
06D
02D
070
FB8
00E
039
051
FF4
05F
EFF
FA1
FFE
FEF
FD6
F7D
FA5
FF6
F1F
F7A
FA4
014
FE8
FE1
FE8
001
003
F8A
FCF
029
FF8
07A
01D
051
0A5
080
006
01E
FF2
00A
062
F50
FD7
F45
F65
F6B
FED
00B
F94
FA8
FA5
FA8
F92
F88
FF1
070
027
FEF
023
0AB
052
068
FE6
F4B
065
F2C
F9C
FEF
