019
7FC
7B6
7ED
784
778
797
01C
019
751
795
022
086
7D6
04A
006
793
7A2
72A
66B
5CD
64F
6E6
774
792
789
7E9
7C5
07D
002
01A
011
77B
7F9
032
031
7DD
79B
76B
77F
738
7A5
7D3
7A2
750
6A4
679
60E
6CA
758
7D5
0A4
099
7F1
756
06F
6E7
75A
030
03B
04A
7D1
05E
074
066
04A
020
041
7EE
023
081
04E
05F
00F
067
020
7DB
7D2
06A
016
032
00C
7F9
032
035
07E
021
04B
083
0CF
0B0
053
04F
072
06A
7ED
02E
7D1
04D
7B0
00C
044
008
00D
057
7F0
067
08C
7BB
759
7B6
780
061
7D4
7F8
067
073
7DB
008
08B
06F
04F
0B6
067
058
07E
048
027
00F
093
046
082
00C
7F1
74B
786
038
7D6
7B0
7E0
7E3
075
065
04B
045
7A1
7C7
79F
02E
04F
06F
09E
084
04C
06D
055
0C0
077
096
083
02E
798
02C
7D1
7C3
7DA
7CC
7B6
04C
7A4
7C4
7B8
7C8
7CC
7D0
039
05E
065
042
018
06C
05E
091
08A
09E
074
117
0C8
00C
006
02E
7BE
7C4
7F7
795
7E8
7D8
01F
7B1
7A2
7A1
78F
033
031
01D
00C
010
034
041
010
033
063
0C6
0A8
0DC
07F
09E
7FF
012
052
000
023
7F9
014
7EE
7F9
791
01D
001
03F
7F6
7F8
7BD
7FA
7DD
023
01E
7D9
021
058
034
01B
012
071
088
050
058
059
015
088
000
7FA
036
7DF
7B6
7FE
025
048
7E9
7EB
7BC
00D
7F9
7F3
7CA
7DD
7E9
015
047
7E2
7A3
7DD
7FD
03D
7FE
012
7FC
087
7CA
064
051
7DA
003
01F
036
042
7DF
7D7
023
02D
074
02C
058
015
7BD
79F
75C
74C
7CA
7BA
7CC
7B8
7AA
7EE
79A
033
7D3
0A8
01D
04D
03D
7AF
7E8
01E
071
021
058
049
071
04C
7DF
027
012
7AF
7CA
7A3
795
7B4
7DF
77A
77C
7E4
7CE
028
029
050
7B7
087
030
02A
006
013
04A
03A
04F
7F5
042
017
7F0
066
7DE
019
7B4
7E6
7EE
7AE
7A9
02E
7BE
793
732
02B
03B
7B9
00E
099
05E
023
7F2
012
034
015
7F2
00E
02D
029
02A
7FF
03A
7BC
7EF
796
7EE
7B6
7C4
003
021
7CD
7AA
041
007
027
0B4
07F
7D4
005
039
013
044
7E0
021
7D2
7EA
04F
06B
027
7F8
7B0
7C1
7C9
7DF
00B
79A
7C5
7BE
7F1
793
078
04F
018
0DD
064
052
7F5
7DC
7D7
7F0
016
7E6
7FA
003
065
04C
048
008
76E
79F
055
7F8
7D1
796
7F1
003
7E2
76F
05A
00F
7F4
7E0
006
0B0
7B6
7ED
7CC
7F8
78E
7E3
7F5
018
0A7
7EB
003
7DC
79A
7B0
7FD
7DE
7C8
7F7
7CF
7DF
7A2
7FC
044
008
00B
7A5
77B
7A4
7D4
7CB
7DF
03A
026
03B
048
06C
04D
7D7
775
7C7
7D0
7DD
7E6
002
7FD
7C5
016
021
7A0
037
055
071
03D
7EB
78F
7C5
7BC
7F9
7AA
029
040
008
038
07A
03B
7E4
7B9
7BE
7CA
7E9
7F6
7EA
7F4
002
79A
7BF
7CB
7DF
00C
7DA
793
0B9
055
038
02D
7FF
035
02E
02C
04C
026
00F
021
7C0
79B
7D0
7DE
7D9
02B
7C9
7F8
7A9
7A0
7D7
020
02F
036
764
780
0B4
0C1
047
092
084
063
043
7FB
05A
016
012
7F6
00F
7F9
7A9
785
7BE
7FD
7FF
7B8
7F3
7AB
00A
7AB
76F
025
73A
76F
141
04F
0D2
09E
0E6
7F3
02D
034
04A
040
034
041
013
7FF
00B
011
7D2
7DB
787
7C8
02D
7BD
7DE
785
764
7A8
035
732
0BF
166
0FA
040
08C
0D0
0A4
09B
053
7D7
0A5
054
01A
02E
00E
00D
006
7EF
789
7DE
7BC
780
084
033
7D7
068
02B
7E5
090
0A4
7F3
05A
03D
7F4
07D
0D3
082
036
0E2
0AC
0CF
050
7E9
7C7
03C
7D1
01F
7F0
795
7B5
07F
0BC
7EA
042
08B
0B8
152
010
06C
7C2
7A0
797
769
7C6
7E9
036
7F4
01B
7AA
006
013
7CA
7D6
7BE
7F3
015
057
7EB
066
79F
7D5
03E
75F
03C
7BB
7BD
06F
019
75D
7C3
792
7AE
7B6
77C
79A
782
011
02D
016
02F
7FD
014
048
051
78D
7CE
7A4
757
020
76B
7EA
03C
050
7B8
788
017
0B5
055
02A
095
01A
02E
09D
01C
04E
05D
04B
0AA
097
0D1
0ED
02B
04D
042
024
7DB
024
007
7ED
7E9
058
7E5
080
020
05C
068
0B0
0BB
0E1
103
0F7
0E8
0ED
0EE
0E2
01B
091
140
0C0
0AB
08E
099
054
00D
0B5
06E
05E
013
