023
7F3
032
05D
090
09E
0B4
034
12D
077
130
0C9
22C
132
0C2
142
0C6
024
14F
125
11C
1EA
122
0A2
0E1
0A0
10E
092
06D
007
057
79C
0E7
031
042
017
78C
009
087
028
7F9
7CB
7DC
016
028
033
176
120
0E3
069
072
052
7CF
059
040
0AF
74C
7DA
7E7
7D0
799
01B
09F
029
7C6
775
005
004
7F5
7A3
7A0
7BA
794
7BB
7ED
084
7D7
007
055
7BB
719
71C
7FE
0A4
086
0F6
05D
022
02B
793
763
75C
7D7
00D
7C8
7C3
786
7C3
7B2
7DB
7DC
7B4
7B4
050
7FC
009
003
7D6
75E
796
7D5
7A9
792
051
02B
749
79D
793
7CB
76B
02A
7D7
7E3
7B9
029
7C3
7B0
7DA
7A9
7BD
004
01C
019
7FF
7E3
7FF
7B6
7FD
795
7A5
016
7F2
794
79E
7D5
7CE
7CF
011
7ED
794
731
79B
7B4
7BF
782
767
751
7A6
7A9
7E2
008
7EB
7BA
7BE
03B
01D
773
757
7D4
768
762
7C7
7D6
7E5
031
78D
7DB
7F0
7DD
7A5
782
76E
7EC
7DA
7F2
786
7C5
7BF
07B
011
00E
010
7BD
00C
76D
7DB
082
74B
7D7
011
04C
045
00B
018
7C5
7B1
7AA
7CB
7B9
7FF
77D
7E2
014
7D8
7C0
055
7CD
001
7DC
7FF
73D
7C7
7E4
788
7B3
7D3
08A
011
090
07B
012
7F2
7B8
028
034
7F0
794
007
7B0
005
7CA
7DC
7CB
000
7DC
7D6
00F
7DF
001
01D
027
7E1
7E5
01E
08E
013
046
7F9
7D8
009
7D2
77D
7BA
7E2
7DB
7E9
7B8
770
7A5
7C9
7F0
03B
009
029
011
005
7D6
03F
002
12C
0FD
7F6
08B
05B
7AD
7CC
7B7
025
02F
7E1
762
00E
000
79E
7A2
7A9
7B6
023
073
004
025
7F9
03D
0A5
7DA
0B6
0C6
174
049
788
020
7F3
7B8
7BE
7DC
7AA
7BE
7BC
7B1
779
77C
792
72B
75D
052
7D2
7CF
03C
03E
026
7C6
03D
07C
0BB
06D
0EF
7A6
6CA
7EF
7A8
084
791
043
7B1
7F4
7D1
7A4
796
7F8
771
77F
001
06C
021
02E
02E
060
047
03A
07A
7F8
78F
036
0C8
73C
749
73B
721
7A5
7C3
758
72B
7AC
773
7C6
00E
041
769
7DF
058
055
066
062
7F0
7D0
079
7CA
7E3
781
784
79C
7E5
7F0
034
7BC
732
738
75B
797
778
7F9
7DC
7E3
01D
7F7
7B1
79D
006
05F
086
0AD
04B
7F9
7B5
00F
746
7B9
011
761
02F
0B0
074
00C
045
08E
02D
7D3
06A
076
055
034
03C
7D6
7C9
004
093
049
04D
046
046
045
06B
7DE
77B
76D
7BB
034
172
10C
176
0FB
1C1
20E
192
18B
22A
0F0
0AC
092
0F0
7C8
7ED
7CA
7B1
028
036
7FC
020
028
05E
0E8
7E6
04D
0F2
11E
20B
0F5
155
1DB
281
31E
2A3
2A2
221
19D
1A9
148
0CF
0C3
06C
087
0A1
09B
031
080
079
0D3
034
0F0
098
0B0
170
175
26E
084
102
1B7
1FD
1DB
10E
0F1
0A3
0EC
0A7
0FE
124
0E4
079
0C1
0AA
0E0
039
0A6
097
0BE
099
0BC
04E
07C
18B
0E9
1C7
028
095
0BB
008
7FA
7C6
094
05E
083
023
012
7F7
060
09A
0DA
0B4
0C3
0C9
045
072
091
061
052
0C4
0E2
087
095
1E6
748
7F2
030
782
728
773
7AE
02A
063
7ED
025
018
074
0D1
08B
0B7
0BF
0A0
0A0
060
056
010
7E9
02D
0BC
0BE
07F
05A
7C3
7D4
78F
744
7CB
795
7F6
7D3
7FD
012
04B
065
05C
057
0C0
07F
027
068
02E
051
03E
01D
047
08B
02C
0B9
7A1
090
790
764
6C1
7B2
7DE
018
020
7F9
03A
049
048
04B
04D
058
0B6
09E
062
054
022
7F6
022
051
7F2
05C
7F1
06F
7B8
0D0
07C
787
696
713
775
7D0
01C
030
7E5
040
7B6
058
063
09A
0EA
0C3
095
0DA
084
0A3
067
0ED
003
093
049
7EA
053
0F8
090
789
76B
7B4
7EB
006
7B0
045
052
057
023
03B
7E0
05F
09C
04F
09E
09C
096
0CD
09B
0CE
04F
028
7F2
02A
12A
046
006
73D
7D8
78D
719
736
77C
7A5
7EC
000
7D8
7DB
7BF
7E4
04B
06F
7ED
0A7
00A
01C
0AA
0F4
1A8
142
040
042
7B9
023
791
015
02B
7B2
7A8
018
79B
78B
709
7C9
7CF
775
7B3
79A
7A3
774
7D2
022
0BD
0E7
121
158
175
0E8
043
02D
093
005
03B
755
772
715
738
7B9
7BC
750
7EB
787
7CC
72A
7B3
712
74E
075
765
098
7DF
7FD
111
109
160
117
0F7
09C
039
018
