7F5
022
794
78E
6F5
6ED
6D9
628
6D6
767
794
016
79A
73C
72C
01D
059
09B
0FB
024
787
611
754
6C7
75B
723
72C
77E
095
7F1
7DB
702
741
796
71C
77A
70E
054
7F2
73F
701
79F
7C0
768
065
024
767
7EC
752
03B
716
688
714
789
67F
76D
007
7CE
7A3
78B
72C
77C
7BC
78A
772
784
003
770
73C
79D
7F3
7B4
789
059
02F
08B
7A5
058
7C3
775
797
7D9
72C
671
7D3
06D
75D
7E9
71C
710
7BC
7CE
75E
77F
793
78C
7C4
7EB
73E
7FF
7F9
002
025
065
00B
09B
04D
6FD
6E0
658
66E
6ED
071
777
740
774
729
739
7E7
756
745
73E
7A7
7B8
74A
76B
78B
7D4
035
7F1
017
056
07A
04C
7D2
687
651
61A
671
5AE
0C6
7CC
7B7
72D
760
76D
76C
73C
7A4
7D0
7FE
7CB
7B0
02A
77B
779
7BB
7D9
04C
043
060
079
764
630
615
5BE
6A7
54D
089
7F6
7FC
7F6
7F0
7EE
793
77B
7DD
774
01D
7F9
7B1
7BE
7AF
763
7DB
7F2
017
7B4
7F5
7EF
700
5CE
4E5
59D
57E
500
089
0C6
01B
05D
7D1
797
00A
7AC
7A1
7E3
7AC
004
783
789
756
7C7
038
00A
019
7B9
007
71F
6A4
5C6
578
694
51D
4E1
037
023
036
07A
076
07E
009
05B
7EB
020
03F
7A7
79E
736
779
03C
048
08B
012
7DB
038
737
640
665
57B
55E
573
527
0BC
083
058
070
03D
063
057
090
7E3
015
7D3
777
771
734
7AB
07B
07A
045
7F0
7DF
7A3
7B6
6D3
594
637
610
688
579
71F
7F1
07B
7CB
00A
048
7EE
7FD
7E9
7EC
7F9
03F
7BB
739
04D
098
057
021
043
033
00C
751
61C
636
66F
66B
68F
696
00E
78D
03F
066
79D
7DE
7C9
7CA
026
7E5
7FA
000
775
765
08B
049
072
060
031
04E
050
677
569
5AF
627
5EE
025
6A8
08A
04D
00A
7A0
7F5
047
039
01E
01B
036
047
00F
7B8
7B5
023
112
087
03A
089
0AC
067
6D4
51D
5F2
66A
5A6
7B6
785
00E
08C
738
7F6
7E7
7F7
08D
7EE
7D0
01B
004
7C7
77F
758
062
0CC
06E
082
0A7
096
7F6
734
578
653
766
6EF
7A8
004
074
00A
041
7B3
01A
03A
099
011
057
020
7FF
041
016
7F4
06B
0B9
038
078
08B
08C
00E
779
66F
592
690
707
6A4
69B
7E3
06C
004
7FC
010
01A
03B
03D
08E
059
08E
06C
046
791
02D
0C3
041
060
003
03A
031
7D4
6FC
688
64F
6F7
64A
645
78B
01C
7DC
7E5
027
017
05E
016
0D6
09D
071
06F
7F4
7F5
054
04E
027
065
035
067
7F5
745
6B0
7A6
6AE
67B
74A
61A
7D4
07D
010
019
019
03C
00A
051
04D
02E
048
01C
7FB
00C
066
092
079
7DD
049
06A
054
753
75A
784
737
5F6
622
606
7EE
7C8
7DE
015
7C1
054
7D2
7DB
021
01F
7F6
014
7D3
79C
009
055
075
049
004
014
7F6
785
7D1
028
795
6E4
6D7
5FB
710
7C2
01C
7FB
78F
016
7E1
021
052
7E2
7CA
7DF
774
7C1
040
7DF
021
081
037
078
046
722
7CB
69A
79D
756
7B8
652
74B
75E
7DA
019
008
7E4
03B
01D
795
7EE
7F6
027
72C
75B
7C2
025
061
018
010
03F
7A4
019
701
736
613
71C
786
6E6
7FE
72B
7AD
7FC
7BC
044
05F
7FC
00A
7CD
7EA
7B7
746
7F2
7D0
7C9
7F9
021
03D
01F
047
7E7
71E
69F
651
6A9
792
744
7C9
075
7F4
050
024
7F3
051
7F2
7D0
786
02A
7AB
792
7D7
7E8
7F9
048
053
7B4
076
014
746
775
6A5
6A5
660
748
7EE
00F
7A9
03B
01D
7F4
035
7D8
026
020
79A
779
01E
7B5
7FF
7C8
7CA
012
7E6
7F1
7FC
791
762
73A
787
719
6CD
7F7
6EE
060
7AE
7B4
7E8
789
7AC
011
7D9
027
7F4
7B3
7D2
787
7FD
00D
7E2
7F8
7C5
7BD
7D8
78D
7F9
78D
7D2
7B2
727
7CD
7DF
022
034
03E
039
016
011
02C
093
012
00E
796
03D
7B5
781
03B
00B
7FA
798
7F4
048
7EF
6FD
780
719
700
00B
07F
7C4
016
04F
7FA
048
7BF
7FB
7CC
792
04C
7E8
7D9
018
7F1
012
005
76B
7CF
7FB
032
7D0
7D5
7A2
756
017
7B5
6C2
783
7EA
7D6
1B3
064
7CE
7DF
7DC
02A
7FE
00A
025
7B9
013
7EE
7BB
7F4
000
764
005
70A
7D1
05C
037
787
7A4
7E8
723
7B4
7F1
