014
009
39D
379
3C6
2E1
3A2
034
0C7
3F0
373
3F1
001
366
2EF
305
028
3D0
3B7
330
37A
056
002
099
3F4
078
34E
3B5
36E
3F8
00B
07D
00C
00D
089
0F8
04E
3CF
3EB
380
32E
385
3DB
356
39E
01F
39F
3D4
3B8
3C5
02F
3C9
3D9
04B
360
3E3
324
045
0AD
0C9
11A
03F
10E
0AD
0EC
017
045
09D
031
3AF
050
3CD
3FF
37D
3AF
044
3F5
00C
041
3E9
05E
028
3C5
122
01A
0A1
035
057
015
020
09F
01D
05B
01E
3C7
3EB
3D1
3E6
015
366
3B4
3E3
35D
341
005
03A
394
006
00B
3D7
09F
3EB
3DB
307
3D7
3F8
009
018
020
04B
3F6
37D
3B2
376
391
3FF
3E5
004
389
01B
39C
2F5
39C
36D
375
35C
377
397
3D0
3C1
3E1
31D
336
040
051
028
002
3EE
3F1
3CD
385
3F8
36B
3E2
3CD
3D4
05A
3A6
386
3E6
3A4
011
3A7
36D
3F2
2D4
332
397
003
3E5
061
00B
02F
001
035
3F7
05E
064
3E9
040
042
019
00E
02F
006
3F7
3C1
02D
395
35E
3AB
37F
2ED
2F9
3AF
3C4
022
05B
01D
3F7
05B
09B
055
081
0E4
09D
09F
06C
051
034
063
00F
086
004
008
3C8
392
393
2F8
363
391
32B
349
082
04E
3FC
3A4
060
3BD
039
05F
12A
122
120
0BE
03C
3FD
03B
039
07B
059
01D
375
380
366
001
010
394
3DF
022
3FB
0B2
049
3FC
384
060
006
05B
0F1
154
0AA
0EB
071
0A9
0AB
072
09C
0C2
01F
3FA
3F8
3FC
38C
03D
3D2
008
00E
092
05F
0E2
3AB
3F8
3C8
3CE
3B0
096
0D3
15A
136
17E
137
0C6
0A1
04D
04F
0AD
034
3B0
02D
3B6
3DA
3D5
3BF
3E9
3E2
03B
3CF
046
05F
3E9
3D4
024
3E4
043
02F
0C8
114
112
1A6
127
062
3DE
005
016
073
3E2
3D9
00D
005
054
3D4
00E
3CD
3F5
3DA
390
372
3D8
2C3
31B
07B
38C
3C8
3D9
0BA
15A
156
0E4
045
3E5
3BA
3FE
313
350
381
3D8
385
359
38A
320
399
34C
314
231
34D
2DB
329
355
3C6
36C
337
32C
34C
041
040
07B
027
3EF
3B6
37B
35C
390
39F
3CE
367
3A1
3AB
317
3D6
36A
2B4
27C
380
2CD
385
370
346
37E
326
2CD
2B3
34D
367
008
38B
33C
3B2
3A4
3AB
3E0
3A4
01E
3C8
39B
35D
3BA
01F
34A
319
2F7
038
3CC
33F
35E
3B0
339
32C
32A
384
35F
3A8
383
3AA
3E5
3FA
3E0
3D7
064
01A
3F3
04D
3D9
3F3
01D
07E
02D
369
2BA
05C
078
02A
3CC
3B7
3A1
3ED
36F
3B2
36F
335
343
3BC
3F9
035
3ED
063
073
014
3FE
00D
01B
01F
00A
3CE
055
31F
2EA
0E9
00C
01F
39B
365
032
018
375
2E3
34E
311
2BD
38C
3FF
003
04A
0CF
060
08C
050
068
3B5
071
3C4
37B
3FB
38E
362
06D
3FB
08C
026
0A5
01A
3C8
3A1
339
327
338
389
361
3EE
3FC
07B
07F
086
01E
003
01E
018
3A4
3AE
019
393
3CD
2FD
08B
3BA
0C0
047
06E
3DE
38B
3AF
386
3BB
390
3BF
385
3BF
393
02C
068
07C
04A
09A
075
020
3A2
30E
395
347
366
27A
079
081
09B
0F6
0A4
082
051
3AE
3C2
3A3
3D9
00D
3F5
37B
3AB
3C5
08E
08D
098
01A
3CE
3E0
3CA
365
056
3B7
38E
2DA
0A0
00D
14B
0F2
170
147
090
041
3C4
00F
031
053
3E0
3B5
3C1
385
3F0
054
09E
014
3F3
016
395
021
3E1
3C1
36A
30E
02B
0DF
071
136
13E
180
0D5
0EB
0AE
05F
09C
012
095
3FF
015
3D2
049
02D
06F
050
032
050
079
02E
0D2
02B
01C
345
3FC
05F
066
01D
136
02D
1EA
12D
0FD
120
0AD
037
08A
092
00E
015
00C
3E8
001
057
08A
063
0AE
031
05F
031
2FB
37E
3CC
072
041
3CA
0EB
166
0FE
084
07F
062
3C7
05C
051
052
035
023
3B0
039
3BB
01E
040
099
11C
01E
084
013
38C
3E6
01D
39E
3EF
03E
0C9
0B5
0B2
3EF
3E6
3DA
3CC
049
04C
3E0
080
032
015
3F8
3AB
3D5
08C
08D
3CA
05F
018
3D9
09A
3BA
071
076
3DB
0C4
07D
0AE
077
0BC
082
004
3DB
3F4
01F
020
3D7
39F
395
370
3E6
3F6
3B1
37D
3EE
03C
3FA
0D6
038
3EE
01F
078
01D
09A
3EF
0A0
073
057
086
0BE
3F6
060
055
06F
057
095
026
3DF
002
3D4
2F0
330
38B
390
03D
0AA
3E9
009
