017
01A
030
002
07D
787
057
036
01A
008
0F9
035
7DF
014
044
0D5
741
05B
119
05D
763
030
019
07F
7B6
76E
79E
7B1
032
003
77A
742
744
795
705
00D
7D6
028
00A
783
77C
013
75B
71E
017
060
02E
04B
047
034
7E8
023
033
06F
77F
020
0F3
77C
637
750
7DB
004
7ED
087
7EF
054
7C7
00E
7AD
750
7E1
009
002
048
08D
0BF
04C
01B
7E7
7AD
7B5
02A
052
7B9
742
71F
6C2
7F1
7E7
009
7EA
07E
7DA
7D5
7AC
7BD
013
7A4
7CD
024
7B0
7D6
06C
080
09B
08A
08E
058
7E6
7D9
05A
04B
6C9
708
776
780
7DB
01A
03C
016
75A
7DC
79C
7F8
7EC
777
7CB
7AE
7B6
788
022
028
05C
057
041
7B2
03E
08B
024
03D
6AC
719
7C9
06E
038
7EF
045
016
00B
01A
7BB
01A
7AA
010
7E4
7B6
7BB
00F
029
7E2
000
7FF
79B
7FC
00C
7F8
065
072
733
78E
013
0A8
052
07E
03F
05D
029
060
02C
00E
7EF
00C
7F1
033
013
086
067
020
050
7E8
79A
7E6
7AB
00C
05A
0B3
040
7A3
075
0C1
0BB
0AB
0DA
7E4
0A0
082
046
7D2
7FF
7F5
042
011
04E
066
07A
02D
06D
01F
7E1
04D
047
03E
029
0EE
7A1
024
0EE
0C1
04B
046
05D
04C
082
091
0E2
038
7F4
7FA
7A5
797
7BD
044
7D4
7EA
7EB
040
050
085
041
07F
00E
005
727
7CD
046
05E
107
01D
002
085
0B3
017
065
070
032
7D7
7B4
7C5
7EE
030
006
014
7CD
7D1
02B
051
002
030
02E
095
75E
757
0AB
055
7EE
04A
00C
097
091
020
03A
08D
03D
7BA
78E
7CF
7C3
080
084
014
003
031
7A6
039
01C
0B9
097
09F
7A1
786
073
035
08B
7F1
0C6
07B
7DA
021
038
133
053
797
782
75C
789
02C
041
7F3
01D
7FF
787
022
7DD
04C
0A3
7C5
78D
7D6
03F
7D9
05A
03E
050
013
018
7FF
060
0A4
02D
7C2
75C
7CF
753
064
7CF
7B8
781
77E
761
7E8
7AC
014
027
06F
00C
07C
070
7E7
010
011
00E
037
7E7
01F
02A
095
75E
762
7BB
736
75C
021
022
7E8
7CF
7DB
771
732
79C
009
015
0F0
780
78C
7FC
005
7F0
00B
050
030
7ED
02F
074
00B
77A
7C9
7D4
798
7C1
063
053
7E5
744
790
7AF
7F6
020
7C4
02B
007
761
7C0
04B
034
7EC
06D
073
032
7E1
7D7
048
7EC
7AE
7B4
799
6E8
789
0A9
025
7F5
772
79A
7D5
7F3
04F
008
056
0D5
021
7E1
03A
7CA
01B
04C
061
03A
037
01D
01C
05F
7CE
7EE
77E
6C8
027
0AE
05A
7B8
757
7A0
758
7B7
7CD
047
051
0C4
6F3
7B0
7F3
03B
012
7C0
7E5
058
7E5
06F
07C
03E
02D
7A3
777
706
7B0
049
06E
7FB
7B5
7CC
7CB
7D8
7A0
02C
03A
087
767
7E5
7AA
7F8
7EB
012
060
7EF
7F3
049
030
051
04E
02F
78D
78C
01E
059
07B
7A6
7A4
022
7F1
7F4
7A8
0BE
03A
0E0
79D
761
79B
039
7D0
7D5
02B
036
7E9
7DB
7F4
048
7E8
04C
7B0
7B1
7EE
04A
04C
02A
7CD
7F4
7BE
7BA
7CF
022
049
02F
7E7
095
013
07F
069
038
7DE
025
7C2
00F
7BF
02A
097
02F
7A4
7D5
03A
028
03B
7C6
789
031
7E5
797
7FC
038
04D
7BC
7DB
721
7CD
7E6
01F
04F
011
046
7EA
7E1
01F
01E
02C
7FD
023
06B
032
038
050
7C4
001
72B
796
7E3
798
768
039
736
02C
785
6F2
758
7B0
7EA
028
041
004
00F
02F
073
047
07B
0B1
0B5
00E
7E4
7DE
769
707
67C
76D
7AE
7B0
7AF
030
743
072
070
6B7
61D
669
792
78F
7F6
7A4
77D
7EA
063
0F3
069
03B
7CA
76E
735
699
61C
6A5
6E9
77D
024
766
696
7BC
763
751
737
75C
75B
5C3
794
5F3
6BA
735
7D4
6BF
77B
744
750
7DD
70B
695
5F0
548
5D9
6D7
6D5
7B6
00E
7A3
714
77C
096
6E8
777
690
741
766
6D0
5E5
5D0
50A
628
5AC
547
51D
529
4D5
671
507
62B
5E0
641
757
6D9
712
7A3
6FD
6FA
7CE
790
7F7
7DD
6F1
68C
676
720
788
737
605
67E
60F
5A3
5DC
626
74D
756
607
642
680
67C
661
756
7BD
7D6
7A8
04D
0AB
00D
027
708
76C
729
6FF
778
6C5
6A5
5D7
5F6
588
574
563
5DF
683
070
625
5A6
63A
666
6D3
728
743
7C3
0CC
7FB
789
7DF
