0BD
1EA
C51
FBA
09D
D4E
D77
1B4
122
EA8
011
027
0C7
0E4
F68
F52
FE1
F95
204
0C1
B5C
B64
EBF
101
E41
E18
D15
E0D
B84
0E7
F3A
C81
237
15B
078
109
D81
050
04C
1B2
1CD
FD0
F68
168
0B3
F5B
D7B
F1D
122
F8B
C97
DD5
178
0D8
F2E
041
06C
D7B
AFE
BD6
CE4
E68
0F1
F87
15A
1C5
FDA
165
092
FF9
005
F52
F8E
019
0CE
DA2
EA8
268
162
E94
255
FFE
230
FE0
BD7
ECD
D34
1AA
E2E
DC0
F98
C52
1F1
082
E83
FA7
136
D09
1B0
EDC
F71
ECF
0F6
D51
0FA
0D9
001
187
D3A
07B
FD4
98B
112
EE7
E8E
DE7
E81
FB9
C95
CD5
DC9
079
19F
1DD
0DD
1CA
F61
16A
