009
7E6
012
001
033
06E
0A8
089
7BA
0D3
136
076
0AA
035
089
085
055
078
0E4
062
005
0D6
0AC
004
027
7B1
73F
7C1
03A
021
7CD
015
7FC
089
0AE
0D6
0CB
041
17C
0EC
113
1A0
147
1B4
152
13E
101
08C
05D
076
022
08C
029
015
769
782
133
7BD
7F9
790
7DF
050
04D
066
067
098
125
158
0C4
1C8
10F
156
0A5
17D
115
04A
0EA
007
05F
04C
032
02C
0C5
773
042
7BF
751
79C
760
751
792
783
781
7CF
7AF
7F9
77D
04C
057
055
0AC
0A1
086
09C
0DA
0FC
0DB
08D
0BA
0A0
130
123
7AE
7A7
6FB
6B9
721
6A5
721
751
6AA
6CE
6A9
7C6
7AC
02B
7AB
7E0
01B
022
097
03F
037
0AC
08C
13D
0F2
0A6
12C
15C
6FA
759
6A5
617
672
647
722
6CF
672
6C9
765
780
7A0
7BE
7E5
006
7F3
02F
02B
7F9
7F2
7DF
7FD
047
025
015
007
0E3
6C6
719
6AB
672
718
6D6
69C
70B
6BC
718
736
7A5
738
7B4
7C0
775
001
7E0
7A6
773
7E4
7FB
7C5
7FB
7FD
7C0
7CB
0ED
744
6D2
6EE
61F
6E3
6BE
757
703
786
6E1
7A3
7B3
032
01E
7D9
056
026
017
7D5
019
7DC
7E9
7E5
05F
7B7
7E4
09D
048
701
71C
7A1
7DA
756
7E0
777
7CE
7FF
7AA
7EE
7F3
751
05D
06C
7D5
022
0C1
093
0C2
0CF
09F
094
033
033
7F5
075
02F
7F0
7FC
7E7
032
004
788
05B
7F3
02B
7AF
7C0
759
729
7EE
077
05E
066
02A
0A9
063
0C4
0A3
041
073
04C
02D
0BF
11E
7B4
073
05D
7DD
00B
745
002
7F2
7B1
73A
72B
6FD
739
7D5
09D
082
05D
06F
076
033
068
00A
08E
016
09E
0E8
0BF
07A
014
7FF
7EE
068
000
7F4
03A
7DA
776
705
6C9
755
74A
0C4
134
0D1
07E
036
05A
00C
05D
047
05A
01A
050
00B
0B0
00A
033
051
026
7E1
099
73F
028
79C
798
70A
734
73C
76C
028
0D9
077
07F
094
04B
02E
033
039
07F
04B
754
7E1
750
73E
7D9
003
006
011
014
77E
000
7EC
7D6
731
78C
702
792
03E
0F4
081
039
0A6
067
7E3
79B
7F2
7D8
76D
6EC
715
6A7
7CE
7B2
0C7
087
08B
06A
7CE
04F
025
01B
7B3
754
701
790
7D3
066
7F9
7C7
01D
040
015
769
732
748
701
70A
753
6D0
7A2
7F6
7DD
7D2
788
787
7C8
056
062
061
7BA
7AF
7E2
723
78C
7ED
07B
7FA
000
7BE
7DC
78B
713
6D8
716
6D6
77B
010
02D
755
7F1
7AC
72A
7B4
03E
07B
059
076
003
03D
7ED
77B
79B
7DE
7B7
007
016
038
7C5
7A9
6F7
730
741
07E
028
047
7A5
7F4
774
7A5
77D
7F3
06A
7E4
035
009
0A3
011
785
7AC
7B3
7F8
01B
026
7BC
7C8
7D0
717
775
7C0
086
0EE
09E
0C3
12E
772
75A
7F0
017
015
08D
034
04E
02D
7B0
7E0
781
7DD
779
082
007
7BC
780
728
724
7AB
009
026
087
080
086
131
127
783
7BE
06E
01D
7B3
7E4
7F4
05A
02E
7E6
000
027
01A
038
011
7E3
7BA
76A
736
7E3
092
037
0A8
06F
0FF
0E6
197
107
797
03F
7E4
0B1
032
02A
79F
7E0
7A2
7C2
033
7E9
002
794
7C5
7BE
7DE
7EA
059
0A1
0EF
106
08F
095
149
0B6
132
17A
0B2
02A
7EB
039
065
077
7F7
7C8
789
7B8
783
6F9
6FA
7A8
7E5
7EE
00C
0D8
1B2
0C3
0A6
11F
114
16E
0C7
07D
08B
052
197
7DF
00A
0A6
0BE
0E1
083
0A1
7D0
7A1
77C
78E
72C
77B
7AC
06F
0AD
0DA
062
0E4
069
078
08C
140
0ED
08A
70F
0A4
145
06F
7F9
016
01A
09F
099
0AF
068
000
07F
056
055
7AF
7EB
042
03D
047
09D
06F
094
035
0C2
0D3
0D2
078
721
147
142
0DF
05F
7BE
023
0AF
079
01E
0A5
0E1
0C5
0A3
044
0A0
004
036
030
08B
074
06F
0AC
013
01C
052
7CD
7D7
793
0A0
052
05A
7E4
7D0
7DE
087
7F8
061
127
107
0BA
0E9
05F
07B
077
01C
05A
025
050
0A2
009
060
00F
056
770
7A6
75D
7BE
075
0B3
7E6
7C7
007
024
04A
0AC
071
0BF
079
0A4
086
086
04D
00F
084
02E
7BA
7D3
7A5
7CB
7F6
6FF
7A1
77D
04F
7FC
0B6
7CF
005
04C
000
00A
079
040
7C2
7E6
061
02A
084
008
7DE
034
7DA
786
6D4
5DB
6F6
77A
6AC
758
7BA
012
790
00F
