006
7FC
7E2
765
74C
6F9
6F6
66A
77E
6E1
00B
029
0BC
05B
078
106
099
097
02C
772
7DB
785
7E8
77F
777
7CB
0B3
086
765
7E3
020
7F6
01B
7D5
7A2
7AF
043
08B
082
7CE
022
00D
079
048
017
008
035
021
7E8
7A8
030
06D
7C8
045
7F0
07B
758
0A1
11A
008
0B5
059
020
7CC
7D8
0B1
0B8
018
770
717
798
7D9
019
00C
045
049
01A
7B6
720
7B3
7A6
786
776
011
0F1
10C
096
7D3
02E
01E
065
033
05A
03C
74F
7F0
7A6
7E3
7A8
7BA
028
01F
060
0A3
060
023
726
7D0
04D
003
78E
7F1
138
0E6
0F8
054
038
06B
053
786
785
748
749
7EF
7D4
7D2
7C8
792
7F2
7FA
065
098
070
00F
789
77D
758
7AC
7C5
74D
17A
205
148
07B
027
793
720
7FF
76F
7DD
7E0
7C6
7E6
015
7FF
78E
774
7CC
086
049
0A7
7E7
7F4
7BE
74B
729
6FD
749
15E
211
11F
014
7EA
7E6
761
769
7CD
7D2
7DA
048
02C
02D
7B1
787
79A
7FC
003
07D
0B6
046
023
7DC
73D
6C8
73E
65E
037
14C
029
7F1
7DD
083
7CD
7C7
7FE
013
01E
056
015
7DD
762
737
779
7C9
00B
08B
071
02E
79D
73B
740
6DF
72C
66F
156
108
7C4
016
04D
071
07F
045
01B
062
09B
091
046
77F
749
7A7
7C5
00F
025
06E
008
050
6DA
73A
686
6F0
680
70E
0A4
09B
01C
04F
03F
04C
04E
038
08C
010
06A
011
7E6
74D
7CC
7FE
078
093
0C8
070
79C
719
6AF
645
6A1
5B5
60B
6F0
061
028
07B
04B
000
043
075
057
083
054
7B5
7B0
779
7CC
043
038
025
0C9
0A0
056
768
71D
66B
647
649
633
6B8
031
77F
7CD
04F
7FB
7FC
004
00A
7DA
7F4
77E
73F
7B2
79A
04D
076
02E
04D
065
116
030
6F6
62E
5BB
66C
6FF
769
069
127
7E1
052
037
7FD
088
7AF
7FA
75C
71C
725
759
7E3
00E
052
09B
083
086
0AD
099
76A
6E2
6A3
6BE
796
005
00D
0B1
039
02A
092
01D
763
7B1
7CB
77D
74B
7CC
7E8
010
027
03B
080
08A
063
01F
0B9
7F9
705
674
6F9
7DD
7BE
7E2
08E
0E5
078
0BC
01E
7AB
7B6
751
782
769
784
7B3
7FA
7E2
010
033
023
05D
058
7FF
028
741
6F4
6FF
783
04A
005
07E
01B
0DD
094
054
751
6AE
6C9
6F6
6DE
72B
7A2
003
064
076
042
03F
053
076
036
00A
78D
73D
719
775
027
036
035
061
082
083
7BA
04D
6A9
658
771
74D
740
025
7C3
04B
032
083
7F8
068
052
7CC
79D
007
77F
72E
768
030
07D
053
08E
037
097
098
79E
07A
6BA
6B1
790
765
7E1
7FC
021
012
002
7DF
032
032
021
009
7F5
002
00A
028
019
095
052
052
057
016
7E9
020
75F
06A
713
689
7DE
7CC
7DF
7E5
053
014
025
019
04A
04F
050
7E3
004
00C
7DC
029
037
052
073
050
01D
06C
019
7B3
7C9
004
7DD
7AD
7C4
007
7B0
7FD
7B6
03F
7AD
000
01A
00B
051
7B3
008
078
7F7
7F9
010
022
048
027
01C
025
063
773
775
023
783
74C
7AE
7C4
006
025
062
025
00F
031
7F4
056
080
7EF
03B
7F7
01E
7F8
022
01F
7FC
027
7F0
00E
7AD
7EA
015
0A0
010
7E9
7AB
7E7
7CD
7DC
03D
00C
057
032
009
012
7DE
009
039
04C
00C
02C
008
052
045
079
00D
01F
777
7BA
002
05B
06E
06A
7E4
7A5
7FC
04E
016
009
03B
7E3
7F1
034
022
009
03C
7F7
019
020
02A
7E0
057
012
7E7
033
74B
77F
792
7D0
7E6
76F
7C9
02C
014
7F2
026
036
012
01D
00B
003
7E0
7F0
016
7BC
7A5
7CC
7A8
765
7E9
016
02D
7A8
70A
7C4
7AD
017
79D
7FD
7B9
7E3
7FE
7B0
7FC
02E
7EC
7F4
01F
7F9
7D4
779
00D
7C0
011
7E4
7C8
7CC
018
7BE
7D3
7D4
7C1
762
01A
063
79F
758
7E9
7C8
7B0
7DF
7A7
7EA
7C2
00D
045
7B7
7E2
7CC
078
04B
01E
7EE
01B
03F
7A1
7FF
6FC
7CE
7C8
7AB
072
7F5
7AF
737
788
758
7BA
7E5
7E2
03E
7D6
014
00A
7E7
7FE
7AA
7EA
068
041
036
018
03A
7F8
7A4
7E9
784
7BA
052
7F8
024
0D3
00E
774
7B1
79F
002
005
7C9
78F
795
78B
7B1
7A9
75A
057
7DC
00A
015
03A
05E
026
7D8
712
73C
00E
097
7EF
