7FE
01D
771
739
73F
071
038
7BD
043
788
066
024
7EC
7BE
7CF
788
77B
6B5
637
643
695
6F8
6C2
6B3
749
0AA
7E9
06F
02D
7E6
7AF
78E
05D
0A0
05B
073
02B
095
08F
097
0A3
023
7BC
008
012
749
688
5D8
6E6
696
62E
5BD
626
645
703
765
784
76F
012
0F3
0DE
0A4
095
090
061
058
7EB
01E
081
083
089
05D
073
071
668
793
476
626
53B
68E
66B
61E
6B3
6FA
106
0D1
0AB
0E1
0BC
0E4
0D6
04D
078
0B6
0B6
095
059
05B
025
7FF
7E1
015
732
66D
53B
5C0
63A
557
554
5CF
5E8
660
128
056
7A1
02D
078
02B
047
7F8
035
05C
0AB
063
0C7
0A6
022
79E
7CC
036
7B8
69D
626
563
55C
5AF
61E
5A5
5D2
622
016
051
04A
036
065
0EB
0A1
084
0BD
030
05C
068
04B
011
024
031
054
7CA
01B
7D5
755
60B
5A8
69B
6F8
617
620
5FE
092
056
03B
095
010
7F6
044
057
782
012
03D
01B
047
01B
038
064
03F
7B8
063
7F0
78C
696
60F
6CA
66A
647
5CF
551
0E8
047
014
7EF
775
7FE
74B
7D5
748
7A9
02B
035
021
083
06F
058
061
0A5
07A
039
71F
67B
5E6
6FA
6B0
679
6B1
607
0F1
049
7E5
700
704
7A0
774
7D7
01F
041
006
05B
087
087
0B2
0D5
078
069
051
0D1
7E9
6A6
680
688
692
5AE
71E
5F6
061
051
79E
711
6BE
74E
7E0
7FC
001
036
7EF
019
017
060
0B6
0B8
0A2
065
026
07D
05D
7D6
703
632
7DA
621
659
71A
068
721
6EE
6F0
7BC
73D
790
7D2
061
045
051
046
061
7D3
05A
12B
102
08B
0E4
0C1
0B2
056
73E
603
66E
6CE
625
771
759
730
6E7
76D
760
785
013
04A
7F6
7D6
7B2
7C1
773
715
010
0FA
114
0BE
0D9
089
0C3
0B5
7F0
60C
5B6
66B
058
735
733
71B
77F
005
0AA
7D7
033
7D9
7DC
7C3
73E
739
758
717
729
000
040
09F
0C6
0BF
0BA
0A5
79C
625
63A
772
7CC
76D
796
77D
7E3
0E1
022
799
70B
72E
781
782
702
7A8
73B
6F3
76C
062
041
07D
059
051
010
7DD
000
6DE
6C6
740
762
04A
08E
0EE
042
002
7D9
773
720
74D
759
75E
72B
6EC
6ED
726
78A
09D
03D
05C
01A
7FA
00C
7A2
7D3
7B4
786
77B
7E6
017
077
0F2
07C
03B
7BC
795
74A
751
764
7A6
721
6EE
736
7BA
00C
05F
7F3
023
03A
032
7B3
7C3
78C
7CA
01E
7D5
05C
7D1
112
10B
08F
7DF
755
76D
7F2
7C2
739
745
70A
740
7E2
7E4
7F0
026
015
00F
015
007
7DA
7F0
7B7
004
071
029
7B3
7F3
0E6
109
137
7CD
787
7BB
79F
769
76B
724
74D
78B
78D
003
7D6
05B
7ED
017
013
010
01D
7F0
7D6
7FF
058
7E6
7D5
055
173
120
010
7E9
7DC
024
768
7CB
054
049
7CC
7D7
013
7E8
7E4
7F6
00E
7F5
7D5
000
79F
02F
00B
051
7EE
02A
022
031
159
0EC
045
040
7EC
7F9
7F8
03B
09F
7E6
7CD
7AF
7BF
7D0
7C4
7F4
00A
7A6
7DC
7E7
7A1
7BA
7BB
7B0
7F2
00B
7B7
7C9
029
082
01F
03C
098
0A3
068
049
045
00E
7AE
7D8
7E2
7F4
03B
7FF
7F7
7C1
030
00C
00E
7E0
013
018
7C5
000
7D4
77A
087
0D3
03A
0CB
07B
0CE
08C
079
08A
022
7C7
7F4
7E7
02F
009
7E7
7CE
06F
039
7FA
7CC
083
7DA
01D
7D3
055
7DC
002
0A1
0D2
073
7AC
0BC
080
044
033
056
7FE
7FF
061
7DA
037
7C6
7E7
010
04E
7ED
043
7AB
020
019
7D2
038
07C
070
046
056
7D3
05C
02E
085
008
01E
021
03C
024
7CE
7E3
7EC
7EC
7F3
7DD
004
012
048
7AA
7C6
7C0
7F7
03E
00F
7B5
7D4
7EB
0CE
007
109
0B4
018
79D
02C
013
009
000
002
7E9
7EF
054
7C6
7BF
78E
79B
7BF
777
7C6
7A6
7D9
757
02E
7BF
7B5
02E
0BE
0BA
059
0F4
0B6
124
121
0F8
081
091
06A
09B
00E
7DA
7BC
7B7
732
7A8
7C1
7B3
7D3
74F
068
032
785
07F
78D
7FF
769
111
063
02F
054
0BE
11E
16D
0C2
7ED
7F0
79C
7C6
78B
761
7BC
7D7
021
01B
7F8
09C
7FB
056
7D6
78D
7D1
7D8
7F6
7B4
002
14F
09D
116
0F3
121
1A3
0CD
057
00F
011
759
75A
7AE
094
71C
72F
009
7C9
794
7CE
778
76C
767
064
019
7DC
