FE5
DC7
F3A
EF3
E35
FF6
011
D53
F26
068
DCD
F23
E8B
077
F87
119
F27
F00
F7F
E8A
BB5
E70
087
ED4
184
D0F
FB8
D9F
1E3
FE9
0D7
1B9
E69
F51
E86
E9A
084
197
1AF
E5E
F43
DBD
F0A
E94
0F0
CB9
EFB
101
E2B
ECE
E31
CA2
056
1C0
0DB
198
0CC
DFF
205
DAD
032
B0A
F22
01E
0FC
15A
10D
135
F13
2A7
157
141
ECC
EA3
F1C
11E
23F
0D7
CD8
0DA
D38
017
0CF
CCD
E29
307
050
ACD
C79
16A
EE7
C93
DDA
05F
08D
F4C
D85
17F
03B
DCA
11D
0FE
0AD
1BD
00D
159
FBD
0D8
0CC
D73
DC4
FD3
F6B
D8E
0CF
269
095
FD6
184
C2E
00C
E13
049
C56
CCA
07F
1AE
150
