3EF
3F8
3F9
074
082
0D1
0B9
00C
08A
3E5
079
033
084
3E9
010
08C
080
3FD
025
3FD
068
071
3B5
3CF
3A2
03E
3A5
022
3B0
3FA
38E
35E
01F
024
012
3E2
38C
023
03D
020
034
037
36C
0CA
048
3ED
084
026
039
3DF
393
02D
3C7
332
02F
0B9
0BF
085
36C
3EC
390
3E8
01A
34E
373
3E8
01B
3F5
012
01B
3BF
3D7
3B9
060
3A7
03E
3C1
3F0
3AF
02C
0AE
392
362
3C0
01A
3A9
39D
373
33A
34C
308
30B
3D5
042
3B7
01F
3E1
030
3C1
3CB
36C
3C9
3F4
07A
03C
3C2
3B4
006
366
358
3DF
35E
3E1
362
311
352
2CC
355
36B
3F5
00B
00B
02B
018
06B
3DF
030
3A8
3FF
398
03D
3DD
3F4
3E2
386
3A6
369
36B
3C6
00F
3B3
378
2D8
377
35B
383
3B9
3D7
395
059
06A
00F
3F6
00D
043
3E1
007
3CF
001
3FF
3E3
3DB
024
3F3
38C
3AF
053
042
067
3E2
377
39B
389
3A1
385
3E0
011
3E9
3E3
02E
3FB
022
3F8
3D9
3EF
393
3EE
3C0
373
314
3B8
05C
3C9
3EC
077
0CF
04E
2FA
34D
37F
016
3CD
3C1
3CE
398
3C2
3F4
3EB
026
02B
000
035
3DC
3EB
3B1
3D7
364
328
38A
384
04E
02B
086
0EF
031
38D
34C
012
3BD
3FD
3FF
014
3AF
3F7
3A8
3F3
3A1
015
01D
3C3
3D7
3D5
3EE
04F
3BF
2FD
32B
3DF
0E2
058
09B
013
010
33F
3CE
05C
3A6
3BE
008
024
019
000
3EA
3C5
006
3D3
3B2
3E8
010
3A0
3CF
3F4
342
326
300
355
09B
0CE
0A8
06F
3E4
359
3E1
03C
3C8
014
042
003
02E
3CA
019
002
3F6
3FF
3E0
3E7
3CA
3FC
01C
005
381
38C
28F
344
02C
0E6
0F7
0B7
001
34B
3F0
016
00A
03A
3F9
017
018
3C2
3D6
003
3C7
3AE
3AA
3E5
3F2
011
013
039
3B3
33D
2A6
3A5
122
0DC
132
097
3F9
3D7
099
029
073
3D2
00E
39F
028
002
038
37F
3BF
378
3B2
3E0
01B
012
004
3F7
394
3BF
2E9
03C
0E5
0D8
020
099
3A8
087
090
3EA
01D
3F2
060
3B0
040
018
015
025
3F5
389
367
3E8
3E3
021
024
3B8
360
3E0
332
3C1
03C
3CE
3FA
04F
3BA
033
3E7
02E
3D9
054
032
01F
024
3E5
03A
058
009
370
30C
3D6
3E4
3FE
3DA
3C0
374
3BD
39B
3D7
044
3D5
36E
3E8
3D9
3F5
3DC
3FF
02A
3FD
025
020
032
022
042
061
3D0
374
2F5
3D4
3BB
3FF
058
3FA
3D4
01F
3AB
3AF
3D9
3B7
050
3A3
3B5
023
02B
3F4
094
04B
055
054
046
04C
077
00F
371
32F
31E
388
3EE
069
08E
04B
3C0
017
061
029
06F
049
3F3
39E
331
3C6
3D3
005
085
3F5
06D
030
052
0C3
03E
3D0
32A
307
35A
04E
086
091
0A5
02E
037
096
06D
060
067
02A
3E5
04F
383
3E6
38C
049
053
04E
06B
0DF
0AB
0B1
04B
352
364
355
3C9
006
0E5
0C3
058
0A5
06C
05C
080
0AD
039
075
041
009
36E
08D
39E
077
092
063
076
0B3
09B
055
36C
2F1
3A8
355
3FC
0FE
0CA
09B
054
040
00B
089
0D1
083
3B9
0F9
091
0B1
38A
058
3CB
064
102
08D
0A4
08C
077
05B
391
330
329
361
08D
124
0BF
08A
064
09C
06C
01D
08B
089
3E4
11B
0A5
00F
355
3F6
086
0B9
09F
08C
07F
0B4
06D
3DC
34A
2F3
2BE
014
0F2
12F
053
068
06A
00D
3E2
050
04C
046
00D
04D
0DC
124
361
0C8
08B
0A9
0D1
10B
07F
07D
06F
3D6
2D1
2F0
327
021
102
078
049
066
01B
3E8
3D8
338
3B3
324
2D7
00E
0BB
0CD
39C
081
085
043
119
0CB
04C
3B9
3B4
336
290
2E6
367
087
054
3AB
04F
3CE
3E2
3F5
3A5
31E
350
308
3A8
134
0F4
02C
3E9
072
091
053
012
055
3D3
36A
300
302
3F5
399
01A
065
059
02C
3C6
00A
023
3C2
372
322
31F
3BE
3B3
0B9
0AC
3D3
019
0A4
085
3F8
069
3B8
37A
32A
371
3EE
00C
3DC
3E6
01F
073
02F
03A
0B7
092
014
0BD
3A0
016
06C
077
021
0BE
074
33B
009
014
055
095
3CC
3B2
3A2
397
385
3FB
026
3BE
074
3F1
040
06D
3FA
042
06B
02B
035
05E
0EC
05B
38F
3F1
00F
3F4
323
00C
3D3
30A
34A
391
33D
39F
375
37D
3E2
3A6
3F8
02C
043
0EB
055
08D
0AE
0CB
109
0B9
071
3B8
3D4
04F
3E7
