017
001
051
7F5
777
6D3
6F7
6E7
6CA
635
684
68E
700
7F0
0AB
059
0BF
023
096
0A4
08E
08A
0DF
128
04B
7AB
047
7BD
053
016
7D6
74B
007
785
7C5
6A6
63A
6FB
59E
582
671
0A5
035
022
055
0D9
0D1
10E
092
0D2
7AD
7E7
75F
7B6
7A9
78B
788
7D6
760
7E8
753
6D3
6A3
61E
546
5BB
5CA
68E
7E6
087
04B
022
019
7F1
7DC
05F
001
026
01F
7E0
7DA
7F7
017
794
7B4
722
6FC
783
714
6D2
63D
620
5DE
5CB
5EF
6EF
04C
0A5
06F
05F
022
7BE
7E6
066
008
7CC
006
02D
09E
03E
00D
75E
75C
6DB
6B0
689
6B8
662
65E
66B
5EE
574
6F2
775
040
053
06B
08B
066
0AD
09F
036
064
7EB
065
7BB
7E8
7DD
038
7E0
74A
700
64C
65B
6AB
676
6B1
69D
61B
70F
05F
028
057
00F
0B0
0E4
080
0B9
02C
7EC
7C1
7D8
7BE
78E
75C
713
799
779
6E4
694
70D
78E
626
6EC
68F
5A1
6E4
018
023
099
069
087
0D2
0CD
041
026
011
7F7
77F
7B7
721
747
78F
6E2
6E0
6C9
068
695
724
7D7
7C0
655
671
6A6
043
081
051
05D
0A3
0F3
08D
058
7E4
78C
799
7C7
7A8
79F
799
745
783
74A
6EC
72A
6D0
7B4
7E3
001
6E2
75F
615
096
037
075
0B4
0BB
022
093
083
7C9
737
753
7B8
7C2
7AD
7D6
7B2
7CA
7F3
76F
782
748
65C
72A
7A1
7D4
62F
60C
7DD
053
023
028
05F
083
02F
036
7DB
7AA
7CA
797
794
006
04B
038
7E8
005
069
04A
762
08D
09C
781
7EE
719
6C0
793
026
084
06D
118
08B
083
044
066
00F
790
7B4
772
051
03B
7E7
7F1
7EA
7D6
03E
0B1
0B3
0C7
70A
7A7
77E
6A7
774
016
068
075
09C
071
07B
078
064
074
7C5
77F
7C7
000
7EF
7AC
004
01D
7BA
7D0
7D9
7EB
029
064
65C
7AC
706
771
053
013
03A
032
01D
091
03A
028
09B
01F
705
7C3
7C9
7B6
7AC
7B0
757
7F1
7D5
7DF
7FF
7BE
7F0
080
6F9
00D
7B9
783
001
04A
037
006
029
050
029
7D7
06A
7CA
740
782
7AB
7D4
009
79F
778
7EB
7EB
7E5
00C
032
040
7FA
6AC
0A1
04A
052
069
05C
028
02E
036
018
7ED
007
025
7F6
79C
78C
7CD
01B
7F0
7D2
776
068
7C2
014
01A
7ED
7EE
00C
6E2
07F
0BB
088
066
016
041
01D
7FC
000
7EE
057
015
7D9
7B8
7AD
7C8
03E
7D3
000
7CF
7DE
7B8
06E
061
037
026
0F8
6C8
017
07F
046
7EB
023
7E6
7E6
7CE
7CE
7F1
066
7CC
7D8
79C
71B
756
7D9
004
7FD
7B9
7CE
03A
0E4
033
00F
00E
0F5
6B2
7EA
7EC
7CA
7F6
7F5
01E
7FA
7A0
7EB
7B1
7DA
7B9
7CC
79B
78E
7DF
7CA
018
00F
008
7A3
090
05B
05F
7FD
023
0CC
651
74D
7B8
012
035
7E5
7E3
030
79A
7B2
00D
7D7
7FA
013
02B
782
77D
7DC
789
007
7FF
06B
043
090
05B
7D0
7D8
11F
6C7
7AC
027
040
00E
041
064
007
7BC
047
007
7D1
7F6
045
004
7CB
7EF
7DF
02F
7BB
7F3
01D
03D
070
04D
009
01D
075
6B3
7B5
7B4
026
7E3
054
7D4
7E9
7D3
7A9
7E1
7C6
050
049
7FF
033
7DF
03C
7D8
007
7DB
03C
040
7F5
7C2
057
047
0B9
7A9
791
00F
7D3
7D8
77D
7D4
7FE
7A2
05C
7CE
01C
05A
044
014
7ED
7F6
7C9
018
02D
7E6
05F
072
7F8
7FD
066
7F6
068
76E
7A6
7F0
7C5
7FC
7E1
781
784
7FF
7F8
02A
054
7D6
7F7
005
008
798
01E
06D
019
00F
028
7D0
7FC
01C
7F0
039
052
74A
7E9
01E
787
7A9
7C2
7EC
018
039
00D
031
00A
052
033
7BF
79E
7A7
064
074
01D
016
08A
06B
0BE
07A
021
109
09D
706
7CC
02F
781
032
7F1
7A4
7CF
7C6
062
019
063
7DE
024
01C
010
7BE
7BD
794
013
01A
7AD
031
05C
01B
7C2
023
032
73A
73A
7CA
72A
75E
7C0
7C1
7B7
021
01E
7EB
047
054
016
021
08E
7DD
014
00A
00E
7F0
7D1
79E
078
0B3
755
7EA
017
7F3
787
7DA
775
7F4
7B8
7B2
7D5
7D2
7D5
02D
00F
045
04A
055
017
05C
7CB
7CF
00D
02C
021
7BB
79C
04A
780
7D9
7F0
02A
74D
08C
02F
038
016
058
7DE
004
038
7DC
7E8
7AF
01C
033
05D
7FB
007
04B
7DD
0AB
06B
0D1
05F
150
7A4
00C
7F1
