019
7E8
7B4
780
7C8
7F2
6D7
734
758
76D
738
791
746
7E0
7B0
749
755
71A
761
7DA
6F4
66F
6DA
77F
74D
7B9
73F
797
0FB
7F0
040
081
068
005
751
040
7A0
7CF
781
00E
7C3
7CE
7D2
77C
723
01B
76B
78F
6CC
794
033
792
7BC
002
72B
77D
00A
004
0FC
062
085
022
070
08B
07A
057
05F
083
05A
04F
7F9
7E8
7AC
7BD
7A7
01F
030
78E
029
7DC
02A
763
78B
7F5
042
7EC
0AB
028
069
003
04B
03F
0A1
056
03F
028
0AC
03B
03E
026
027
7FF
008
7ED
009
7F5
016
0A9
7AE
012
7EA
107
090
084
032
7EE
00D
01A
03B
046
040
017
026
093
098
048
057
049
059
00D
035
7F5
028
005
061
008
025
7EF
017
121
00E
7FF
037
012
792
049
06D
016
043
065
060
007
06C
7FA
02E
00F
7D3
7F6
05F
019
7DC
7C4
04F
036
02A
7AE
7BD
030
7E6
04C
083
015
084
7D9
05B
022
7FC
015
020
031
032
001
055
00E
02A
017
00F
027
02E
054
00E
047
04A
065
77D
00D
03C
0A7
01C
03C
017
055
04D
001
00D
00E
045
032
03E
07F
7E7
036
040
07F
03C
057
7F7
09B
034
7D7
7F2
01A
00E
081
778
012
020
025
036
010
075
019
025
046
040
06B
00B
7FB
025
009
7FD
02F
03A
007
050
046
029
7A8
775
031
089
065
792
00D
040
08B
05B
045
027
040
067
014
083
021
052
022
041
7D7
7C5
7FA
01B
7E1
017
7EA
778
789
791
01F
0E7
7CF
7F1
7F8
761
081
014
057
02A
05F
03E
7F3
01D
051
075
065
041
7D4
7DF
028
7FE
7D0
023
79E
7BF
756
7EC
014
03F
7BB
033
7E3
021
01E
053
7F9
013
03D
051
048
0AC
065
09C
7DB
02A
7EC
049
00C
7FC
7DD
79D
76A
7AA
040
7A2
01A
094
79F
7C8
78F
794
01D
02F
01E
05A
091
020
031
059
03C
04E
07E
080
010
02D
7C8
7B2
7F5
7F6
005
7C9
7DE
7B7
73D
773
742
09E
7D1
7AB
775
7B1
003
037
043
087
081
063
08E
07D
079
055
04B
042
046
027
7F1
7FD
03B
063
003
756
754
7CD
74F
113
7A5
759
73B
78B
784
790
7E7
7FA
083
0B5
09D
09D
064
036
02A
059
050
026
014
033
039
01A
011
7BB
73A
744
6EB
059
7FB
713
744
73F
6E4
68A
6AD
6EA
788
7A2
02F
05F
079
033
010
009
030
033
03F
010
016
7C2
7E3
02B
7A3
736
77C
7C9
038
7B9
7D9
719
71C
64F
5D6
5AC
5F9
6AF
72A
7B5
7FE
01D
7DF
01A
7FF
011
7F6
012
022
03C
040
7E0
7C9
75C
6F3
0AD
7DF
7FC
79B
7A9
799
78B
741
6AE
639
676
68B
722
787
7A2
7FE
7F8
7D6
7F0
023
04C
7F3
7B4
03C
7F9
7DE
7B2
693
054
041
7C8
7CA
013
050
007
040
7EB
77C
765
71F
709
733
7AE
796
7BA
009
7C7
04C
05B
026
7D2
022
04F
7EC
703
66F
0A1
045
0BE
01E
7F4
03C
027
055
095
01A
7F7
76F
757
763
787
79D
78F
7DD
7E7
00A
7E3
7FA
7E3
07C
031
034
74A
76B
09D
05A
00C
00C
7DD
011
012
017
01A
032
025
7BF
7C1
7E0
788
793
794
7BA
774
7B1
016
04B
04A
035
095
7FD
027
04B
0C6
069
007
01F
7B2
025
7FC
00A
001
019
005
7F1
7D2
001
76C
7A2
7CD
789
7AA
7FC
092
03A
0A0
03F
08B
7E2
02F
017
049
04B
7E1
79C
0A9
7CB
7F7
013
026
7E5
7AF
7D0
7E0
7C4
010
7AD
7D9
7E5
009
03B
09D
069
070
001
072
7E2
044
022
06F
7EE
082
7F8
7AE
046
7D6
7FD
02D
7F7
7E9
01A
024
7CF
7B8
7B5
7C8
78F
77B
7DC
00A
073
7CE
742
7C7
022
07E
005
0A3
750
05E
030
7D3
774
7BF
7E9
7F2
7BE
7E2
051
7F8
7DD
00E
7EB
76E
7E8
775
752
019
7C2
7B3
773
6D4
77F
08B
0B6
076
7FD
79F
79F
7AB
776
038
7D5
05C
7B9
01C
016
030
7E5
7BE
01C
7B2
7DD
792
7C3
7B8
7E2
77A
787
6F0
7AA
0A5
7BB
07E
7EE
789
714
776
71F
76F
7AC
78E
7C5
7D9
7DD
7C0
7E6
7D8
731
791
729
02C
776
7CC
050
7D6
7A9
035
793
09E
7E2
08C
029
7B6
7E7
791
791
79B
7FC
789
78B
714
725
784
743
744
035
6C1
708
742
6DC
772
795
7B5
038
7B7
73C
7E5
7E3
