019
3EA
053
08C
133
0C6
096
034
0DD
05A
081
00A
3E6
01A
3A3
013
055
056
39E
01F
00B
3E2
3F0
087
07C
108
107
03D
026
021
110
021
3CF
0D0
041
3CE
04E
030
088
01C
3D7
356
3B2
3F0
3C0
00C
014
02D
3EF
376
026
088
3D6
0D0
017
039
367
0AC
090
38D
059
02A
3BD
3CF
3DE
038
3AE
02F
3CB
3D3
3BB
36C
377
38B
34F
043
3AC
3B0
3F6
3F3
3E4
035
009
049
096
07E
04D
3C3
3D0
3DD
3C6
377
016
3E3
3D5
015
03B
041
387
3A6
346
363
3D9
39A
38B
3F5
381
39D
331
27B
38B
3EA
056
047
01F
355
37E
3DC
3E3
01E
038
02D
3F8
048
056
39E
3B2
3BC
3DC
3B0
038
013
3C8
360
322
310
2C1
296
281
2B6
053
3C2
3CE
3FF
05A
3D0
3FD
022
01C
017
06A
078
044
3E4
392
3DB
3DD
028
037
08B
07C
3AB
34C
345
35A
24C
27E
202
03E
037
02E
3C2
3D4
030
3ED
018
3DB
007
060
044
003
3C1
03A
037
046
047
0EB
13C
042
37D
35A
2B4
2D9
246
2DF
31F
0D4
00A
014
020
003
3BD
02A
034
3BA
079
087
067
09C
046
01E
083
0A6
096
0CA
0A0
38F
39D
39C
3CD
30D
381
31C
00B
3FE
343
3B1
06A
3F6
048
3D9
3F8
01F
03C
04C
055
017
00D
014
046
027
03D
3A9
350
30D
3E1
3A7
01B
00B
030
035
168
027
3A7
011
013
3BE
005
01C
3E6
016
039
03A
03D
038
03A
3D2
3E0
369
3A3
325
2E8
326
36B
3C9
03F
06E
0E9
1C7
118
3DD
3E4
3E8
05A
010
02A
3EB
3CF
044
017
028
014
04A
3E9
3FC
3FA
3E8
3B3
3EC
378
3C4
3A6
3C5
044
097
0FE
181
0F1
002
3D9
02E
05E
3B3
368
3F5
3C1
039
066
04F
041
074
053
01D
026
02E
06C
029
03E
3D5
3ED
3FA
004
0A6
0EB
0A2
025
3F5
3D3
032
368
02E
3C9
035
002
03F
060
065
04F
083
06C
04E
075
044
079
049
072
052
05D
0AA
05B
08D
084
05D
02F
3AB
3AC
024
3AA
39A
3D8
01D
03A
3DA
025
077
06C
076
09F
05F
05D
0B6
07A
082
091
140
0E9
079
0CF
3C9
09D
0BA
05A
04C
010
01D
3F6
3D3
3F5
031
006
3D0
3F5
028
01A
087
08F
0A4
07B
078
0B4
098
082
07D
074
010
071
3AB
3F2
3B8
3B5
3CE
3AE
04D
3D2
377
01C
00C
003
026
3CE
030
003
045
06E
04A
085
056
3D0
018
013
041
019
3D1
3E3
386
39D
3BB
078
391
3CB
3C2
3A8
38F
3E2
02F
3CD
036
3A2
3FE
3D6
078
035
03B
3FA
017
00D
3AC
3E5
3DE
3B7
398
3A0
3D0
3A5
3D5
345
012
3EA
3D4
3C6
006
3C1
3E1
038
3F0
3A1
3ED
3F7
036
05D
3F3
3D4
031
02B
3AD
37D
3BF
3C7
019
3E7
3F2
3F5
36B
325
335
3D0
004
3D4
3DB
37D
383
37E
3F8
001
3DC
3CB
02E
00D
3E0
00B
3E6
046
3ED
3D9
395
3C7
00F
3F7
3D0
3C2
37E
360
3AD
3B6
018
3EC
3F0
3B1
3AD
37C
3B1
01C
3E9
3C2
3EE
02B
3DD
3FC
3FC
03F
3F4
3E6
3A0
3BB
3CD
04C
3C1
34D
38B
014
004
3D8
3A2
3D1
3DF
3BB
3CA
3E5
3F8
3FE
3C2
3D8
003
3C3
3F2
007
3E1
049
01F
3F7
3F2
377
37D
3D6
035
31E
340
037
035
3D3
00B
3CB
3DA
00E
38C
3F5
017
3FB
3D3
3C2
3D3
022
3AE
3EF
3BC
3FD
041
01B
3A2
32C
386
3D5
3BD
3C4
01C
061
01D
367
389
342
007
3D3
006
3BF
3F4
3E7
3A0
3DF
010
3E4
3D0
012
3E2
03F
009
02D
00A
355
3BE
3C3
009
39C
035
056
03A
3C7
035
003
00B
3EE
3C1
061
3F3
3D6
04B
3CA
3F0
3E7
3F3
3C6
012
025
01F
070
025
352
3C3
052
072
3B3
062
05E
381
348
000
3A1
3D0
3C6
001
03F
000
3BD
016
3D4
3FA
3C1
3DE
3CF
386
3C1
032
054
3CB
274
2EA
3F5
3AC
3BF
383
06E
3A5
370
368
338
38A
3D1
3DD
3C6
3BD
373
3C7
3DE
021
01C
3F4
3FC
02F
3DC
3E2
02E
35C
207
2FB
354
318
3A8
084
3CC
06E
094
37A
025
047
005
3FD
3FE
00E
34F
36F
3AD
3AA
382
3BC
3CE
3CB
3E4
380
391
34C
24C
317
35C
00D
00E
052
009
062
14C
082
06E
0AC
025
3C1
3D6
03A
022
050
005
05F
02C
3FF
02E
025
057
019
055
3C9
2E1
27F
3C5
37A
3A2
3C1
003
