7F7
01C
7B6
769
720
79A
78E
7C6
044
0A9
0F0
0F5
057
0A2
172
1C7
11D
0BA
077
01F
003
7D1
781
7C8
730
06D
7C1
7CF
098
7EA
7C3
032
786
73D
749
74A
797
097
7D4
066
089
105
0DD
06E
069
115
00B
0A4
0BF
06A
0DE
0AF
07E
766
094
7D5
7D4
000
01C
775
743
715
6AB
638
64E
612
69D
6CF
763
7B7
7E6
029
7AA
05A
7F7
05F
07B
088
0BC
0A1
066
0F4
0CA
08D
05A
0F6
7E3
783
6AA
63C
641
5BA
5E5
4D6
577
605
6E2
7A6
71C
00C
767
00A
003
77C
76F
751
032
046
08D
0CD
03B
73B
109
0E1
060
7AF
766
755
6CA
652
587
5E4
634
5F8
6E4
71B
6C9
69E
681
692
768
6D4
70C
7B2
795
7C6
0C7
0D0
033
732
0FA
062
0C7
04A
7CD
757
6CD
7A4
79E
71F
6E0
64C
6B8
677
770
6D7
69D
6C5
749
6D4
6A6
6B3
742
05C
062
064
031
615
01F
075
7EE
02C
063
7F5
05E
01C
7D8
788
7BD
6F8
70B
72B
6DE
71E
758
730
6F3
6ED
6A5
718
7B6
0A0
085
061
742
5F7
7CF
06D
065
061
7F3
08E
7ED
047
7A0
012
787
7F5
77F
70E
6E5
6E5
75F
74A
6D3
6B4
6CF
7C8
7E9
0B5
064
044
6C7
655
043
048
022
7FD
7E4
059
027
003
049
039
00C
7FC
005
7DC
6E6
729
6B2
725
760
75E
768
7CF
06C
095
028
7B6
749
623
09C
05B
78F
022
7E9
7FC
0C4
018
7D4
7D3
04E
7E4
026
049
01B
76E
720
73E
77C
76D
782
047
02D
7EF
012
7B3
691
616
794
7AD
7C6
751
761
7E8
00E
016
7EF
058
00D
045
03E
7ED
7F6
7BC
798
7DB
013
774
7F3
03F
7FE
78F
7C9
757
69C
708
7DE
7D8
7C7
7A2
008
030
043
04C
06A
00A
04C
04B
03E
046
031
78F
79C
7D7
7B8
7BC
053
05F
00F
781
7B7
6F6
7B8
768
119
00F
7D5
797
05D
7D3
058
090
7F4
019
03C
009
02E
058
7D9
7E6
036
059
049
005
7EA
00B
046
75C
70E
74F
6F8
7A9
00A
043
023
76E
767
014
7EE
01E
7D2
010
7FE
7EA
7D3
011
7C1
04A
041
052
078
084
021
03B
01B
7A6
6DC
77E
035
71A
7EA
788
74D
000
778
064
02B
7F4
7FC
008
7C2
7BE
7E5
781
02D
062
065
07D
03D
7A3
7EA
7C9
010
7AB
755
79C
0D1
7DC
7FF
049
024
07C
7F3
053
7FB
7E6
061
7F7
7B5
7F9
7C9
7CE
001
02E
035
093
028
045
01F
04B
07A
103
7CF
034
0A4
05D
7F4
030
079
7F1
022
072
087
7ED
06C
025
017
026
008
07E
01B
047
063
083
025
0AC
07F
039
153
0D2
0ED
03F
04F
0B0
071
0B8
095
00D
034
05F
7F4
041
7C8
05A
03E
01C
04C
034
090
096
06E
09A
0A1
0F1
092
0D2
0A5
0B8
06B
076
039
738
035
01C
74B
067
059
7AF
7DB
054
040
053
041
046
030
00E
08C
061
070
073
0D9
0AE
0C3
08D
0AB
0CC
027
072
049
7CD
06D
007
023
067
07B
7F1
78F
7BC
019
010
7EB
7B2
003
030
065
0AE
06A
090
04E
080
057
05A
00D
020
08D
03F
7F2
01F
04C
031
04B
7A4
79B
7A8
7AE
7B0
7BF
7A6
7B7
7AD
7BC
058
06E
013
08F
0B9
06E
030
059
02B
030
017
02D
7D9
7A7
78B
7FD
7E9
0B4
038
06D
00E
7A4
785
7E0
784
786
7B9
7F8
071
086
03B
024
069
030
7E2
7D3
075
01C
00B
7DE
74D
012
706
034
01B
77D
05B
076
77F
7C0
738
7D2
774
78E
7D8
0B3
075
091
05B
01D
01D
7EE
028
7DC
7D6
7C5
794
6B9
6B9
76F
7E8
030
7EC
7C8
0A4
048
7F9
7E5
77B
739
72C
79B
078
08D
094
06D
070
07C
075
7F1
7F2
7CC
78A
76F
72E
735
7B5
7D5
758
09E
77F
035
049
085
7B5
747
78F
7A1
787
7EB
054
7E3
07B
059
08D
034
09C
002
033
023
7D7
79D
7CD
7FF
7C5
799
74A
130
007
05A
07D
7EE
030
7E1
7E8
780
742
7A5
7A9
7B8
7E3
7EE
03B
074
7EA
066
033
01A
7DA
7F7
7F6
07C
790
742
7F9
0BE
075
075
0A1
7F9
015
7FC
00B
074
7DB
7E0
78E
011
002
7E2
7AD
7E0
7F0
7E9
017
014
7E9
790
059
021
6F3
7E7
7F7
7CA
15D
0BA
0B0
03E
041
7B7
7FB
7A3
787
6E9
796
736
74A
78A
073
78D
7CB
04C
7A7
01D
0B4
0B5
004
7BF
716
029
017
