018
7E8
019
0E8
188
15D
043
070
02C
08F
78D
7FF
747
643
5ED
6C5
7E2
02E
108
142
0EB
0AC
13E
090
0C3
10B
7FC
01E
735
019
044
0BA
07C
0F2
066
77B
05A
084
6B8
5F2
5BE
542
4E2
5E2
6AF
74C
0A4
0BD
1AE
17C
186
110
021
0AE
7AF
767
054
06E
03E
7F7
03D
08D
7C3
7F9
025
7F5
68C
5A3
569
592
68A
67A
77D
065
0AB
06F
0E8
0EF
154
084
772
74C
712
758
733
769
025
033
023
7A4
04F
024
019
7E6
753
51D
461
489
6A1
036
0A6
0E0
0E9
0C0
035
047
048
727
61E
60F
66A
68B
7C3
7B0
0B6
0D6
031
040
7F8
7F3
79B
7C5
731
5CD
4F6
429
62C
0C4
12D
0B0
0E8
0B9
06B
041
7B0
6A8
647
636
5E2
659
011
026
0F9
086
7DA
7AF
007
7DA
796
7D1
721
5E5
41A
529
7B1
102
10E
0BA
056
142
07E
7A6
682
6CB
5F7
619
5F5
721
002
019
0F4
783
7BF
7F8
7BD
058
036
067
7F4
69F
4C0
5C7
086
125
0BD
0E3
119
125
070
716
6F3
6BC
62F
67B
6EC
707
10B
00A
074
7B6
762
766
7D7
7F9
075
0D3
015
6A4
5A1
636
011
0A2
0B3
0DF
0AE
0B0
7BA
685
67D
622
64C
6C4
77F
061
7D8
7F6
7C9
770
7C8
7E6
7CF
05C
01E
0D3
01C
6FA
604
6C6
071
0B1
07E
09F
046
049
6E6
649
5AC
6C0
723
77C
7B6
7AA
03C
7E4
02D
763
023
7CC
037
007
046
099
041
73B
65D
78C
077
088
04D
08E
08A
7EF
6C4
513
6CA
729
7A2
035
795
7A3
06F
0AC
065
03F
0B0
7D1
01A
082
099
0C4
7CA
731
6CB
7FF
068
050
057
057
083
798
76E
631
7DF
7D3
7FF
082
793
00D
0D6
7E1
003
7FA
062
043
7B6
02E
012
07C
02E
720
711
7C9
7E7
023
041
016
7BF
014
731
6D3
7F7
024
015
7CD
03B
6E3
0AB
02A
030
069
0C0
002
080
009
033
04C
05A
729
791
7F8
7C1
014
7F5
025
7E5
74B
6F0
719
020
06C
054
7AD
7DA
770
077
7BE
009
7DA
7BA
7E5
7E8
034
7FC
05B
028
7A7
78D
7ED
7CD
008
034
040
7BB
792
75A
7EE
067
034
7A8
786
014
7D7
0B8
7AF
7BF
006
002
7D0
05C
7D7
00C
03A
7FB
7D2
7BD
7AF
7CE
00D
7EC
7FD
7A8
767
7E1
7F9
7D1
781
7C3
7D3
793
016
0FA
0AC
7D9
027
7BC
7ED
7E8
053
06E
7D4
02A
020
05B
01E
7F3
042
02A
7EF
75B
003
7E4
7DE
772
7C4
78F
78D
789
7D3
073
094
7B2
7F1
050
013
022
7CE
048
01D
00A
03C
7F3
01D
7BD
7D2
014
7D5
7EB
7C3
7B3
7BB
7B3
7C0
010
03F
7FC
7F4
04A
021
78F
7BC
7E5
7D1
019
7C8
7C8
7DF
7EB
7DE
7D9
7F4
7B0
049
7C1
001
059
08B
028
7FD
02F
065
074
011
02E
7F3
7CA
79C
784
7B4
7E8
78F
008
7CD
7FA
034
052
001
06E
05B
035
7E4
025
072
034
056
081
07E
0CE
0AF
0B2
09A
7F8
02C
782
77B
7C9
76C
7E8
7D3
01B
02A
03A
039
7F1
050
7F1
055
7F0
04F
7DB
06E
003
060
042
0C9
033
7F8
053
7AA
7AF
012
751
7DC
75E
057
7DA
7AD
7F8
043
012
7F4
04A
7F7
7FC
018
00E
7E0
013
00F
007
001
04A
022
009
031
002
7AA
6FF
7EB
7B3
077
76D
7B9
7A2
7F4
065
074
01C
004
034
7D3
04B
074
028
7EA
7E8
79F
7C9
7E2
008
7E1
7D9
778
010
061
6F0
7DA
7BC
7D3
7D7
7FC
73C
7C5
011
028
04E
026
033
022
7F4
018
068
03A
7FA
7EA
7E2
7A8
7CA
7A2
7C4
78F
76B
7D3
01C
70F
7AB
758
722
7EC
77A
7A1
7BC
7FF
044
7ED
053
0C8
0CE
0C6
026
033
7F0
7FB
7D7
7C5
7D5
7A5
7E9
7B4
7CD
7CA
005
79C
048
7B2
6DF
003
7C5
00F
798
79F
005
7E7
7AA
034
01E
01F
04D
02E
020
035
7FB
7FE
7C4
024
01F
7B2
027
7C3
04C
7C1
070
008
7C0
004
08F
7E1
780
003
7F1
017
7E1
013
7DF
7F5
041
013
02D
05F
024
01F
02C
040
015
056
090
04D
7EA
02D
7F7
7B4
7AC
000
081
004
7D7
7B8
7E7
79B
7FE
00A
7CE
7EC
03D
7C1
030
032
7F6
0B0
7D9
073
003
77F
040
74A
001
01C
793
78E
7EE
098
09B
09B
7C2
7D8
7E2
7B7
7D3
7F7
7C8
7E7
7B8
07A
7B9
7E3
79B
7FE
7D0
738
7B8
794
06A
7F4
058
019
