FEF
002
FA6
F52
F4A
EEE
F77
EB4
DCC
DFD
EC0
F91
F74
EEC
F82
EA0
E8C
DE7
ED7
EB5
E7D
EB1
E16
E94
F6C
F36
F20
F53
F57
FFD
F19
ECA
E61
E57
ED9
EBE
E75
EA8
ECD
F23
F55
FF3
F5D
EDE
F41
F2E
F79
E61
F37
FFC
FC1
FBB
F35
FEE
F3F
F13
F4D
F38
F05
FA7
EAF
F41
F74
F6B
EA2
E6F
F22
F5A
F23
F4C
FB7
F56
F81
F4A
FB8
010
FEC
06D
013
FC0
FDE
FF6
F92
F9D
FA0
F84
F76
FF8
00D
FC3
FDE
FD6
F97
FC5
F99
F99
FA1
FD3
FB8
FF9
F9E
F63
05F
054
0C5
0CD
0D7
020
090
035
FD5
03D
FE5
FC2
FE0
011
FE9
027
001
FEE
FF9
FA4
01A
FE6
02A
037
FA4
F24
F95
FE7
FF9
018
05C
0C3
0A3
079
07D
05E
067
083
074
052
F9A
F84
060
FF6
FE3
FC4
F91
FBE
FB9
022
021
FE2
FDC
FB9
013
FE8
035
001
022
FB6
02A
03D
04C
01F
189
2C0
010
08E
FBF
FC8
036
FCD
02B
FA4
F55
FB6
008
004
F5F
F14
FFC
FEA
FC6
FB2
F9D
FAC
FA1
F71
FF9
FF9
01D
042
17D
36B
FE1
FAE
FC0
FD4
FB0
F8A
F7C
F5D
F3D
F99
F81
F7C
F55
00E
FC4
019
06B
088
01A
008
FC0
F86
FF2
FEC
012
FC2
1BC
46E
05E
FF9
000
FD2
FE2
FC9
FC0
FBB
F93
F47
F75
FB6
F58
02F
0A1
095
0C8
096
091
061
FFA
FE9
FF5
058
083
0A8
0C0
33B
024
057
FFD
FE1
F91
FDA
02A
075
FC6
FA3
F8E
FA1
035
063
04E
FF9
051
FF6
FA7
009
002
022
096
0BF
07E
105
0F8
154
FB0
083
FD7
000
053
049
070
0FD
0CE
01D
048
0B6
077
06E
016
FF7
FCE
F93
F94
010
01A
FDD
010
0A3
225
11C
FDA
FC2
041
104
02E
09D
0E9
0BD
094
0A8
0ED
0CB
140
163
081
02E
FDE
F5D
FC0
F3A
FB0
02C
015
FE3
F86
0EB
2D4
16C
028
001
01C
0DB
075
098
078
09C
054
158
10F
152
0AC
081
FF4
F9D
F33
F6F
F87
FA5
FBF
FC8
FB6
FAC
0AF
170
1F5
15B
FAA
FB9
0D9
0B8
175
10C
06B
089
074
0C6
0A2
FFB
F99
F85
FF6
F75
EB5
FAE
012
05B
FC2
022
FB5
045
0DB
1CD
1FE
FFD
F38
FBC
0D0
172
10C
0D1
02A
027
07C
016
FBC
FB5
F63
02C
027
FA0
FBA
00E
012
042
FDA
FF7
FE6
01D
0E0
115
08B
F29
F3D
08F
FF2
1B0
10C
0F2
025
016
028
09D
F70
FC7
02A
064
022
FFD
07E
07C
04B
01C
00F
F80
F8E
084
0C5
039
F47
FD4
00D
00E
051
166
0D1
08D
034
09A
019
FD8
02D
08C
040
0C6
005
063
04B
00B
F79
F9F
019
FA9
F46
136
0B4
040
F37
F9D
021
026
105
076
084
0B8
074
064
048
F8C
003
056
002
055
06B
006
060
055
014
069
01B
FC7
FDE
12B
12C
03F
FA9
00C
052
05B
11A
135
10E
074
0FF
039
FFE
016
023
005
025
02C
058
011
071
00B
01E
008
014
07A
06A
1B7
04B
005
032
048
07F
084
085
111
15F
119
0F8
001
04E
048
FA6
049
03C
FFA
029
01B
058
027
098
04D
08A
117
0EE
16C
077
0B7
104
0F8
14C
00E
09F
116
0F1
0AC
0C5
FC2
008
03B
FEC
01A
FCF
FC2
022
FCE
039
00E
0D8
0A2
0B6
11B
0F5
163
07E
161
0EF
067
123
F9F
04C
055
102
0C7
0A7
FEE
FF0
024
016
008
FB8
FB5
FC0
034
040
01E
044
0B7
099
024
0E5
0D2
165
21E
0C3
046
082
FF8
05E
F82
FF0
035
074
FE1
FEE
FFB
05E
01F
004
03E
03A
05B
022
016
06B
024
034
010
057
0B0
179
1A9
0B7
05D
F6A
017
051
003
F8B
012
FB3
03E
02F
02B
FCB
FBB
033
FFA
05B
FBD
FDE
FC4
FF9
00B
FDD
FEB
FD1
FB5
04C
063
022
FEC
F85
086
022
FF6
F4C
049
FAE
021
03E
03D
FD2
04A
FC6
00A
01F
019
FCD
F8D
FD3
FEC
FC0
F85
FA3
EBE
F6C
F67
020
FAF
F3C
FA9
081
02F
FF6
0E9
FF7
FF8
045
07B
FFB
028
FCB
053
039
01A
041
02A
053
FD2
FC1
F22
F55
F1A
F02
014
059
019
FB1
F87
078
0A9
036
01F
FA9
02A
023
032
FEC
05E
FDE
FFF
FD6
FFA
04B
01A
FA8
FF6
FD9
FB9
FF1
008
F56
08D
03A
0DA
038
FDE
0A9
F9A
03C
FBF
023
FC8
FCC
04D
FD6
09C
02D
FEC
013
FED
FD0
00A
FB3
FFA
039
FC9
F01
FD4
F9F
043
FDB
01B
F65
01E
