3FC
3F5
04A
01E
07A
39F
3DD
001
3D6
058
3EE
3E8
398
02F
038
082
094
082
000
046
092
085
0B5
0C2
034
061
3A4
3DE
0A8
00F
05F
3AC
3D7
039
08E
3CC
032
3F5
397
3C1
028
057
059
08A
344
3C9
021
3F8
3F3
000
090
054
0AC
066
02B
39B
0DE
070
3FD
38F
3E8
056
006
339
3E7
3A2
3CA
381
35C
364
35B
024
3BD
014
007
083
37D
3E8
3AF
347
3BF
320
006
0F9
3C0
03C
06A
041
079
025
010
3C7
015
3FB
387
369
399
324
328
36B
3C1
3D7
3C5
3BD
3E5
37B
38A
004
37B
300
336
058
381
0A8
01E
02E
040
3B1
3B8
3D8
3BA
3A6
3D3
01A
377
3A0
33F
3CC
38E
39E
351
389
3CA
38E
353
3CF
3E6
3BF
3C2
3EF
015
04B
373
39D
3E6
3CC
3FD
397
3B2
3DD
008
39B
3A1
380
2F8
34F
33B
38F
3E3
356
369
37A
2EB
351
37B
36E
38D
007
3E3
0A8
3F5
357
373
3A6
374
3C1
3FB
3E3
03C
37C
36B
351
3AE
327
396
012
3E5
010
379
3A6
37B
34F
3E2
374
332
325
024
060
3F8
3E7
34B
3CB
396
3B8
3C3
375
3B3
314
32E
341
32A
33B
37E
011
35E
3B8
36A
3DC
3A3
348
3F6
38E
36C
00E
055
05A
00E
3FB
004
019
3DC
3B9
02A
014
3BC
3D8
315
310
2E1
317
314
3C3
38E
3DD
3A9
3D2
3E3
3C5
01A
3F6
000
082
108
3ED
105
04D
114
09B
025
03A
059
07F
0A5
044
3EC
354
294
2DA
316
30A
37A
00E
3F9
00A
02A
08B
072
017
01C
091
02A
3F5
12D
18A
118
134
123
0FE
0CE
12A
114
0B8
03A
3E4
32E
2FB
32E
396
3CB
2CD
380
3B9
3D8
004
3E3
034
3CA
086
0CB
0B1
16C
180
1B5
149
13D
19A
0F4
13B
0FB
163
0FC
0A6
038
3B7
368
348
373
345
37D
3B9
3CB
3DB
3B4
001
074
037
0F1
077
127
09C
0F0
0E0
0DA
184
10C
0E7
10E
11A
124
12D
04F
008
038
043
3FE
00F
389
364
3D3
381
00C
3F3
006
3E6
132
029
0A9
0EC
048
00C
0AB
025
022
05E
07C
0D8
0BA
14F
0F2
08E
0A2
0F5
036
3B1
386
347
309
3C6
390
340
38D
337
399
2FA
038
047
01D
056
3C8
3EA
018
06B
064
073
0B3
0EA
05C
0B1
0A2
0B4
08B
3F7
3D0
38E
33B
395
321
32F
349
29A
36E
391
3C1
3DD
3E2
033
028
3F2
037
07F
042
06B
07F
0B9
09D
038
0A8
026
001
3B4
380
3C0
368
3B7
3CB
363
38D
3D2
38E
375
3BE
3B2
3D8
02C
3B1
393
0B8
3D3
087
066
06C
07A
015
3E5
020
05D
079
013
367
3C7
3EE
384
3E5
341
2EE
32E
3DE
373
3DC
383
363
384
3C4
3B6
00A
07F
06C
069
042
029
077
066
0BB
055
088
052
056
3ED
02B
3DC
3EC
392
3A2
3BB
08D
38D
3C1
3D5
38E
38D
348
3ED
04B
046
043
047
055
014
04E
0A6
0E6
3FF
0A1
086
05F
031
0B6
0B4
00F
3D6
37D
34C
0F0
3D5
376
38D
3C1
3A1
3EB
01E
0BB
001
01A
3CC
3E7
0AF
014
093
097
07F
040
060
08F
00B
070
02F
062
3B1
04F
3EB
3E6
007
35B
3CD
39B
3F6
388
004
01C
3DC
3C3
38D
004
093
0BC
052
089
04D
05E
3F5
052
3E2
06A
3F6
017
386
073
0BD
3F2
078
3D8
3A7
3E3
050
021
3D3
3CC
3FA
379
35A
3BB
087
3F6
3FF
087
05B
02D
02F
3A8
010
09B
3F9
02B
001
02C
08B
3DB
395
31A
37D
34C
3A7
399
3E3
392
3FC
044
002
07C
078
048
074
076
04B
02F
08D
3BB
3BF
076
3D4
389
349
025
3D6
3E5
373
319
30B
31C
00F
3E5
03F
01E
012
3F3
067
074
0F0
03B
050
083
097
0B8
0BE
059
3EC
3B6
383
362
371
395
002
046
3C1
30E
250
328
3C7
3E5
010
022
042
03A
052
3FE
115
09D
01B
0B8
0D4
069
06E
11B
045
3E7
02D
044
389
000
3F1
3E5
3D3
3A5
2B3
2F8
37A
333
015
017
047
123
0E6
0D4
016
10E
109
000
3DC
068
012
0A3
0C0
3BE
09B
099
003
007
386
01F
044
3EE
3B1
2EC
31A
340
3B4
00D
06C
090
0C0
3BC
03A
0E5
3DD
3FD
390
389
38E
017
0C2
0BF
035
089
065
04E
022
074
065
3C2
378
00F
382
3BB
3B5
377
373
393
365
35F
3DE
382
0CE
3B0
3BF
3FD
399
094
053
3E5
088
091
386
371
3E7
