7E3
7FD
089
05E
09D
0F2
068
07E
0AC
0CC
782
7C9
6F1
7DA
039
045
7EA
05E
13E
127
140
7DF
227
0D7
10C
0FE
7DE
0D2
067
010
0BE
7D2
04B
006
009
0BA
092
046
063
025
7F0
05F
075
0F9
137
1B3
1E7
1AB
102
06C
10A
13E
043
7FA
000
059
049
06B
7D8
6EC
746
731
7EC
756
75D
700
6E0
792
7E2
7FA
023
054
01C
087
092
0A4
7FF
017
0C3
7CC
7E3
772
7E4
012
018
005
7D6
7CF
743
77A
70C
771
755
725
784
786
7DF
7BC
7E0
7DE
7FE
032
068
7FD
7E8
7C3
7FB
7C8
7E8
757
750
020
7FF
7F6
78C
7AC
7EC
75E
794
786
752
7B1
067
021
7A5
7EC
7FB
7D4
7F4
7E0
7D1
030
7BB
759
045
7D8
00E
032
7A6
015
029
061
002
72B
7B7
71F
7A2
7A4
765
019
037
7D0
7F8
7A9
7E0
7B3
7AE
7AB
012
7DC
008
7F5
7C1
009
03E
7EF
7BE
7E8
7A1
001
01B
7D1
759
012
7E3
7B7
7B1
025
029
7A2
7BC
7BE
01D
00B
7F1
77E
016
04D
04E
029
01C
7AF
00D
037
04C
767
005
7D3
7EE
723
76F
011
02A
020
7CA
03C
77D
7E2
00D
7D7
7DB
788
00A
7E2
01B
01C
02C
000
004
7ED
002
092
77F
00B
7B4
7F8
7DD
78A
79E
008
7EF
7FD
7AC
774
7EA
754
73C
784
766
7C3
79D
7D6
7EC
033
7D6
023
018
056
017
78D
7DA
00D
7C6
7EE
042
785
771
7A0
029
7CE
774
7F5
017
797
6FC
767
792
7E0
7D8
7C8
7E6
023
038
014
7BB
024
015
797
6F9
766
7CC
7B9
09C
7CA
793
04E
043
059
005
09A
00E
05D
7EC
7E3
7A4
7B9
7EC
7E7
06E
7C5
05E
062
7FF
7DE
004
7D2
764
75C
035
046
0CA
0A6
0B0
04C
099
07B
072
071
05A
04E
038
7EF
77D
79D
7D8
7C8
783
7A4
050
001
7CA
7D4
7EE
7D1
019
772
07A
0CD
096
0DD
063
100
09B
083
0A2
0D8
0F9
139
0EE
078
028
7F0
012
7BE
7DD
7A4
028
03F
7AB
7F8
771
7CE
71C
7B2
089
10A
08F
0CF
14A
071
0D0
0C6
023
7CD
031
0E5
106
102
098
028
027
038
7A6
7A5
0A3
03C
7D0
00D
7C0
07B
7DD
7FC
0AD
06D
13E
129
0B5
173
055
0C4
05D
7CD
7F9
077
0A0
0D5
0A0
03B
004
044
7DE
79F
096
018
74D
00A
011
01C
04A
1CF
0BE
1CE
0E5
2B9
27F
0E7
037
082
07C
04C
025
006
001
7CE
0A3
08E
03D
055
79C
7C8
7FF
7FD
7E2
024
039
00D
128
045
1B9
1E4
275
3B0
255
05A
07B
05B
0C4
059
012
7F7
010
7D8
7EF
02D
098
017
00F
0B6
00D
014
029
186
18F
276
107
7D5
1C7
19C
1B2
2DB
0BF
70B
7E9
00E
0A2
084
7EC
00A
7E8
7CE
00C
052
0BC
0DB
149
0F0
0D1
110
131
262
21E
29F
249
04A
175
1D1
26E
08C
7C7
73E
70D
7ED
023
7A4
033
7C5
7B5
02A
7EB
023
031
15C
208
13B
162
1F5
2E6
2BD
31C
15F
11B
07D
071
16C
158
01A
7D9
79E
719
7AB
797
7F7
027
00F
79D
009
02F
7E4
013
0D1
13B
14E
172
179
0E9
135
14E
1A3
0F3
07C
0BC
0F4
09F
76B
7BF
7D4
7B0
7D6
783
7D2
02F
070
03A
7CC
7EB
7E1
001
030
020
032
03A
081
007
7BD
780
0EA
052
78B
11B
0CB
023
7FD
7D2
055
015
7A8
7CF
006
01D
031
00B
7D2
7FC
00A
7BA
7A3
7BF
03A
7E8
7E6
7B1
78D
79D
079
083
032
0AF
07A
7B7
7C3
7D2
049
050
002
029
00D
7FA
01C
7B5
7F4
036
7D5
00B
7C6
703
786
766
7B4
7E6
78B
6C0
019
017
7E6
0B6
059
7F3
033
7C5
033
038
03B
033
7C6
79C
753
7E1
7C7
7F9
04E
021
038
78B
7B8
000
00C
7F8
7CF
7CD
035
7EF
027
00B
05E
781
03B
7F2
7C8
04C
7B5
7D0
7AC
7C3
7EA
7DF
044
7C0
7FB
79D
7B0
761
71A
758
74A
7F2
746
7AE
043
073
7EA
7D1
7CA
788
79F
00E
7B8
7F7
009
022
011
084
0BE
058
08F
04B
7FF
7F5
7AA
7D5
77B
762
798
03F
728
76E
734
73B
79A
068
003
76A
748
767
7C0
7FF
7DA
022
7CF
096
027
025
003
7DF
01C
7B0
7DA
039
7D2
7A6
061
748
75A
766
036
760
012
06F
0B4
05F
7AF
77C
00E
0B6
01A
03C
082
7E7
7C7
02A
7FE
00F
04A
05A
067
00D
7D4
005
050
722
7E4
7FD
789
770
023
