00C
014
7EF
78E
739
70A
015
725
6D8
5BA
63C
633
5E2
6B6
6FE
6A1
643
63D
61B
677
654
6B8
66E
75E
6F9
70F
77C
78B
794
7EF
795
713
652
7C3
7AD
7E0
781
7BC
70A
6EF
796
02B
7F5
786
739
7E1
7BE
78F
7A6
7EA
739
708
036
67C
788
774
7C1
022
6C4
737
767
003
7DC
7D2
7E2
775
776
7BE
7C3
7AF
7E0
791
7FD
037
7DF
085
791
79A
7E8
026
7C5
760
001
071
7EB
779
798
7CC
009
7A4
7E8
081
7DE
76B
004
01F
7DE
7C0
768
7A9
775
005
7AC
7F3
023
788
7D6
753
779
7A1
783
7DA
036
7D9
7C7
7E4
7CB
03F
7F2
054
020
03C
01A
7E9
047
7FE
022
7E0
02F
04D
7FB
785
00F
002
044
7C9
7F1
782
7A6
02B
071
0A0
7D2
7EF
7AC
01E
054
021
029
05A
069
7ED
00C
029
061
034
043
011
084
7EE
023
7EB
01B
7E2
7A3
016
7C5
078
04E
7F4
05A
7DA
7DD
01F
7F8
039
042
049
017
7F6
03C
04E
006
064
01C
034
044
040
054
02E
02B
7F0
7DA
7D4
037
109
055
010
043
066
7D4
01F
7DB
005
003
7E8
7EB
016
002
070
7C9
7EC
003
02C
7B7
7F9
76E
7E1
7DA
7C5
7DB
78D
01F
057
01D
7EB
7E3
012
7E0
019
02A
056
06E
027
013
02E
7E2
030
7DD
03D
7E8
063
02D
083
04B
7C9
79A
7C4
033
003
022
06A
7F8
7FF
7BA
7BD
029
7C2
7F3
032
00C
7DE
7E6
7DC
02A
03F
032
001
057
031
0D0
098
0D0
7E7
75C
7EF
00C
01D
7EA
090
7D5
007
003
7E7
7F1
7F0
03A
058
0C5
050
7A4
7CA
036
015
052
053
05D
05F
09F
0C1
096
00D
7A6
774
798
074
0A7
118
7B9
05F
00E
7B9
7D0
050
088
077
054
7F1
7DB
77D
7FB
7CC
7F4
7DE
054
07C
13E
189
183
07D
7B0
7BF
7D4
7CB
78F
07D
7DA
7C2
7C4
02C
06A
014
035
076
007
027
036
7C1
7E5
047
7F8
01C
7FF
001
17C
1AA
1A4
0BF
088
7C2
73A
73A
7CF
7A1
03F
7A9
792
7EE
02F
03A
07D
021
038
077
027
003
010
03B
000
7DE
7E6
7EA
0D8
122
147
15D
097
123
791
701
77B
7A2
7CF
79C
7FC
783
070
08E
097
06E
052
7C8
075
012
7D5
794
00D
78D
75E
05F
04C
0AF
135
073
0E1
051
01D
703
6A6
6A9
7E6
7E7
77C
7EE
016
0C8
05D
04E
01A
02F
026
7C7
7FF
022
7E0
038
7D7
074
08F
100
094
04A
044
787
019
7D3
72F
6D5
7A6
005
008
7E8
7B5
7C3
040
7F5
7F5
012
7FD
7DA
746
7DE
7A8
7DD
028
092
0F1
090
03E
064
73C
033
030
022
781
6B3
72D
770
7C8
7C1
78B
006
7ED
7FE
036
7FE
7AF
7A0
7AC
03C
0D1
064
082
072
0A6
042
758
791
75D
7EF
7BA
7C8
74C
5EF
789
700
7E1
75F
7A7
7E6
002
020
03A
00F
05A
05D
096
00F
05A
03A
07F
032
770
78E
79F
7C1
7CD
7CD
738
759
718
5D4
6E6
67F
7A6
7DB
7EC
780
7C5
7F7
021
7D7
7F1
02D
037
051
05F
059
7F3
7B0
7E9
7C6
7CC
780
02B
01A
795
733
69B
675
66A
6C9
7AC
784
7A2
79C
776
7AC
7C2
7B9
011
7C4
7EC
01A
7FD
7EB
00F
036
7A7
7AB
003
7F9
7EB
7A1
77E
717
757
77B
5CB
696
73B
021
765
7AB
7DB
7EA
7C8
03C
011
048
022
010
038
7D2
7E2
7C8
7E6
016
763
77D
7AA
02A
711
773
79A
003
5ED
6E3
78F
7F6
7D5
040
7CF
01B
019
018
032
7F5
7DF
7D1
7E2
7A1
7D8
7B5
7D8
01E
7B2
775
784
7E1
7F8
780
000
695
646
678
7E2
71D
7BC
7D2
796
028
00B
01F
06A
7F1
7F1
006
7B6
781
00F
79E
7CF
00A
00A
796
783
7B0
791
02C
72E
745
6C9
639
764
749
745
770
783
7A0
7BE
003
796
7DE
7E4
7B8
00B
7FE
7BA
7CB
7D3
04F
04F
796
75E
75E
718
769
6AD
79A
74F
674
73E
68D
710
738
75F
72A
783
773
6F4
7C9
00A
785
7F6
014
7C9
746
002
7EC
09D
7B9
796
6FA
03A
7CD
004
779
7D3
76C
746
681
727
727
7E7
730
791
7E2
01A
7BF
028
7EA
7F4
759
7ED
716
78A
006
04D
7A8
72F
7F1
720
7BB
762
01A
7B9
060
7E8
779
774
79B
7D6
00F
770
6AB
6B3
7C7
7BC
788
790
070
7E0
03D
082
065
030
7B2
763
035
79A
769
7AD
7EE
