018
016
053
0C5
100
157
1DA
1E9
1FB
192
09C
1AC
190
1A4
140
0C3
044
133
14A
1E6
15D
2C3
20F
1E7
18C
09B
103
103
FC5
001
0AA
12C
115
140
14D
20F
1CF
041
100
217
2A4
1A5
0CE
03E
025
09D
061
042
109
0FD
1F2
1FB
154
0ED
FFE
146
097
FEA
035
05F
FD0
055
096
0AD
02A
FED
02A
012
047
FF0
F94
F6E
F91
FF1
077
042
076
021
0DC
0B7
026
FED
FD7
016
F94
03C
FC0
FF6
F7D
FF6
011
041
FAD
FB8
FD4
065
036
FC2
026
FD2
02C
02C
06C
032
021
091
05F
0AF
029
065
0F8
004
F62
FF9
036
029
007
FAF
FC0
004
FEE
F95
046
046
01A
034
063
067
047
FEE
F9A
FC3
007
042
050
082
0C9
098
0BA
0C9
022
FD4
025
013
FF8
FA6
FD3
F76
01E
FE9
014
FEE
027
015
FD3
FDC
FA9
FC9
FB5
FA3
F6A
F6F
04E
0AA
080
03E
045
0DF
FDD
FFA
031
FCC
01C
007
FFE
FEA
03D
03D
05F
025
012
FF7
002
014
00D
026
053
FF0
FCA
FCB
FB3
017
012
00D
FAF
FE3
FF9
044
FDC
FEB
FE3
FC4
FDE
030
FD9
004
FF2
FC0
FE7
008
FC7
FD6
004
05A
04A
00D
011
FFC
F13
FAC
FE4
FBA
F03
E95
018
03D
FB8
F72
FEC
047
FDF
034
FF1
FFE
01A
F95
FE7
026
FBD
FC0
FA3
FCB
FF8
032
05D
FBC
F31
F12
F92
FC9
FBB
EA1
FDB
00E
013
FF6
060
01D
057
03F
FE6
FE2
F84
037
FE5
018
FDE
F65
FC4
FA3
F78
FFB
FD2
F81
F8A
F06
F5E
F95
F2E
F30
FAF
F94
014
FE7
019
FE4
00A
FFA
FC9
FC6
FDC
02B
FD6
FD6
FE5
FFB
FA2
F5C
FD6
F4A
FA2
018
083
FB1
F96
FC1
F7E
039
F82
01C
FF5
032
FCF
028
02F
03D
033
02B
01F
FFB
FF4
FDF
00D
FC9
FF5
FA8
FAD
F96
004
088
051
06E
036
F86
044
07D
FDE
FD6
04A
015
026
FE6
040
02E
FAA
FBC
035
026
FEC
00F
00E
064
045
009
001
00A
047
027
029
FCB
011
F9E
F74
07D
F5D
FB0
003
FCE
FEF
003
FA4
001
FE6
05D
FF6
003
FBE
FC8
021
038
FD1
053
FCD
FC8
F95
076
020
FF6
054
02D
FD3
03A
FB8
FF8
FE5
FD1
00B
FF6
018
FBF
FC5
014
042
FE9
00E
F9D
032
043
FE2
FEF
FEA
FC6
FAF
FDE
02D
043
FB6
030
F77
02F
06D
002
F88
FF9
FDB
FDB
FF7
FD0
08D
FE2
FFD
011
00C
FF4
01A
008
FCF
FF3
012
024
FE9
054
021
05D
084
007
009
09A
120
08A
031
FEC
FA4
FB5
FDF
FDC
063
035
FFD
FFF
FDD
F9C
012
F8C
00A
03F
058
013
00A
05B
067
FDF
04D
07D
0ED
018
18F
09B
0A1
071
FCC
FD4
FCB
FE9
FD6
FA9
FE5
FD1
F9D
FCD
FD2
FFB
07B
048
120
0E9
080
066
03C
045
063
123
1A6
177
1BA
0FD
11D
076
FF3
F9E
FB1
F75
F6E
FE0
029
006
FFD
FA3
F93
049
06E
05B
098
128
0A6
05C
050
027
0E7
0E4
17D
0B6
1DA
0BF
01F
085
08E
FE3
011
FCA
048
005
01A
045
FDB
026
045
038
08D
04C
027
069
0C1
0A2
FEE
024
0C6
0A8
0B5
F79
177
0BF
01E
080
05E
10A
0E9
0C4
074
05F
07E
073
064
075
062
FD8
0B0
04B
04D
02B
024
054
FCF
004
00A
FFA
09E
EF6
278
086
07E
05F
04E
09A
114
080
01B
04E
043
0B2
099
094
06D
044
FAB
034
FF6
FE9
F9D
FA7
03C
05A
01F
F73
F4D
EEE
14F
01A
06C
079
042
032
033
083
06D
040
03E
010
02E
065
0D5
FED
02F
013
FBD
FA1
F59
005
FDB
FC1
F82
F97
EAC
07A
07E
063
071
061
030
FF8
FF2
055
FCC
06E
00C
FF8
022
028
FBF
052
03E
02D
018
02B
001
F86
F7E
FDC
F6B
F3F
FC4
0E4
04E
FCB
003
060
070
025
03B
FEE
02A
05B
0C2
0B0
098
0B8
0DA
0AB
008
014
F85
F6C
F0E
EEC
F82
F5C
F37
F97
FF3
08F
FE6
020
FCF
001
02B
05B
05E
09E
088
096
0AC
0A0
06C
050
02A
F5F
F16
EF0
E8C
EDC
DE3
E75
DCE
E8F
F17
FB6
00C
021
FF1
FB6
F59
F57
EC4
F24
ED2
F94
F5D
F19
EEA
ED4
EB5
DA7
D64
D4B
D7A
DC1
DD6
DE4
E12
EA1
E16
F2B
F87
01C
059
FE5
040
F7C
F22
E3A
DFA
C8F
C8B
C87
BBC
B5F
B49
C25
B9C
BCF
C02
03A
D07
DCD
DA3
DFA
E4D
E7C
EC0
ECE
F66
065
02C
FEA
