01B
023
7CC
007
013
0CB
0D7
0B2
099
0D0
0C6
7E3
065
0E0
0F9
7FA
012
7AB
780
71E
7E5
00B
6F6
71A
6FB
7D1
74E
7B6
78B
01A
79C
0C9
103
0EF
074
1EA
178
124
120
13D
0AF
142
157
016
06F
7D9
7A2
7AF
763
7EB
79F
016
01C
7A9
785
6E0
77C
0A7
0AC
182
1BD
1F7
1D5
246
1CD
134
0CF
0E4
0DF
093
045
064
06A
7DF
7D6
061
7CE
707
013
765
798
7C9
704
690
0EB
104
1E5
047
1BB
23A
231
18F
161
0C8
07E
05F
069
07D
7F1
043
005
7E1
006
7BF
04A
7A5
061
78B
00E
7D3
716
6DB
0D7
1AE
1C3
1ED
1F1
205
156
0EA
093
01B
024
036
7DD
7F0
016
7E4
7C6
000
7C3
010
01F
035
043
042
001
044
7C2
6F0
0E3
1EB
1ED
138
11E
0E8
03E
08A
7FD
008
007
7F4
7EE
7D7
7A0
7BD
7CB
7CB
785
7EB
7F3
055
004
018
00C
042
7A1
624
15F
203
09C
10C
0AF
069
084
038
7CB
77C
7B9
7BE
7B6
7B8
7AC
7C8
780
78E
791
79B
7B3
769
7DE
7FF
79E
071
746
573
76C
1B3
095
117
05A
039
0A7
025
7FC
010
7EC
016
00A
030
760
7CC
7C8
771
76C
79D
7DC
7CC
01A
75D
7CB
084
7AA
536
141
15C
105
120
0AF
7D9
078
7C8
784
010
7C2
005
7BB
01D
031
003
7BF
7C2
761
773
7D7
04A
79D
7B7
061
101
7FA
502
0C0
040
0C3
09C
123
003
03A
7F1
796
7D7
7EE
7D4
7BB
028
010
0A2
069
0E4
100
13F
109
1A4
18B
13F
12A
213
0FC
68D
026
056
119
1AE
01C
7F2
7A0
036
7F5
7E7
02E
022
047
0C4
119
168
184
1E9
0EF
2FC
3A2
300
32D
351
297
2AC
20B
79E
055
00B
084
12F
05B
7CB
7A5
02E
019
01E
06D
7C1
089
06E
066
0B9
0CA
15A
1DA
1CF
1F7
10E
104
0C5
093
09A
0C0
04D
06C
7F9
084
074
05C
7D2
053
019
7D9
02B
7F4
01F
052
03C
052
035
01C
045
026
054
7FB
77E
7BF
794
014
074
104
08D
093
086
07F
00A
03E
000
028
7F1
00D
057
013
068
071
04A
7EA
7A0
75A
00B
7C1
7E8
7CC
7B9
7D2
7CE
791
00C
059
021
0AE
058
026
008
02D
02D
026
03E
01E
02E
00C
034
01F
021
7F7
7C4
766
7EC
7B8
023
743
7B6
7E3
034
7CC
006
04B
166
190
7F0
06A
02B
7FF
04B
042
02E
03A
02E
055
025
07C
041
02A
7CF
7BC
040
793
7A8
7AD
005
01D
03B
7CB
76D
7FA
0BA
0C2
7B5
7DB
7F9
049
7E3
002
014
007
037
056
04D
01E
093
025
7D2
7D5
00B
019
7F9
7F0
021
051
014
7FE
7D3
79E
0E5
178
048
01E
019
021
7E0
038
7FA
7E9
00E
073
01D
06A
01D
02F
7C9
009
00F
022
7D8
7F4
7D9
016
032
7FB
7E3
04D
0CE
153
02A
020
00F
024
036
00B
008
024
7F7
018
049
7F6
064
03D
00B
7B2
7E8
7D9
7F3
7F6
7D6
7CF
018
052
7B3
099
0EB
034
080
03A
069
016
012
050
7F1
7E3
7EF
026
085
031
0A0
7FC
7E0
7F3
7F6
7D6
034
7FD
03E
7F1
035
7FB
089
08D
179
783
7FA
035
034
03B
00D
7FF
7CC
7F3
033
7D3
7FD
7E8
7FA
7FE
033
013
000
000
017
01E
009
7F3
002
06A
06F
0F3
0C2
006
7EA
00F
02A
039
009
035
7E4
7D4
019
000
01C
043
03D
7B3
7FF
7A0
7B1
7D9
7CC
7F6
001
02B
04B
001
020
039
02E
000
024
085
7F4
043
7B3
044
047
019
000
053
00D
02D
002
021
7ED
784
7BA
7DF
03E
008
7E2
002
008
068
0DF
00D
7B3
79A
766
782
773
010
00D
7E7
039
005
032
018
023
081
02D
7FF
7A7
7C7
00C
7F3
02F
04F
01C
020
068
03D
02B
7C6
793
7AD
750
7FD
7AC
02E
07D
7A0
79F
081
021
7E9
072
78C
03F
7BA
799
78C
793
7E5
7B2
7F5
7EB
06B
061
089
075
771
7C5
7FB
7E6
78E
7A3
760
7B8
7A4
006
051
033
000
05C
7D6
7BF
039
017
799
7AE
01C
7D9
04A
7FD
167
0B6
1F9
7C1
75E
02D
784
7E2
029
7FC
795
799
751
7E8
052
02C
7F6
043
02B
7F1
082
7D4
7C6
753
7F3
149
160
0AA
090
211
164
013
77F
021
00F
7F3
78D
002
7C0
71B
77A
7C3
70E
7D0
015
017
123
0D5
0C7
04F
222
191
1D3
1E8
24B
194
109
1BD
0A9
072
04F
7DE
