009
017
7D6
06F
0E5
0CC
0B3
051
0CA
197
19D
1BB
1CF
0EC
0C8
0FB
033
080
7E7
03C
026
08C
07E
7A4
7FE
7E0
045
050
047
7DE
773
117
0CC
0D5
09B
1B6
132
0E3
12A
156
1FE
236
173
0A1
114
107
07A
09A
085
067
7F0
0C2
026
05B
7CF
7EA
102
7A2
773
7DB
7C3
794
7D3
796
7BA
0A4
098
003
018
0E2
0F3
0F7
0F4
085
0E9
049
059
7EF
04C
062
026
109
05E
026
05C
7DE
7D9
009
769
743
783
7AB
7ED
028
7BA
78A
77D
7A5
024
03D
0C7
054
081
03E
054
02D
073
7F5
00B
77F
058
7D3
7AA
018
031
057
791
723
791
751
7C9
7FD
7CF
7FC
7BB
7D0
091
09C
0C4
0BC
0E5
0BF
062
074
069
050
049
000
7E8
090
7E7
04C
7EC
02B
771
750
7FA
76E
7DF
776
79D
7C7
024
002
7FE
03B
005
0A7
06D
073
07C
05B
00A
013
08D
02D
041
036
06D
7C2
7D9
026
058
7A2
7E0
7AC
7BE
7F2
793
013
051
7BF
01F
02F
087
059
00E
043
081
046
033
068
08C
051
0CD
014
7A7
7DC
793
047
06B
7FF
7EC
002
02C
029
7D7
010
7F3
01A
7E1
06E
0B6
0B1
0FB
0EB
068
0D8
0EB
05D
02C
08B
066
7D8
7F1
7FE
013
7E3
79B
7CE
087
0B4
029
7D7
02E
7DE
7AD
770
7D8
02B
096
1A9
13A
12B
12E
106
119
099
076
0EF
04F
76D
7A4
7AB
7B5
749
70E
7AE
027
023
003
7B6
04E
79B
74B
738
740
7A6
0DE
17B
111
0BA
115
14A
0D0
161
13B
0CE
0D3
063
037
73F
711
66E
6CA
6EC
756
705
773
721
731
77A
70B
6C1
606
74A
01A
0B3
06E
085
05A
0B5
0BB
0C8
112
11F
105
014
77C
71F
67D
656
632
668
6F4
6C9
73C
739
6ED
6D2
6DB
688
634
6F9
7BE
7E7
029
04C
026
049
09E
0A2
0C1
0C7
094
7C8
795
705
6AA
038
054
6BF
7EE
719
758
6FD
757
76E
763
728
697
75A
7CD
7F0
040
00D
7FF
7E3
7B3
7F4
01E
02D
7D9
038
03D
782
6F6
7B6
738
719
761
7B6
7AE
7CF
002
015
7E6
7D8
743
7A4
7C2
013
7C8
7B5
033
7C7
76F
008
7DC
7F8
7EE
750
09F
78F
082
7CC
014
022
056
7FD
023
000
021
7EA
7FA
7A9
7B9
7A3
00E
7F4
7C6
7E7
01B
7CB
7CD
79E
789
7FF
7E4
76E
010
080
7EE
7FF
00C
7C1
06B
7AC
7FB
7E9
038
02B
007
734
78B
014
7DE
7D4
7F2
01B
7D6
7BD
7FC
79D
040
786
047
043
0C6
0DD
04D
018
7AC
7DC
7F2
007
007
7DC
7AD
7DC
778
794
7A7
7FF
7BC
7A2
02F
7E5
023
00F
7DF
7D7
7C0
7DE
7C5
0FF
04E
09F
031
7BB
7D3
01A
7FA
01D
7B7
00C
03C
046
7F4
772
7BC
7D7
7FD
7EB
7E8
7E6
7F9
001
052
06F
003
7EA
064
0CC
0B0
00A
7A6
014
7D8
024
000
031
7FF
026
013
018
7DC
7C4
790
7BB
7E0
00C
01B
79C
7E6
00B
7E9
7F3
7A2
00F
081
069
1BD
776
747
7C3
02D
05E
029
02B
7FF
7F0
046
002
7E1
00D
7BA
025
7D0
7E2
00A
7A4
7B8
7A6
7F1
00B
02C
7AE
002
079
129
011
7CF
79A
00A
7A9
005
7F7
007
7FE
035
7F0
7FA
7E4
7F6
01F
009
7E3
7C5
7B9
7DC
7E2
7B6
7E5
7CD
027
016
7B6
158
053
0AB
03C
7F6
772
7C5
001
7A4
7AD
01F
003
014
029
7E7
00B
7EF
7D9
7F0
7A6
00F
7D9
051
00A
772
05E
002
028
120
21F
09B
7E3
7CE
043
7A9
7EC
7E7
7F1
7AD
7BC
020
7FE
003
026
7FB
7C5
7DB
7D5
01F
7DE
7B7
748
7DF
065
7C1
7A1
074
11B
0C6
055
005
7ED
7E9
7A5
7DD
7C4
7CF
7AE
059
02E
7E9
050
03C
7CD
029
027
081
04C
00D
797
7EB
037
070
7D3
0DA
063
046
09E
026
7EF
788
017
05E
7FD
7C5
784
7B3
7AB
01F
7F8
040
07F
05A
0A2
047
7D0
07F
006
7E9
02D
77A
7EC
00E
7DA
0EC
0F3
0C8
7E0
770
7D4
75A
7E8
764
77F
77E
7B9
7E9
76C
7B1
7EE
7FB
7EB
7AA
7A0
07B
7F9
0DC
018
096
081
797
748
7AF
048
058
018
094
04E
74A
778
719
795
74C
761
03D
7EF
77B
758
761
78C
731
6C7
7BE
77C
045
0A7
007
01C
7EE
070
087
044
786
7F6
0B3
7F8
080
7F6
051
01E
048
05B
071
01A
746
7EB
75C
70F
691
725
771
7E1
7A4
7F1
077
7E2
