7EA
015
02D
0C1
145
0DF
028
086
1B9
0CA
0D1
0AE
013
12D
19E
1A3
101
143
1E3
25F
1FD
0C1
0D2
059
145
096
0EB
0D1
02F
00E
150
0D1
157
0DC
112
136
101
0DD
176
149
146
231
1C9
27B
260
14E
11F
129
168
0E3
080
03A
05B
09E
07F
0A7
7EB
032
044
045
0E1
0CA
050
01D
052
080
0F4
118
0F6
125
0DA
076
092
094
08A
021
0B4
09E
02F
7C6
08D
05E
7E8
7E5
7CA
04D
07E
054
0E9
0EF
184
15C
106
09C
083
0A3
0A3
05A
017
7A6
056
071
03A
039
0A0
074
06C
7F0
7E2
7DA
7CF
66B
78F
090
04C
023
078
03B
066
0AC
008
06E
033
009
7EE
7DC
044
05C
00A
06B
005
7C3
02F
7B9
7E9
7E1
797
7C2
02B
7B6
011
05F
7FA
066
051
086
08F
059
048
009
01A
01A
7D9
07C
015
041
020
017
003
01A
7EC
7D7
022
7F0
7B8
7F0
02A
7D4
053
02D
04B
005
0F0
7F0
05E
008
018
055
004
7ED
017
03B
032
038
07E
00A
7D8
7DB
7CE
04A
043
03F
032
004
7C6
794
01B
095
00F
003
045
010
039
7FB
033
018
035
01A
041
06C
040
051
08F
096
040
028
023
7EB
07C
023
095
088
7D3
030
090
05E
7B9
7F2
02A
019
7EC
063
01D
7FA
7F6
047
005
049
043
05B
7FB
031
089
02C
7D8
7EC
031
7C0
7E3
7C4
00C
053
7B1
7C2
78D
7D2
040
029
7F5
019
7BC
7B0
7B7
7CB
7AB
7CF
7BE
7F5
7E2
79A
7B7
036
031
00C
7DC
7F4
7AD
00C
78E
01A
775
03E
7C0
06A
7E7
016
019
7E1
7A5
7C6
792
76C
7AB
7F9
7F0
028
7BF
7EC
7DF
008
7E9
7B0
7AD
784
7A2
740
7AB
05C
057
037
032
015
017
790
7CF
799
7E1
787
78D
7BE
7B6
7D5
7DC
000
7FC
7D4
7FB
014
7FE
013
7CA
7A0
7B1
78B
7EB
149
096
073
7D7
02D
00E
784
7DF
794
79C
7D2
7CF
7E8
04A
7B4
7C9
027
7E2
7FF
78B
7DD
7A5
7C3
7E0
789
7C4
7CF
069
041
7FB
7B6
774
740
749
724
75A
7B7
024
7EE
7DC
02B
7D3
7EF
01B
05E
7B1
03E
7AD
7D8
033
05A
7A2
77C
7D3
052
068
7B5
6FF
716
71F
764
781
724
7BD
7EA
076
7F7
7E5
03C
7FA
7D7
7FD
038
00E
029
7F4
04F
01B
7FA
022
026
07F
07B
087
108
75C
79C
765
700
791
7C0
000
059
7DB
027
04D
041
044
7B8
773
003
037
075
076
05A
105
0D8
0AE
14D
0FB
12E
13E
173
002
733
032
75F
7C0
007
014
035
01D
011
020
055
058
774
798
7B0
037
07E
02E
07B
07D
0A1
13F
195
139
17A
139
0BB
7BB
797
75F
742
7D8
7D8
085
038
05D
7B6
01C
7FD
7F3
7B9
016
04F
042
0AA
0B5
7D2
070
0E4
1B2
0C3
0AB
04E
7AA
74C
057
054
076
78A
7D6
7C7
034
022
051
7F4
002
029
7F5
7BA
03C
7CA
7DB
7DC
01B
7C1
7FB
09D
04E
091
110
01A
70B
5B5
047
05A
78C
7C5
7D7
7F3
045
05C
032
7DC
7B9
001
7FF
7EA
7EB
7BD
7B6
795
7C6
7E0
7EA
01A
797
04B
071
751
625
598
7F7
0DB
7AA
03E
7F2
014
01D
008
025
027
7A7
7FB
7EB
7FB
7F0
787
7B3
760
7C7
7E3
727
7C8
004
79B
716
6C7
632
622
065
00B
7CD
7CD
7FC
034
041
03D
075
053
03F
038
024
004
008
7FD
7EC
011
7FD
7C0
75D
7AE
75B
680
68D
666
64D
68D
7E3
7CD
009
7E4
011
7F2
7B6
007
035
0C1
0AA
018
044
042
050
02E
03F
016
7F8
7AA
736
71F
647
64E
6F7
6CC
713
7A0
05D
7D4
78D
77F
028
7D3
027
067
03C
00E
7F9
7F3
053
06B
030
045
07E
04E
047
7AB
723
744
720
706
78C
793
715
037
029
7ED
056
03B
088
026
7F1
064
06D
068
034
043
007
035
05D
092
0F3
07B
7BE
79F
6DD
6DA
78E
7CA
6F3
7AC
7F1
7B7
79D
7EB
016
7E6
04B
7DE
7A9
76A
78E
00C
7FF
768
040
0CB
0E6
088
7E3
7B3
6F2
62E
691
6EF
7EE
747
6E8
793
76D
7DC
0A3
7D3
03F
7C6
04B
018
7E2
7C1
7F6
046
03A
097
0B2
080
7C9
5C4
61C
609
594
6A0
6D3
6FC
754
795
775
7AB
08E
022
0BF
03F
6B9
777
035
7B1
00E
7EE
081
7C2
7BF
787
6D2
61A
526
7FD
5AB
5DF
627
62E
656
6A7
7E1
7C7
718
052
7B8
7F3
