7E7
7DD
7C6
04D
7C8
789
068
08A
062
026
7B1
7DF
047
026
7BD
74A
78E
7FD
114
07D
063
04A
00A
7FE
041
76B
7AC
7A3
080
00D
7DE
753
093
0E5
0A6
0FF
04C
07B
0B0
0E9
036
0AC
013
015
05C
08D
10B
181
0FE
054
052
076
074
035
7C1
027
0CF
752
745
0BC
11A
0E8
138
14C
181
113
13E
165
141
12E
10D
126
041
0AF
0EC
02A
0F7
0E8
10E
14D
190
041
050
067
75D
7D1
7B0
04F
197
10D
125
123
15E
069
013
09C
0B0
082
0A1
084
018
036
00E
046
0DF
137
13E
178
168
140
0B8
019
03F
7E7
760
7C9
03D
06C
7FA
03A
050
004
001
06D
7F1
022
005
03C
00B
068
027
7C9
04E
7FA
7BF
02F
096
0A7
10B
072
03E
7E5
6F3
776
7DF
7F2
7C0
7F4
7DF
780
00D
010
7CB
7D7
7D2
00C
7DD
000
7EB
004
79F
74A
781
743
776
760
020
778
74B
6A6
768
7C6
7B0
792
00C
01B
79A
7C7
00F
7E4
7B8
7FB
7A0
005
023
009
7C6
798
721
7CA
77B
775
78A
788
782
7D2
77D
7B9
7AB
028
7DA
77C
02B
7EE
7CC
019
7D8
7D1
79C
7A6
044
7F4
019
7E5
7F5
7A8
02E
7D2
748
79D
76E
79C
73F
76B
030
07C
021
783
013
031
03C
7F5
7C0
7F7
7CF
76E
72F
7DE
796
038
075
7DA
039
063
036
059
012
7D2
74D
7A2
750
786
7D1
7D9
7B9
742
013
7F6
7D9
037
7A8
7EE
7BC
793
797
766
768
7AC
7F7
7F2
7DA
04B
084
005
033
048
03B
7E6
00B
018
798
714
791
053
00F
7BD
7E2
051
004
020
013
7D8
7BA
78F
7C2
7B9
7F2
7C9
000
00E
03B
7F4
00D
005
071
002
79B
039
75F
047
7AD
004
022
7D7
7EE
7FC
7FE
7D2
017
011
7C4
7A2
7C1
7C4
7F4
7ED
01F
7CF
7B3
04F
787
7FB
7CE
05A
033
025
7CC
001
023
7BC
052
7C1
7F5
7CF
7D9
022
033
027
7EB
778
73A
7A7
7BE
000
003
01D
79F
7B5
02F
038
031
084
011
03A
7FB
7BC
7FC
7FE
00F
7FA
7C7
017
050
026
7F9
05F
018
78C
781
75A
750
79F
035
029
035
004
034
00F
031
074
7E8
7E8
6EE
7E6
780
7B3
7E5
052
021
7E1
7F4
010
7F8
01F
002
023
7F3
756
789
7C6
7FF
7C8
028
7DB
7EF
7FE
027
00E
7DA
7CA
071
010
76C
706
7BC
7D3
099
024
07B
00D
7DE
7FD
7EE
047
006
791
76C
7D8
791
7F9
7E6
7F9
7DE
7AE
7C4
00E
7BA
7B0
080
0EE
7D0
782
71C
002
04D
00C
7CB
7ED
01E
02E
065
05C
7CD
7C6
7AA
78B
7B5
7E5
044
7C4
7F5
7F4
799
025
018
7D9
100
18A
1BB
0F6
003
7C0
7C1
7BA
7CE
7FF
036
7E1
7F3
026
005
7C6
7BA
7DA
00F
7E0
004
022
060
067
7A7
7CE
018
7DC
0BE
115
2E7
2D0
13D
00E
025
7E4
7A5
790
7A9
7EE
02E
022
004
7F9
7D1
7C3
7D5
00C
7E5
02A
01C
78C
7D7
7BA
068
7E1
073
0CE
22D
251
103
04B
072
774
79C
7FE
7B5
7EA
7BB
039
01D
7FB
7A3
773
79F
059
00B
78A
7BF
021
02E
0A5
013
021
7A8
058
0AE
093
020
05C
01A
024
7DA
7B8
788
7D4
045
025
7F1
7E1
795
7EA
7E5
7D4
798
7DE
019
7DF
0DF
076
011
7B1
7E1
748
7D4
0DB
069
122
0F6
078
050
081
02F
026
092
0B4
022
047
014
067
08C
02D
7F7
7F3
05C
7F9
033
7A2
7D5
7B3
6EB
794
019
03C
0EF
102
0DE
11C
103
0CE
0A1
07C
07B
090
0AA
099
069
050
059
05A
097
01B
01B
7FA
0B8
7BD
74D
7E5
71F
79A
7FC
7E8
0B1
0D1
117
150
106
0E4
0AF
0C2
0D2
0B2
076
0B6
135
114
0DA
0FC
134
13E
065
108
7C4
795
742
053
701
7C3
03D
051
7F9
022
0C3
0AE
0BC
0F7
0A2
082
093
0E5
0B3
0E3
08A
0AE
097
06E
0E5
03D
0DC
023
7BD
7FB
7F6
02D
707
7A6
768
7F1
726
7CC
798
026
04C
087
054
0CD
0C3
0C0
0BD
0E8
080
0A1
092
07E
7FB
051
7E7
08C
7EF
002
7C0
001
043
799
7EF
786
753
7A8
765
019
7B0
020
036
007
055
056
0BC
05B
055
044
064
08C
13D
069
077
006
06D
7C2
06A
7E0
073
7B3
7B3
796
7A0
78B
76A
756
746
79A
7C1
7E7
056
025
00F
063
063
0D5
0B3
086
0A4
073
055
7D1
0A4
015
00F
7E0
