7EB
7FF
005
7A1
766
00D
7E0
756
752
712
714
72F
7E7
77A
7B0
7D0
709
04A
05C
044
092
067
00F
7C6
0A4
058
00A
05D
792
7EC
7DB
7D4
7B6
01D
734
7CD
7DD
0B1
7D3
7CB
031
015
08A
085
055
02B
03B
042
7C8
073
7C6
7B8
7D7
007
77E
023
115
75F
747
77D
779
703
6FD
7DF
001
7AD
050
095
07C
082
0C4
060
0BC
06A
7E9
0A4
047
7ED
006
7E4
027
077
040
75C
07E
030
780
7C5
7CE
7B6
769
7D5
7E5
06C
025
09F
06F
09C
0E1
0AE
108
08B
0B7
099
028
058
039
01D
029
7F3
00C
796
77A
7CD
74B
7B6
035
063
7DB
7E3
7F1
01A
7FD
03B
7BD
090
08C
0D4
0C1
02B
090
0BB
7DA
03E
05F
016
048
0A3
7CE
7ED
6FC
776
7EA
7AE
022
7B9
018
7E6
7C9
783
755
751
7D6
798
7F4
7BB
072
081
054
01B
03C
075
070
079
073
031
03E
796
7CE
006
754
73D
78A
79C
793
7AD
7A4
780
776
76C
79D
7BC
792
7D5
024
093
010
03D
04C
7E8
01E
7F8
045
015
0B3
7F9
01C
7B6
744
7A0
7EA
794
759
74D
7C7
00C
7E2
798
78A
7DF
76B
070
0D3
048
022
7E0
7F0
002
006
002
021
7DB
094
78A
769
7CF
024
7AF
05A
037
79E
7DC
7BD
7AB
7C6
730
76A
7CE
01A
076
082
082
7BA
7F1
7F2
00D
027
062
052
07B
09B
03B
76E
049
7E2
014
7BD
7B0
7A9
00C
7BA
77E
78C
73F
794
7AF
01A
022
0F8
07D
054
04F
016
055
04F
099
04F
0C5
0B2
03C
7EE
004
006
049
784
766
7D9
002
776
79F
7A4
7C7
779
71B
6E8
75A
119
0DC
09D
075
051
0C3
069
0A7
0D7
0D2
074
0C3
714
005
01F
768
79A
7E3
7FE
044
7C7
7C1
7B1
785
779
720
726
7AA
077
0B4
0D5
0F7
0EA
104
099
04C
082
091
082
0CB
734
065
040
7E7
04A
788
036
7DC
7D3
722
783
778
000
7BF
011
032
07A
0D2
0EA
0A0
0A3
0C6
08E
015
078
093
031
09D
7D3
06C
07F
06B
7F3
7F9
7A1
7F3
79C
789
772
7FE
02E
009
79D
023
093
08F
085
07F
068
08B
046
02A
044
7C6
6FE
755
7BE
027
076
7F6
7B8
014
7B5
79B
7BF
7F4
7F1
7A8
794
7CF
79B
024
7F9
7EE
039
05F
7E8
076
7FF
7EB
014
011
7A8
042
013
03C
799
000
7CA
7B1
7EF
7FE
051
05E
02F
7F1
7C3
019
04C
7F2
065
7F2
7EB
034
01B
7E5
7E9
00F
74B
6A2
7C2
789
068
093
03D
7F9
021
02D
059
7CF
052
7B9
01C
00A
094
7FB
7EB
7D4
79B
7C5
7FD
7F7
7F3
7DA
025
7F3
72A
772
7BD
7BE
0B5
03A
05E
00E
7A2
7A5
01F
037
7E7
011
7F4
04B
09D
7B4
7F5
7A2
7F3
7B1
7E8
7E5
7E6
06C
7CB
774
7CB
7EF
7D9
0E5
07D
029
05A
010
012
007
012
7B4
077
05A
05C
083
02D
7A1
784
78B
7AF
7F7
7AB
7FF
01F
7DB
7A8
7DC
772
770
04A
0C1
0BC
0A5
04F
02F
7C9
040
001
041
052
03F
0A7
057
059
7DF
776
7AB
7FF
030
01F
048
7B5
7B9
7C5
78C
7A3
7DC
7EA
00A
0B8
112
7FC
7AF
04F
031
00F
01B
7C7
7DA
034
7D1
01F
7DA
7CA
7EB
7CE
7ED
033
7A2
767
789
78F
010
7C3
06E
04F
097
0C9
7E5
17F
033
093
02F
04E
01E
079
08C
012
037
797
00E
002
7C7
7D4
7CF
7B5
759
7B0
78A
044
7B4
7CE
058
7C2
03F
0E0
027
082
0E7
0BE
156
1E8
0F2
105
070
7B4
7DB
000
7E5
7B5
7AF
7DE
776
747
7AF
007
017
02E
7C5
0A3
07D
044
7F3
01D
7E2
767
710
0FC
141
36A
214
1B2
051
7EC
79E
7BE
7C0
762
79A
7A5
7CB
7C3
013
030
052
095
08A
071
04E
089
040
04F
736
7EF
7AC
0B6
204
268
27B
0EA
037
76A
000
7A2
7E9
7B8
7E1
7FE
7C6
009
7EF
038
7D4
755
01D
7AF
72B
7A6
7BB
7EC
06F
082
0D5
1B0
1FC
1B7
230
17B
017
7C3
776
7DF
027
039
7F4
00F
7DC
00E
000
7F4
7E5
77A
010
79F
7D2
061
085
7B0
01E
7C0
7AB
084
167
164
14B
169
132
0B5
0B9
02F
026
015
7F6
7FD
069
034
07E
01C
039
05A
78F
7B4
07F
075
7E2
7DF
7BF
7FA
048
113
1D3
17E
030
039
045
03F
03B
05B
015
7B4
054
795
777
72B
747
750
7FA
7A9
764
7E3
0D4
05D
7FD
