007
007
012
032
08E
12B
18B
1B2
10A
0FC
09D
0BC
77E
7DC
7ED
025
0C2
06F
0D4
0D3
0B2
042
163
084
150
089
0D7
094
799
7DC
02E
0BD
0FA
0F0
16C
03F
08C
04C
086
03D
7F3
7D3
065
066
039
0B7
104
065
0C1
030
0F0
04C
0E9
088
031
02A
7AF
75D
0F3
0B5
0C5
0CF
111
0BD
010
03C
006
069
014
004
7E5
026
060
062
0C0
075
7F8
01B
036
02C
03D
7E1
78F
006
754
04D
7F7
7F2
05D
106
08F
085
0B8
091
057
03D
043
025
04F
04F
05E
02C
018
047
050
02A
021
016
09E
7E8
7B4
786
757
126
7ED
06E
0A9
01F
7F5
7ED
02C
7F1
019
02B
055
00B
055
092
000
04D
023
7B9
055
00D
034
7F5
079
04C
001
76B
027
094
07C
069
043
7DF
00A
03C
04C
7C7
7D9
7F3
000
7E6
031
001
767
7FF
7E5
7D1
7E8
7DC
7E4
001
7EC
7D0
76F
7BF
00E
049
098
7F7
7B8
7D0
000
056
005
003
7CF
7F4
00B
01E
09D
7C2
7C8
7B0
7B1
7D0
78E
7C3
7FA
7EA
010
7B4
7C3
709
065
047
0A2
02E
025
007
7BD
017
7DC
00C
02E
7F0
00F
03A
7B8
018
7EA
021
7C9
021
014
7C1
7D2
7ED
7A7
7D8
784
773
067
7D5
0D6
074
7AF
7DC
7D9
011
7F9
7FB
7F7
7D1
7D6
022
7C1
006
014
096
053
03E
04E
01E
03E
7E5
011
021
7A4
7F6
004
03E
7F2
027
0AC
029
018
037
78B
7CA
7ED
06F
025
006
010
7BB
7E6
7A4
7FB
09A
047
054
076
7BE
01D
7A2
77E
717
01C
06E
060
0B1
076
035
07A
01B
7FF
762
7D7
021
7A6
003
7D5
023
025
7D8
022
051
058
04D
05C
047
044
020
056
056
07B
007
7B1
010
029
7F6
00F
7EB
7EF
7EA
7D8
7DC
7D0
7F4
7D6
7F1
7F3
02F
033
088
070
05D
09C
070
092
08D
016
114
0C4
7F0
765
001
038
78F
004
00A
7DE
7DE
7B8
7F5
022
7DC
7B8
002
043
7DC
072
085
0A2
0F7
164
118
11E
0DE
12A
12B
01D
7CD
7AD
798
75C
74E
7A2
034
023
7C2
7DE
039
004
7BB
7B0
001
789
008
7EA
02E
067
08B
0C7
0EF
10A
21D
26E
179
784
757
7B7
750
77E
78E
7FD
7F9
065
7C4
7CF
022
7BA
7A6
7C5
7E3
7E0
78C
787
7CC
7D8
7E9
063
116
1DA
257
322
313
7B9
705
77F
7F1
01D
7EA
00C
042
04B
7CB
003
050
7DD
7BA
7AD
7B1
770
762
7A1
7AF
76A
78A
74E
0C4
33A
274
2C6
370
00A
00C
7F1
006
02A
050
7F8
7D7
046
042
050
021
7DF
7C7
7E5
7F6
7AC
76A
763
6FD
6D3
6BC
6E5
236
3A9
346
2C7
2FC
069
7E9
7FE
7FD
01D
03A
7E7
017
063
077
01B
7C7
7FB
7EA
007
022
7ED
7C9
7C0
759
6E7
6FB
725
2BF
35F
2ED
2B7
388
05E
015
044
014
015
022
7DD
02E
04F
028
04C
023
038
7F7
003
008
076
02D
051
022
7CD
71B
7D0
2DD
2F9
375
2A6
2BA
023
017
03A
056
7FD
7D2
7ED
7B0
7FB
063
03D
019
005
05F
071
020
036
04D
03B
09E
047
7A6
019
29D
34F
312
2C9
2BD
060
0A4
055
002
013
01E
7CF
00A
7E6
7FC
02F
05E
023
02E
04C
051
03D
054
03B
060
056
0B0
0C8
1D5
3F7
33D
2A5
1D2
075
037
7EA
7E8
03A
7E8
062
7D4
7B5
7B3
008
7E6
7F7
7D5
04C
7E4
00F
061
004
047
008
0AE
143
234
2BD
273
128
157
00A
02A
030
00C
004
01E
7B6
02B
7EF
000
7FC
7E2
7E5
00F
011
065
03B
01B
01C
046
09A
0B6
022
0D8
2D2
248
109
7F6
7FE
02B
7C7
007
093
023
095
09D
097
04D
02D
7AE
77F
7C6
076
7DF
017
7E2
007
008
7F5
7EC
781
04E
0CC
0D7
025
7FD
0B3
036
7F1
04C
010
02D
083
09F
0A8
070
03D
01B
057
058
02B
01D
043
03A
028
04C
017
7E1
7D8
006
7EA
7FC
046
7B2
06E
7EB
033
024
005
009
7E5
7D6
022
053
0B2
0D6
09E
08E
056
072
0BE
06B
09F
07C
0CC
029
097
109
0B6
023
7B8
04F
069
085
0B2
026
7D4
7B2
7D7
026
04C
096
079
0F9
05E
029
0AF
006
066
06D
08B
09A
7C3
008
0C9
112
7A8
0B1
055
01F
07B
790
011
7E4
783
793
7C8
7D2
7E0
721
78B
76D
720
721
733
03B
78E
7AC
7CA
744
717
732
793
7D3
73D
0A4
059
7F8
