008
3F9
3D4
3DD
3B1
3DB
07E
3BF
3F9
0BF
085
02A
393
000
06E
00B
361
045
08F
0BF
042
0A9
0A4
023
056
2FD
3D5
373
05A
3DC
34B
027
3B1
07A
092
11F
0EB
09B
0C1
054
056
0BE
01A
3FC
3E0
01F
3FB
3F7
3D3
326
3FC
048
3CD
033
001
327
10A
37E
3DC
3A6
3C6
05B
088
0D2
080
0DC
07C
0AF
0A7
13F
0ED
0D1
01C
09D
027
033
004
3D3
023
399
3EE
002
3DB
029
3FF
3DB
393
3D2
348
3FF
38A
3EB
396
394
39F
3F7
02E
03B
0A8
11F
103
10F
097
0AC
094
002
036
0A8
054
033
01A
047
3EB
3AF
36D
300
30D
3CC
3B8
3B0
31F
37B
35E
3CE
30C
3B0
384
043
04C
04F
00C
047
009
047
078
3FE
0B4
0C6
123
026
389
394
331
2EF
38A
382
3FB
3DA
347
369
3A3
3F0
373
3AB
38A
3B9
3C6
047
074
0E5
091
04C
02A
0A1
0B9
3ED
051
3B2
3D3
352
33A
3FA
3DD
036
3E4
3EC
057
047
067
3FE
3CB
3C2
384
3BB
01B
014
04F
0A0
0B4
070
3FA
02F
08C
097
05E
024
2DA
022
06D
35B
3ED
028
3D8
016
007
3EF
036
00E
3F4
3B1
003
3A9
3B4
3E2
00F
069
065
092
3E1
02C
064
082
0D2
00F
3E5
041
096
000
3DF
073
3AA
3DA
3C5
006
3D8
3D1
3F2
3EC
3A1
3BD
35D
3A2
035
3C8
055
0A5
052
3A6
3E3
062
0D7
030
067
3D8
001
3D3
3C1
3B0
3DC
34B
3BC
3BE
03F
3E1
009
3F0
357
3B2
3B0
3B9
011
006
00D
024
052
028
3D7
01B
037
069
057
3D1
3E0
3E6
3BB
3BC
38B
3EA
39B
3B0
3D5
3DE
3F3
05F
05F
00F
001
3FF
3DF
3E7
029
021
070
05D
3CD
02F
087
086
016
030
37F
3D7
004
3CF
3A4
3BA
3FB
38F
372
3BD
025
033
024
060
00E
040
058
3DA
38A
3FA
02D
004
009
3D9
04A
0B4
3FC
081
3E1
030
3F3
3C8
02A
3E0
3E0
39F
39E
3EC
3EF
039
021
04A
06B
3FE
010
3EF
00C
00C
3EE
3CC
031
3F2
071
00F
37C
088
055
3E8
3DC
01E
03A
3E5
3FA
3E9
3A4
3BA
3F1
3F2
3E5
3EB
026
3EF
3FF
027
00C
3D6
053
019
3FE
08C
006
359
2CE
00E
043
036
3D6
3E2
399
3EC
3E4
3BF
39E
3C3
000
02A
025
3C5
3D0
3DA
01D
027
3F7
3FB
3EF
033
3F9
059
3C9
001
339
306
3A4
087
3C8
3CA
3F0
029
00D
010
38F
382
3DE
020
39E
372
3F4
3ED
3CE
010
023
3C3
04A
3E6
008
07C
049
382
371
37E
02B
390
011
3C7
00C
3FA
038
3ED
3E0
3DA
00A
02D
3C1
01A
3C4
3A9
3E2
3F5
3E6
3B4
029
029
00F
025
3CE
385
379
34F
33C
3BA
02A
3D7
014
3C3
019
0A4
3F9
044
07A
3EC
377
397
394
39D
399
3BC
3CF
3C3
045
01C
06F
380
362
08F
375
38F
3A5
034
0C6
01C
3FE
3BB
3DD
001
0BF
0B9
01D
3EF
3C2
02A
3E1
387
3AE
3FE
3E0
3E3
030
3ED
3C4
3AB
39A
06C
3AE
338
36E
381
3C2
059
042
017
009
087
0B2
08C
04F
017
38E
3C1
3D2
3B2
3B5
36F
3A8
00E
3FD
057
3A1
3DD
009
383
3C2
3BC
023
367
391
38C
397
035
3F8
019
03D
07E
06E
044
3EF
002
3E4
3DB
3A9
389
02B
036
3E1
3C0
371
03F
3A0
32D
3CB
07E
3E3
38F
3CB
369
3C1
34A
39A
377
3B7
003
069
0C7
037
020
3E9
3FF
03C
022
3FA
3F5
392
376
3AE
012
01B
01B
056
096
3AE
3D4
3EB
370
341
3A8
303
2E1
32F
387
01B
064
057
050
081
018
3E9
3FA
3DA
3AF
002
33D
03B
01B
009
09D
040
052
02E
05F
3C5
027
3B0
045
013
387
3C7
3D8
3F5
3F0
04B
02A
07A
018
019
00F
39A
000
3D8
005
060
085
015
065
08B
05D
04A
0C0
0CE
03D
0AD
057
0A5
06D
049
00A
04A
018
05C
043
066
09C
0B2
049
0B6
076
02E
3F3
31C
009
381
09E
048
049
06E
3F4
01C
076
06F
09F
092
037
084
049
028
04B
017
03F
064
0C8
039
070
06C
01C
041
3F9
03B
39F
01F
02C
0AC
067
06A
04B
06D
027
09B
062
099
093
093
094
0A9
03D
05F
100
06B
079
095
0DF
084
0A4
08F
0C9
131
0CA
0B7
3DD
0D2
3D8
118
082
013
034
039
03D
02E
085
089
09A
101
0BC
10B
041
118
0E0
0DE
0B9
0E2
0F4
105
0A8
0EB
0F2
018
013
