7F7
7F1
04B
043
7FE
7D1
089
067
073
0E7
041
0BD
083
0F1
080
029
013
042
0BC
0D0
1D2
158
0B6
197
15C
10B
0E9
0C1
103
7DE
767
77C
78A
70F
725
7BD
7BB
74A
7BF
778
02C
7C2
074
7C2
794
0C9
067
052
0C9
174
174
148
149
150
092
0F5
0A3
74F
70A
75E
729
691
787
79C
792
6D7
71B
018
79D
006
022
015
75A
7A5
06B
074
7B6
00D
0D2
074
099
0B5
1A6
0C6
7E3
770
705
072
7E2
7B8
79A
7BE
7D9
7D6
7AA
001
00E
7D5
7E4
7B2
7F3
761
752
748
7B4
7C7
7FA
7E2
022
7D0
092
0D8
768
00D
7BD
7E5
7E2
7BC
7C3
7A4
7F1
00A
022
799
7FC
7C2
078
7CB
05C
7BE
032
7D9
01F
051
0B2
044
0A6
091
087
0FA
04D
79D
7FE
045
056
070
7FD
067
030
01B
013
7DC
7FF
7E2
014
006
7B2
0A1
05C
0B7
107
0F6
083
09D
0FB
0C1
109
0F0
04A
767
00F
043
03C
015
7DF
7EB
013
7F2
01B
7B8
7AB
7BA
002
7EA
051
06E
0B1
0D5
093
05F
092
000
7CA
79D
78B
01E
7DD
7A4
052
017
06A
085
024
00E
090
076
043
021
7F1
7E7
755
79A
7B3
7EE
7D8
7C6
769
786
6D0
6ED
6B7
69C
658
5AE
07D
7F7
04C
071
7F3
09A
0A2
041
0BF
0D2
082
00E
7A7
768
747
7A4
75C
6E4
72D
6B4
6E7
6A3
626
682
65A
5EF
5BE
512
7ED
790
06E
101
0A0
02C
078
0A3
094
049
04F
00D
74D
747
6EE
72E
725
715
6E9
71C
766
662
668
6A9
751
71D
60A
591
0BF
02E
7D0
7F0
0B5
05B
059
050
02C
7E7
00D
01B
73B
731
746
72B
787
77E
016
7BB
7DC
75B
73D
7B5
7B3
7C3
60F
6F3
7D3
78C
014
7FE
777
014
7D8
7A7
7E2
021
7B4
77E
6E8
71C
76A
7FD
7FD
00A
7E9
047
005
7CE
7DD
068
0B7
7F5
020
062
7CF
760
7DD
7D3
09F
7CB
06E
7E3
7BF
790
771
6DB
6C1
76A
7B2
7FE
01E
036
063
07C
03A
05A
080
0D1
0D3
041
795
129
7E2
7B9
7E6
7DF
783
791
765
791
73C
752
744
713
717
792
7B4
042
035
040
040
066
029
038
07C
109
0E6
071
00B
0D7
035
7A8
79C
769
71A
779
76C
7AD
7CA
7A9
791
791
7D1
034
017
01B
03B
090
060
031
040
057
0A8
077
005
0C8
7F9
10A
7CF
717
71D
6CE
719
742
7C1
7DA
7BD
77D
7AB
7C7
015
064
03D
04D
084
061
7EA
022
013
0DA
0AF
036
7F0
7C3
7B1
0DC
794
040
6CB
6C9
77C
7A0
7B9
791
789
7B6
7E6
014
062
049
005
05D
032
023
7E4
7DC
7D3
054
056
02B
046
03E
795
115
7C8
066
7B1
747
767
77B
7B8
7C5
753
7B8
7FF
047
05D
057
087
078
062
045
785
00B
070
7F0
03A
041
07A
7E2
7F7
0A8
7C0
057
00F
7E2
7B4
79C
77F
72F
712
7DE
065
059
08C
06E
046
03F
08A
03F
04B
026
039
7F3
06D
7D5
03B
0F8
0E9
0C7
002
7DF
79A
069
027
072
04A
7D5
089
0A9
050
00D
05D
0CF
06C
09E
06E
000
026
008
7D6
010
7DB
7DD
7A3
78E
07F
0E3
7D4
031
08F
024
089
043
088
0D8
0EE
0C3
04B
03C
090
050
010
023
057
05D
053
7F2
043
7FD
7A0
762
7B4
7A7
0B4
065
03B
027
7E9
7D5
051
063
092
06F
080
0B9
09D
07F
078
04E
025
066
7D7
037
03C
014
016
7A1
7C9
7B8
6FB
76F
765
792
7C9
068
7C0
77C
7C7
074
065
7CD
066
7FF
004
035
7DA
78A
7A7
7F8
043
7F0
007
7D9
01C
042
027
050
7FA
010
6BC
094
7C0
7DD
72B
79F
7CD
7FD
03B
05D
02F
085
7CC
7A6
036
7CE
7AF
059
047
03D
069
0B9
0CD
0EB
038
0EF
077
085
79D
08D
7ED
7D6
775
7FD
77F
7F3
0E2
025
079
00A
03A
00D
7F1
05F
00F
028
05C
7E4
06F
02B
7FB
03B
059
018
048
048
038
040
7A3
7DD
789
7C1
7ED
059
067
0AD
054
7DA
7B3
005
7F6
7BB
73E
78E
74B
7C7
7A9
735
765
78F
745
7B8
02F
09F
03B
7E6
7B1
76D
774
790
7D3
7BB
7A5
002
02B
767
6E7
6D4
6FA
66F
6B5
666
67C
6CC
64A
66B
6C0
66C
726
7C3
795
006
08D
018
78A
04F
7F0
03A
7ED
6FF
6C3
6B4
742
746
7E0
796
7CE
768
66E
098
5FE
655
5A9
549
5BB
65B
6C3
76D
730
7D1
7FB
01E
