022
01C
018
0CD
094
0E9
1CF
1B7
224
23A
238
235
274
1BD
236
118
14E
0AD
133
1C4
033
0B1
146
07F
094
086
0A3
079
07A
7E8
75B
7A7
7A1
127
07B
1B6
177
1C2
1F8
1FA
1C4
0FD
24F
2DB
289
1CD
1BB
105
191
03B
7B1
083
0B4
0CD
14A
111
7FE
7AE
675
693
674
7E1
018
101
069
00D
0CF
01D
099
041
0B3
0D6
0E6
1A7
20B
050
179
0E0
117
098
0CB
0B5
117
130
7F7
76F
664
6BA
77F
73D
7C5
7D0
053
03C
7F9
7D2
04F
04E
0A2
7E6
116
0AE
088
048
0F3
0BD
09A
092
0BE
0FC
108
0B1
6EA
712
742
730
7ED
7ED
032
01B
002
7E4
7F6
063
7EF
032
050
062
7F6
7E0
035
020
011
013
7B4
7D9
796
06B
025
098
715
010
7C0
7CB
7F3
01A
7F4
7F4
7D4
016
044
03A
014
058
048
7F8
7E7
01F
03B
01B
7C3
00F
02A
7C5
006
788
7E6
095
6E7
78C
7DC
779
02B
7EC
7EE
7ED
018
7AE
7CC
000
032
022
7DE
7FA
003
7F8
034
01C
03B
7EA
7E8
78F
7BF
738
737
06E
01E
6BD
715
794
7EA
7F8
7C7
06E
014
7E5
7F3
7C6
7BD
004
7B5
042
054
0D7
038
07B
7A1
003
067
78E
7BD
734
79D
056
780
6EA
7B4
7C2
7D2
038
031
7E8
034
7E4
011
7DF
78A
7E9
7B2
008
029
046
037
05F
7C1
7B8
799
019
02A
75B
7EF
06E
6EE
7A2
7C7
7DD
027
008
02F
7DA
01C
7C9
023
790
7A4
004
7D0
02C
048
07F
01F
049
7B0
794
79B
003
7BA
026
052
11F
035
79B
755
00B
056
7DF
7E8
7FF
03B
01E
781
7DB
034
7BA
010
068
03C
06E
067
7EC
79C
79A
014
073
00A
001
043
185
69A
74C
7C7
021
009
038
7E3
022
7E4
7E0
7CD
7C1
7B8
7EA
7DD
003
07D
043
02F
798
038
03F
001
7A4
027
039
031
146
6EC
79E
7DC
7C0
06F
7BD
01E
7E9
044
7BF
7A6
7DB
7D8
056
7EA
7F5
7F7
010
006
013
003
7E7
021
024
7C3
05D
05E
043
76F
7C7
6E0
736
7F5
7F4
768
037
002
7F0
7A4
7CD
7F4
01B
04D
7EF
7C5
044
06B
014
064
018
03B
7EE
01F
7D8
7B5
7BE
75B
727
686
775
02D
79F
78B
7ED
001
7FD
7B9
796
7B8
00C
016
032
792
7C8
022
005
7B6
01C
05E
7FB
794
001
7D7
064
031
6D2
6A5
72B
7C0
7CE
796
7BB
79B
7A1
75B
79E
7A0
7E5
033
7F1
77D
7CC
049
7E1
7D8
056
081
019
02D
005
050
070
6CE
70E
6DC
757
040
0A5
7D5
005
001
010
713
77E
79B
7FF
7D3
7AA
7E5
7E6
7EB
7D8
7DE
00A
056
038
064
752
075
00A
75E
77E
77A
002
0DD
07C
0FA
002
027
017
006
79F
7CC
7E2
061
7E3
7E9
027
074
02F
070
7F3
77A
07C
018
7DF
029
025
732
760
014
0E0
12C
113
186
09B
0C3
09F
08C
7E1
008
7D7
028
025
019
05E
04D
071
059
05E
7E8
091
052
003
022
7E7
6F7
770
7D1
044
06F
0CB
1D2
206
1CB
0E0
0D3
054
05C
084
001
054
04A
04E
078
026
024
7FE
78B
769
016
78D
6F6
766
6E4
782
7E1
02D
005
7F2
7D2
077
126
0D9
15D
0F7
114
0A1
7D8
001
01B
04E
00C
7EA
7C9
76F
7CC
764
7CA
014
7A2
02F
6FB
771
753
7CE
7E1
7A4
7DB
7EF
79D
02E
05F
7DD
037
02A
7D4
7F7
7B8
751
7CE
7E8
7E8
01A
7FB
7BD
011
7C2
7DE
004
6F0
786
7B7
001
7AA
03D
006
7FA
068
02B
049
071
045
05D
03D
004
7AA
7C5
7C9
04E
7BD
01C
7F1
074
0C2
0A1
047
7A0
78E
6D5
7C9
732
02C
7AC
02C
01B
022
07E
05D
0BE
07E
041
032
02B
04B
069
7E3
03F
7E4
063
0BE
7F7
766
7BE
79B
015
799
788
7DE
7BD
79C
7C5
778
7B2
7C2
04B
008
0B9
01D
00A
01D
073
080
05B
032
076
0AC
7F2
0A2
074
7B4
068
7C3
7F9
6E8
02C
78C
037
7BA
7E8
797
741
723
754
7EB
0CD
02B
041
017
03B
7D2
08B
7FA
023
7FB
0CF
05E
05B
029
78C
7FC
088
6FB
071
05D
7C8
02C
00D
7C1
7B9
7C8
7FB
7AE
00E
016
032
05B
03D
7F3
02E
00C
7D5
030
091
0C3
006
007
788
7A9
7F1
7F4
6F7
7C7
6B8
725
7EA
7C1
7AC
7E7
789
7F7
7CF
042
7DB
7EF
066
7B4
79D
74F
735
6D0
775
7B0
011
7FE
043
0A0
01C
