7F9
7F7
765
792
7AD
72A
712
727
697
6DF
6B8
788
6F9
648
6D0
6A8
681
724
6F1
732
6E1
6EB
6A8
71D
741
005
723
7F5
77A
7F9
766
724
758
682
71A
6C3
786
722
71F
77A
7AD
7A9
6A3
6E1
644
6B0
61C
6DF
69A
6A3
69E
767
6C8
6D4
78F
759
7A3
7B3
752
73F
6C5
77C
725
717
7B0
774
054
06E
044
051
066
7D1
700
6AB
5ED
029
603
615
60E
6BB
679
7DF
729
041
7E9
763
719
777
724
7CF
795
728
729
030
010
7C8
79E
034
7F4
031
000
735
6EF
5F5
674
5D3
636
62C
60F
58D
726
050
764
76C
6E3
6B1
789
771
7D5
775
7D5
028
03B
7CA
03E
7B5
7D8
046
01C
771
7A8
7E8
73E
72B
704
729
616
69F
6F4
7AA
0CF
039
7DC
774
7C6
000
7FC
7DF
01C
051
03F
061
7DB
017
7CB
03B
7E9
7C2
7F4
765
79B
7D4
75A
76C
6C2
786
7A8
78F
062
035
77B
011
010
02D
034
024
7C1
03E
06E
03F
076
00C
03E
082
04C
027
793
761
7A2
778
002
749
785
6C2
6DC
670
0B3
7FC
7E1
003
050
054
010
02C
7E7
025
01A
041
7FC
097
010
0BF
065
06F
010
005
03B
7DE
766
77A
707
761
736
67B
003
05F
056
06D
07C
088
09A
7CB
7F7
001
066
064
01E
08F
023
048
085
053
7F5
063
018
084
787
764
770
6C0
702
69E
024
7E8
03F
082
056
02C
05F
09F
029
02E
0BC
0B4
013
047
062
050
03B
065
028
02C
0A7
0DE
004
7CE
6FB
5D2
62E
62C
06F
7C8
03E
009
029
013
078
087
04F
04F
030
05A
01C
074
023
05D
03E
05F
04A
0C0
0D7
0E7
7C8
767
6A9
6B4
613
6F9
7EF
016
774
7E1
7A9
005
7F7
01A
006
02E
05C
075
7CD
7E2
022
020
04F
03C
095
05E
0F9
090
001
6ED
6EE
707
7C1
71B
7A5
75A
009
7E0
0AF
7EF
03C
01E
009
7F5
7B4
76D
7A7
781
7E0
7E3
023
060
01A
046
12F
0A0
7CB
722
733
71F
78A
757
72F
7ED
7A2
7C9
7F1
7D6
031
7E5
778
76D
7A0
77D
71D
770
794
046
013
001
030
09C
073
793
767
733
7F6
75B
02E
7E9
7AB
7DB
77A
005
092
7DD
7DA
7E9
762
6F5
733
794
791
751
7C2
03D
03E
7EA
03F
002
06E
7AA
70C
71A
7D8
033
059
09E
036
7DF
034
01E
02F
033
7E6
7C7
768
723
6F8
7B9
791
7E1
7EA
087
06B
006
7E7
011
7EE
701
6F1
7EF
033
041
099
033
041
039
7DA
7A3
7FF
031
00B
7CA
6CF
736
7D5
043
7E4
000
00C
034
068
031
7E3
7FE
069
7DF
7A3
031
7C9
04C
097
01F
79D
073
7F3
78D
034
011
7CA
788
6C5
75E
7BA
03A
7ED
7F4
00F
03B
058
033
78E
023
04D
79D
77F
7DA
7C6
010
003
0DC
787
7D2
02E
098
7BC
7E4
7B7
745
65C
781
066
068
071
034
005
006
064
7E5
7DB
7B3
7CC
722
6DF
78E
7C8
7AF
79E
07C
7BD
010
7EF
7EE
798
74B
6D7
714
6E2
052
0C6
0A0
067
7D7
03C
057
025
77C
7B2
7CA
7D5
763
710
7BB
790
73C
74B
0E8
749
770
7E4
78B
738
729
6E0
6C1
785
05D
0CE
04B
027
7E4
7F9
7EA
7CA
769
7AD
768
77C
791
7C7
7D4
746
757
796
17E
7FC
770
7BB
77B
765
74F
71D
7AE
02E
082
077
0B0
077
0E1
009
7F1
7E8
00E
045
7C8
017
008
067
01C
050
787
0BE
0B0
7DA
7D9
7E8
783
7E1
77D
7A1
762
022
09E
087
0DD
070
057
01E
7C2
7AF
7CB
011
7B4
7EF
7E9
03D
013
06A
086
060
04C
7B1
7BA
752
74A
7D2
7A1
761
78D
7D6
7FD
04E
091
084
02A
7C8
780
775
7A7
00D
014
054
7CF
7CE
7ED
0B7
02D
056
053
7D9
7FB
066
7C7
77C
751
74C
73A
7CB
016
7DC
06A
045
7E2
7AF
7A2
7DD
7EC
7EE
000
041
7D4
7DA
032
0A5
7C5
7F5
7B2
009
022
76E
792
78D
7CE
719
763
018
016
018
7F2
05B
7E3
7FB
7B5
73C
032
7A3
7DC
7BA
037
041
020
03A
02B
7EA
0A2
753
7D6
7A0
768
773
79F
7B0
738
7B3
79B
7B3
7AB
021
016
012
7CF
752
022
02C
7E5
7FF
058
0D7
7F1
79B
787
764
010
7B8
7A0
792
78D
74C
771
6FF
733
749
6E3
787
7C6
799
71E
671
03E
6A9
726
765
00A
76A
7E8
05C
7EC
785
7D2
08B
7E6
