009
005
7CE
7B2
760
733
7BF
70D
071
04B
03D
063
090
0E6
7FF
018
02C
080
046
057
006
7CA
002
72B
746
69F
792
7A6
7A1
7F9
7C2
7AE
755
7EB
778
7F6
071
00E
030
069
7F7
004
023
012
076
0A6
02D
053
00B
7F8
031
7C4
7D8
787
6F8
03C
7CE
7DC
010
71F
7E0
749
7C3
030
05B
05A
0E8
094
040
053
04D
024
7CC
7B6
7BA
068
7B4
78C
059
018
7B6
7CB
6CB
6E6
0F6
796
765
755
071
7DB
056
0C6
0C0
0E7
0F0
0A4
098
099
085
07B
043
006
040
03E
00F
006
005
7D9
00F
7C4
7CF
040
03B
047
050
0A1
02C
7F3
087
067
0BB
7FF
075
08F
0AE
0D7
0FB
0D1
0B6
029
06D
07E
05B
00F
7D6
005
7F9
74A
6FA
7F0
09F
0ED
10D
166
0A3
095
064
01B
7F5
00C
057
7EF
04A
0A3
0BF
10E
086
068
067
05E
061
043
03A
000
019
7A6
6F8
78E
0C4
074
097
0DB
0D0
051
03B
7E9
7C6
7F6
011
7D1
028
029
072
112
0E4
07E
01D
079
05D
7F0
04F
06C
060
7CF
6D0
75B
00B
0FA
0B6
0CA
027
012
78B
00E
033
7EF
01C
7DF
7D0
7DD
016
0F9
10A
11E
045
082
7D8
044
07D
02C
093
707
653
758
78E
7F6
7DF
005
02E
002
7BC
7D8
025
7F2
006
7DE
778
7A9
7DC
050
0DF
141
126
099
048
096
095
092
0AD
69D
5E5
7AC
779
74C
712
704
776
6DD
7F8
7BE
7C8
7AD
02D
04B
7D4
7C8
78E
75F
7CC
06E
153
1B0
110
0E9
071
083
0DD
689
53D
6C4
011
722
685
757
78D
7B3
00B
034
7E3
7EE
004
005
7FA
7E5
776
752
75E
7BA
048
153
1A2
146
0F1
097
0B3
610
4E7
6DE
77C
717
72F
70B
75B
7DD
7C6
7B7
00B
784
7EE
7CD
7F8
797
00C
7C1
7B9
7AD
7FB
020
09F
11A
13B
152
099
6B0
725
621
7F5
7E8
74A
04A
05F
7E5
05D
023
7B9
003
7DA
7D8
7B8
7DC
01E
7F4
7D2
7D8
7B3
01C
054
085
0AB
198
0A5
6D6
6A4
68C
7E9
098
021
7BB
79B
7EB
002
007
7B2
012
7D0
7CF
023
7E1
7C7
7CA
7D9
7B1
7CB
7D5
040
7DA
04E
03C
04B
7B9
797
7F2
7B9
083
0D0
7A9
79F
7E0
7E9
008
7B7
7F4
008
7DA
7E5
7EC
7E0
7E1
7DC
7FE
01F
7AF
7B5
7B9
759
7F3
7AC
703
7FC
012
7F8
087
7D0
033
00B
054
014
7B9
7EC
014
03D
7C9
7A2
7EA
7B3
7D2
7F5
7DB
7DA
7E8
7AD
7B5
791
005
78C
7DB
026
01F
7F2
025
00F
033
006
010
7B3
7F7
008
794
006
7EE
7B7
7E3
7E8
7CA
7B8
7E6
7F0
010
012
7CD
044
7DC
7AA
03E
00C
7E6
7BA
016
014
7B1
010
7DA
7D1
7F4
7BE
007
768
79C
7DD
010
7DE
7FC
7ED
019
7F0
012
035
020
7FB
7D9
7E3
7BC
002
7B9
7A8
070
09E
7FF
03A
7E6
7E3
7F5
005
7C2
015
013
026
002
025
7B6
7FA
01C
002
03E
008
7F5
7FE
7DA
012
01D
7CD
7C0
075
7DE
027
7CC
7F6
7DF
7A0
7E8
7C1
010
025
7A6
7A1
009
020
009
044
7D2
011
022
7E4
7E9
7D9
016
7E7
012
7A3
061
0B7
03F
7E6
070
7C2
011
7AF
7E2
7E9
7C0
7E7
7CF
7B7
7BC
7DD
7D9
021
01F
005
022
7F7
021
7BE
7F1
000
7EE
019
066
07B
7EE
028
02C
7BC
7CD
7B1
00D
7F8
7EB
7D4
7CD
799
7BC
029
7E7
7FF
7EF
008
7CA
02B
022
7A0
028
7C7
78E
7E1
7EF
0A7
077
017
07E
04A
7CF
7E4
008
012
7D9
797
7C2
7D9
759
03D
7C5
7FD
7C9
7D1
7A6
797
775
7F7
765
7E7
7E7
7A4
743
7B5
070
08C
7FE
7D8
7C4
7CE
014
7FD
7B8
722
728
74A
7B5
7D4
779
791
7DE
7DA
7ED
7E3
7F0
7F7
04B
7E7
760
766
787
016
055
02D
055
756
79B
7DD
022
03D
7B7
78D
6FE
767
7DD
7EF
00E
7E7
793
7DF
029
7F5
7D8
7B3
06F
787
08E
79B
7AE
080
081
03B
0B4
71D
715
029
027
7A6
001
058
02A
7C6
7B3
017
7DD
77D
75E
739
715
00F
777
787
7A8
7D9
019
7AB
090
75B
0D0
011
0A1
7A8
7EC
7B8
780
759
7E7
03B
04D
7FD
7BF
78B
74D
76E
75A
6EF
745
789
798
7A6
7A6
001
78F
7B3
7F5
7AC
06F
796
765
775
7CF
74E
79A
7AE
7CC
7E6
7D4
74F
774
706
034
03B
7ED
7DC
01B
7F2
7A1
09E
01B
7A2
792
098
011
