7EE
022
7C3
744
7F4
7DB
77C
7B9
732
00D
78D
0A5
075
001
7C3
04C
0A0
021
07E
7D7
726
721
751
702
6E5
015
76E
789
087
7DC
7BD
064
7CD
048
070
027
7BE
7AA
038
05C
014
7B4
7C4
7F0
01F
7E4
7F9
04A
053
7BE
028
033
0B4
79F
7F3
77E
7B0
060
05C
7FC
797
7F1
02E
09C
7D1
027
014
046
008
013
7E9
7EB
7F3
7F8
7F3
066
00A
00B
089
064
013
024
7FE
7B5
7BA
7E5
0D0
0D5
796
7E2
00D
7EF
796
027
01F
01C
7E0
7C3
7A0
020
7E3
057
7D2
00D
7D3
7EE
003
032
02F
040
7EB
037
058
7AA
057
7FB
035
013
769
01A
037
00D
041
7FD
031
045
069
02C
016
00D
017
040
03A
7D0
031
015
01D
00D
7C9
7C1
003
00D
7C2
7C5
743
7DE
7E5
7DC
002
028
7C8
7FA
032
003
001
7FB
024
04D
7FC
00F
045
03A
031
054
08A
052
79E
61D
077
7F4
7F5
7D3
7B5
7BF
7FB
017
7A4
021
7B3
7D5
7ED
013
7C0
7FE
7CD
01E
001
054
04C
060
03F
081
01D
02F
00E
68A
043
030
007
01D
7F7
7CE
7B5
790
002
01D
06C
014
006
7FA
057
7F7
01C
062
02D
7CC
005
7C5
07F
04A
00D
005
7AB
6D4
095
07F
02D
005
052
016
000
7C8
7A7
787
02F
060
04F
01D
008
7E5
7CA
010
7E8
7BF
018
7F8
793
7C6
01E
0BC
7F3
71F
0F8
0D1
060
014
02E
01F
037
7D8
03B
7F3
014
048
0A6
02F
071
078
7FA
007
012
7FB
025
022
791
7C3
023
7DE
77F
6ED
131
00B
79F
75C
7DB
033
00F
079
02B
7D6
10A
079
0C5
09E
0BE
0A6
021
054
084
05B
7CC
7F1
7F5
7D9
791
775
7B8
6DA
033
7DF
76A
759
028
00E
00B
085
797
791
01F
059
09E
044
036
05D
044
051
068
016
7F6
025
7D1
795
6B4
706
78E
7DB
07A
077
010
00C
09E
7B5
066
0CC
7EF
7BD
00E
075
0A1
7EE
00E
028
0A1
090
058
049
0C9
7E1
040
75B
6F4
69B
7A2
755
7A2
764
7F2
6DE
794
779
041
01D
04A
7B4
7E0
027
0E2
007
7CC
015
04B
059
096
06D
059
099
0AC
017
71F
77B
7B6
022
747
797
7B7
7AD
7F5
7C5
7DA
00C
003
7A2
7F4
047
7C7
7E9
7B2
7C1
02F
7E4
039
030
04A
093
000
004
6F1
730
79A
761
79D
7CD
7B0
74A
7E0
745
77E
7E8
7E1
7B0
000
020
025
769
7BC
7C9
7C6
7B2
02B
051
01A
055
000
780
7A1
795
75E
696
033
79B
7D1
754
7B6
79B
755
761
7A7
771
74D
029
03C
7B2
7B8
7E6
7F6
00B
01B
02C
023
01B
7E0
76D
733
654
6AF
621
045
01A
7DF
7BE
7C0
7D5
7B6
79D
76B
76B
7B7
01E
793
7D8
7A5
003
7FC
026
7E5
02A
7F7
038
7FB
76F
795
6CC
6A7
600
041
7EF
015
7F9
7F7
7FD
7C8
033
7A4
794
016
017
7C8
012
7FD
018
7F6
02C
7F1
7C9
032
021
754
74D
7B7
69A
6DF
64C
016
7E4
005
081
074
025
7CA
7F3
7FA
010
7F4
029
7C1
7A8
7DB
7CB
7EA
7FA
7C2
03C
01B
7EB
730
794
765
697
673
6DB
08B
7FF
092
031
00E
04E
032
7FC
007
035
7EA
035
01E
041
027
013
7DA
01E
019
7ED
037
71B
765
7AC
6A6
60B
644
771
085
008
01F
014
7AE
7F6
7A9
7BE
014
7EC
7ED
7EF
068
7E3
7D5
7B6
7F1
006
7E1
041
7E6
75C
77F
774
724
69E
6DD
69C
7EA
0AD
074
072
033
018
049
083
7D3
7FF
774
059
079
003
79F
7DD
7FA
7C1
7D7
772
00B
748
7B3
726
6AF
693
6CA
03E
06B
0B6
1F7
0D1
05F
0B8
095
077
03B
7C2
05D
01B
03C
07C
1D1
1CE
10B
131
04B
054
015
77F
712
698
6D1
6E2
7AA
748
07C
0C7
1A5
0D7
150
0B5
09E
09A
7C8
762
0C2
047
0A5
0E9
1FB
2BC
26D
1B2
11E
0C9
070
012
69F
6A8
6A8
6CB
74C
01E
01A
04A
113
033
135
1EA
024
157
142
1A5
2CB
32F
29A
269
22F
246
3AA
238
2CD
206
195
11D
74F
678
719
78A
005
7E6
0BC
00C
093
7B2
0F6
0E5
0F8
1F5
26F
246
2CB
2D6
1FA
2E4
2BA
312
2BD
2A1
30F
1DD
2C7
1B3
002
79B
75E
773
7B3
012
022
0DE
069
097
0A2
195
1FF
2CC
1D5
327
2C7
2FB
364
2CC
32B
084
2D5
288
248
2A7
26D
29E
1F6
043
7E4
771
009
7DC
