020
017
02B
090
10E
138
0E5
0CD
0BA
03D
0CB
0D8
09A
779
076
05C
000
076
0B8
13C
02D
090
0C6
13C
13E
012
108
0A7
7A6
7EE
005
78B
020
049
064
033
010
790
077
7B0
00D
06D
098
7CB
7DF
05A
039
019
01D
7EA
7C4
033
027
0A3
02D
0EF
746
72D
747
790
78D
7E2
018
7EA
043
7FE
017
074
01E
03E
053
01A
00D
052
064
02C
09E
072
0B9
079
05A
075
092
7E7
067
7AF
023
061
057
7D2
05A
7F2
021
7FD
01F
049
092
017
03F
021
037
049
052
0B6
058
079
072
04A
030
011
078
03C
02E
763
7D9
020
024
045
026
043
053
031
034
034
7FA
046
010
015
045
000
03A
030
046
02F
044
059
04F
034
038
040
7EE
74F
023
02E
019
039
043
02F
031
037
056
029
01E
07D
005
011
02F
02C
018
017
04B
065
009
03B
08E
062
019
0BC
706
71A
0BC
075
079
071
06C
04A
058
026
07B
022
04E
024
042
010
013
7E8
008
002
08C
037
016
04C
00C
067
03B
099
068
739
776
095
00D
02D
03E
048
02F
08E
029
014
030
034
04D
054
04D
05B
036
003
7F8
04A
0A6
036
017
017
025
095
733
74B
7E1
093
032
054
01F
046
024
09E
059
088
064
052
08C
033
089
018
03F
008
032
030
049
03B
082
001
072
017
78A
747
016
049
03D
021
04D
062
03F
037
018
027
061
04A
048
049
02C
04C
04A
02C
7E2
05A
037
040
0C5
03F
0BC
097
79E
7B9
032
077
056
0D5
02F
012
08A
00A
7D4
00C
057
058
065
066
052
00D
023
03D
002
074
013
033
076
0B1
0A8
065
734
715
02E
014
02D
002
054
043
0A4
004
7EC
7FC
06D
013
7F3
020
029
037
026
7F4
026
00F
056
01C
03C
055
031
0D0
7EC
712
052
031
036
035
7F6
073
056
018
064
02F
009
024
071
026
049
016
00A
7FD
061
050
02D
7EF
7F1
014
7C8
08F
09A
7B0
05A
047
010
07A
7E2
7BB
01D
013
01F
01B
034
03F
047
023
08E
7E5
01B
00C
080
057
077
074
065
089
04D
0A8
7EA
7B0
002
7D0
7ED
013
7F2
00A
048
010
7C4
057
072
03E
077
04E
058
027
08F
071
039
029
019
017
7F8
014
065
087
7ED
7F8
02B
036
013
7F5
020
7FE
7C8
7F5
01B
05E
079
074
09F
0A7
042
022
05C
051
001
01E
023
7E0
7F4
06C
7B3
046
7DE
75D
7CA
77C
78A
766
7C7
786
76D
7EB
7DE
051
067
06E
035
7CA
7F6
034
7E7
7EE
7B3
7DE
7F4
7D8
03C
7E9
7A2
7F1
78D
77A
007
7FC
723
751
718
725
762
7A5
7AF
7DD
7D5
7CB
7B6
7C5
7C8
7B3
7D8
7D2
7BB
7D2
7D5
00F
794
766
7B7
782
6EF
76E
759
6FC
6A6
726
700
714
755
79E
780
765
7C7
764
780
77B
77F
796
77A
7D0
78C
79B
7C3
742
79E
751
74F
6ED
743
6E7
78C
735
6E5
776
76A
799
783
760
77B
750
7A2
78F
7AF
7A1
788
793
7AE
7D3
76F
7A5
78D
745
736
741
732
7A8
673
6CD
772
763
782
7A6
77E
79E
7AE
787
771
773
764
795
7E2
792
7F7
787
7D7
7A4
7CE
77B
7D0
773
7D1
795
001
06D
6A3
6AB
69D
747
752
7B9
772
737
7A3
784
7A1
777
7DD
79B
797
7C5
793
7C5
7AF
7A2
7E3
7DF
000
7F5
7E2
77E
07E
042
669
5FF
730
772
6FB
718
786
780
75E
70A
78D
706
767
75A
79B
779
7C2
7C8
79B
016
005
7BB
7EA
009
05F
7EE
7FD
737
6E1
691
6CF
7AF
796
7BE
6FB
71A
7CB
79E
7A1
795
70C
747
6F3
776
6FD
772
766
001
7E0
70D
79E
7A6
7BE
035
747
70F
74C
7CF
7B2
034
73E
759
758
773
7EA
774
69D
6C8
6A9
610
746
680
71B
687
6D3
704
6F8
6B0
712
748
79F
741
743
76B
77E
0CD
045
000
73E
7B8
0D8
09E
79A
71D
6B9
778
6C0
702
72A
75E
72D
742
755
7CA
788
73D
7CA
74A
7A2
73B
779
000
715
002
001
738
709
709
7ED
780
6F8
75C
7A0
7B4
786
764
7D3
003
7F0
760
041
7F6
07F
029
785
7CC
05D
77A
784
7E5
785
7B7
7AC
75B
7CF
6D4
006
724
6EC
72E
778
752
769
77E
768
029
78E
699
789
7B6
6F4
731
7A2
7A5
7F5
787
004
7F0
