00B
000
7C2
034
7AE
024
756
792
7ED
771
7F5
03D
7E1
7D6
007
055
7C6
002
7B1
014
74D
79E
006
035
7F1
745
7D3
7C8
075
011
035
7A9
7E3
005
0AD
056
746
7EA
7E8
7FA
794
74B
0B1
059
085
04C
008
7F5
7FB
05F
020
07B
7A7
7C0
0C8
022
7FD
041
006
00F
00F
01A
017
776
741
798
76F
6EB
711
79D
05A
0E6
024
7CB
7AC
027
762
049
01C
047
7AA
095
05E
055
78B
04F
785
6FE
7CA
04A
72E
6A9
760
6D6
7B0
73E
718
781
74A
797
06D
05E
084
02C
030
787
7D7
7E9
748
011
016
036
01E
06A
79D
7A5
6F5
673
5AE
6D2
7B5
6B7
6FB
728
772
799
7C5
7E1
7F7
053
7CC
7F9
01E
7DC
7D3
7E9
7CC
006
7CE
0A9
799
035
7BE
6A9
69C
791
018
750
72C
73B
7EC
7A6
77A
766
792
7DA
04F
015
08C
026
002
7A6
7BD
7C2
797
7DA
04F
061
03A
7A4
75C
797
7F4
7BA
762
018
75A
7E6
7C7
7A5
7C5
787
763
745
78C
04A
021
085
01E
7D8
7D1
7C2
7AE
759
05D
09B
0C1
777
00A
7CC
7F7
7A6
7D9
036
040
7E4
7D9
795
7CE
007
7DC
7BE
705
7C2
07C
074
074
07D
02B
7DF
7CE
00A
039
083
06F
026
7BD
7B4
7F2
7DA
041
7D2
7F5
050
7EB
034
7CC
006
78A
758
787
756
7FC
7FE
055
08A
031
027
789
7FB
00E
7CC
7F4
08B
00D
7A9
7D5
789
087
028
060
7BD
7CA
02B
05D
01E
7BF
78F
73C
746
767
01F
06F
077
030
048
084
7FD
05D
76C
055
09A
062
04A
7D6
05D
03B
017
0DD
00E
7D9
0A9
05E
061
029
756
6A3
72B
7E0
7E7
00C
009
07A
05D
098
04F
0AF
7C2
7A4
778
078
026
052
045
00C
06A
7DF
07C
08D
07C
0BD
072
7F7
679
6F2
781
7CB
7FA
031
045
033
07F
099
07C
7FB
7EB
769
7D6
057
034
061
7DA
08D
7C5
7BF
02D
077
089
072
7C0
7B2
636
71A
7A3
050
01E
03F
007
08E
048
053
0F9
026
075
035
002
098
001
7E2
01C
7ED
075
7AF
051
7DF
048
019
7D4
6D6
680
770
008
001
025
053
088
0E7
0CD
7EC
087
09B
7DB
051
084
041
7A5
752
010
058
05B
09A
083
076
7D4
778
7CC
688
6D7
762
025
00D
05A
07C
0A9
0A0
07B
07A
069
04B
7AE
00F
0F3
7E3
78F
054
027
7F0
013
057
013
038
71B
735
6FA
73C
70F
00F
094
017
084
06E
085
057
01C
064
0AD
06B
000
7BD
7CB
01E
7A8
7CB
7C8
027
065
030
07B
7A7
711
622
76C
717
7EC
032
064
091
070
0A3
01A
054
7F7
7DB
091
00F
023
749
02C
7D2
07F
02F
051
798
01F
010
7B5
755
600
687
77A
026
085
0B6
08C
064
07D
017
018
7F3
07D
08B
023
7D9
7F3
7CF
059
7D3
096
088
079
024
749
7CF
7A4
67A
700
75E
04F
0DB
065
073
050
026
072
023
054
7C3
09D
7F9
012
7ED
7D0
6D1
7EE
052
011
03C
07D
041
798
759
6BD
72B
78F
036
07A
08B
061
069
07C
071
02F
008
045
00A
067
08D
7CB
056
0BB
758
027
7F8
04E
7C2
075
08E
7DE
773
782
792
0C4
047
0A9
06E
008
022
79D
7FE
7EE
06B
059
029
04A
769
7F4
04E
070
7A7
040
7FA
050
7D6
06D
070
7B7
784
742
7E2
04F
049
07A
05A
01F
03F
02C
035
00D
7E2
00F
04C
019
7A2
765
0F1
0B1
0C0
080
05D
07D
09C
7C9
01A
7E1
784
7B9
7F6
7FA
07A
04F
02D
018
003
7F7
005
7E2
023
7FD
7C2
7D8
784
710
78E
07C
111
03F
7F1
7E6
7DB
7FD
7C8
002
034
7E9
7EF
059
0AE
03F
009
06F
018
03C
019
021
01C
00A
7EB
7B4
7D2
04F
7C5
096
110
089
076
02F
7A9
782
7F6
7E9
7F9
7B4
7CD
08E
09A
02F
07D
05D
001
7F9
003
791
7D1
061
7F7
066
036
0F5
774
785
7CC
0A0
08F
7D3
7C0
7CC
7C2
03F
78A
7AE
025
08C
087
065
02D
06A
01B
002
7B9
7F3
7C8
7D1
037
7E4
05F
00C
043
078
79A
022
0BE
785
05C
7DD
7B5
7AA
7AB
016
03D
028
7D5
0AE
07D
0B0
00E
02B
04D
002
098
7C7
799
00F
058
7ED
700
001
76F
7A3
029
078
046
0FC
066
736
74B
773
7E1
054
7CF
001
0C0
080
111
13E
12C
172
14A
013
05F
09B
6DE
040
055
016
