3FF
007
032
06E
07F
012
3B7
060
3F6
0C0
0E0
057
3C2
381
06D
3E7
03D
027
32B
3A8
04F
038
03E
04C
3F5
042
3CC
03A
06F
3F2
3D0
020
02E
334
399
3C2
3CC
02C
042
062
3FD
094
3D9
011
024
33B
3ED
3F6
011
0A8
087
05E
04B
03D
08B
086
35D
38C
3CA
338
35B
343
3BB
367
018
057
03E
09F
3C7
076
394
3E6
3E8
019
3B6
04A
385
3BC
00C
010
06E
089
07E
0EC
00A
3DC
058
3F5
38B
3D1
391
01B
024
011
046
024
37A
39C
357
028
3AE
3CE
3BE
3D1
01E
3EC
02D
034
3DB
051
3D5
073
375
3F3
384
3E2
3C4
3C1
3DE
056
020
38A
01B
01E
021
00C
3AB
390
3CF
375
3FE
03B
3D8
00F
001
042
00F
031
064
0F9
3A1
30B
313
33A
064
3BB
3D3
011
00F
045
3E5
009
000
3BD
3DD
3D7
3BF
3CB
392
3FF
000
033
029
3F2
009
095
0A5
002
02F
396
370
015
00A
067
00F
3AD
3BE
3EA
3B4
3B7
3B9
3BC
39B
380
35B
360
3FD
3F3
063
056
007
3FA
3FE
3BB
021
001
0EF
040
3F3
011
3C0
020
3B6
3E2
031
013
03B
3E9
3F4
37D
3A0
3B0
3D3
011
052
00F
01C
3E4
3FA
03F
023
3B4
37F
330
04F
3EE
3F1
3FF
019
03E
3D0
076
08F
057
00B
3F4
397
379
37B
00B
022
024
043
3DE
026
3F4
016
3DE
3E3
041
36F
361
073
3F5
034
04F
034
07E
06F
3DA
00B
370
377
39C
36D
3E3
3CE
06B
088
074
07D
029
3EA
037
021
043
022
053
3CC
0BE
0AD
04A
070
091
3E3
008
00B
3F0
329
35D
36F
394
3C9
3F9
09A
077
0C7
08C
04C
02B
02D
3FE
3D0
3DB
3C0
395
00E
065
119
0BC
396
00F
35C
30C
32E
2F6
359
361
32E
373
394
021
3E1
3DD
041
068
010
027
033
3D1
3F5
36C
3D1
38B
3D2
05A
075
066
38E
010
05A
2EE
049
35A
35A
391
344
34B
39C
3E3
012
3DD
38F
004
3FE
3FF
002
03E
004
3BA
041
071
0CC
035
047
3D0
01C
3E9
3FF
3AC
37D
01B
3EB
3CB
3F3
3D9
023
3AF
3CB
3B3
39A
3CC
3DC
3A8
3CC
01D
3E3
3B8
04F
0A8
0CD
39D
06A
00D
03C
09F
3F3
035
036
3FC
059
3E9
02D
02A
01D
031
3D8
3E9
3A1
378
37D
394
320
3D6
3FA
021
0A3
0BB
117
394
037
02D
027
03D
064
053
0A0
01D
08D
05D
00E
005
3E0
3E1
39F
393
358
393
3A4
322
380
01D
0C4
06D
0F6
06A
0B2
3C0
378
365
37E
3BD
3E1
07E
044
0E3
06F
0E6
3EF
3BF
05D
396
3AC
394
3B5
3E2
321
380
03A
0CA
0AA
072
09B
00D
04C
3D8
3A5
327
360
3E7
351
026
3F7
01A
058
009
3CA
017
3EA
3D1
380
3BE
3A7
395
3EF
04B
0ED
093
0C5
07B
063
02C
019
317
3A1
385
39A
2F4
2DC
3F7
016
3EF
3CD
042
3F6
3E5
3AF
035
3D5
398
3DB
00A
0CA
0CF
0C4
05E
087
077
042
04D
38C
396
3DF
3F4
351
312
350
3D8
35D
328
3BB
3C5
3CB
050
3A9
3A1
3A9
3FF
013
084
0D1
08A
095
053
080
03F
084
035
3A2
2DE
039
042
083
035
3BF
346
341
3A2
2E0
3EB
398
394
38B
3A8
3E5
01A
0BF
0F9
0E5
064
02C
013
09C
053
052
005
3CA
259
025
0FE
03D
0D9
3DA
303
3B1
3D1
327
355
332
395
3AD
3E8
014
0E1
0D8
0B1
0BB
04F
06C
058
0B0
0C8
3FA
3D6
3AA
275
0AF
0CA
0D2
09A
039
034
027
3B9
3D3
02E
01A
3F9
3AE
006
080
082
0A4
078
035
05D
079
3FC
3BD
007
3A8
068
35E
012
04F
3D7
05D
00A
0D0
074
034
09A
059
077
075
066
0CE
0B2
03E
017
06D
01F
3E1
09F
041
01E
02F
0AD
07A
04B
2E5
37D
3E8
058
3E1
008
052
0C7
065
030
0A6
066
3D8
0DC
006
3FD
3F2
01D
02B
3DF
025
028
03A
08D
39A
083
07F
062
34D
0CB
3E6
03E
043
022
05B
09A
3DC
3FD
3FF
3EF
028
07D
052
041
00E
0D2
04B
019
04C
017
001
020
3CD
34B
3FE
01C
07B
3E3
0CD
078
033
009
08C
123
0BE
022
026
036
058
06E
047
01D
064
3FF
3DB
3F0
055
010
375
322
327
393
041
0A0
3F9
3E5
08B
115
080
1A0
136
116
0B9
0D0
0A7
0D2
0A0
0A9
0E6
08B
05A
086
065
059
3F3
3CB
3C9
381
328
007
127
00E
3E4
00C
