3DC
00E
3B3
00A
3C7
04A
04F
025
0A5
048
059
101
028
35B
3DC
365
3DA
3B8
079
36A
370
382
309
34E
367
01C
08C
056
39C
3F0
3A5
3F0
067
3D2
03C
3D8
017
3FB
009
042
3F7
08A
059
3FE
395
34B
3C8
067
018
3F1
3BB
3D7
057
004
3AD
3A5
363
01F
042
0CB
029
042
089
0C6
0A9
069
109
094
0A5
0AE
0CC
0A4
07F
04D
09D
3F8
040
0AB
07F
09A
0EF
057
3B1
092
066
39D
321
0A9
060
08F
059
0D3
016
003
06C
023
022
032
3C0
030
018
052
075
073
083
13D
138
0D4
082
036
07E
3A1
343
338
374
025
066
001
3FD
3E8
39F
3DA
3D6
3E3
051
01D
009
3F8
3D5
042
3CF
3B6
001
010
3F2
051
3E3
027
06F
088
3FA
3ED
070
068
050
3C9
3CB
3DF
38E
3D8
3F3
3C3
3E7
3E5
3D3
04D
070
01B
026
3F9
3F7
3A9
019
3BB
3D1
3DF
07E
0D9
07F
049
3BE
015
3A3
390
395
010
00B
3D6
3D9
3D2
3FA
3FA
3A1
005
3D7
01A
3AE
3F1
38D
3D2
3F9
39A
3C2
012
11D
09C
3F7
03A
004
3D5
01B
352
3F9
363
3C4
04A
3CE
3D0
3F1
027
029
054
3DB
3C6
395
3B7
3E0
3C8
36B
38E
397
03A
0F1
1C5
03B
0DE
03C
397
00F
3F2
3F3
3AC
3DB
373
39C
3BF
37F
03E
076
0AE
09E
067
02E
05F
029
026
3CF
3F1
3CD
0C8
11E
16B
3EB
029
3EB
3A0
04C
3FB
3E4
37C
387
397
38C
382
3F0
3F4
3F2
006
06B
054
04A
012
01B
082
02D
01D
006
07D
19E
184
03C
3A1
3F1
393
393
3F0
390
3B4
3AA
00E
033
04B
3F5
017
3DB
3A7
04F
00B
041
3FB
00A
055
07A
05A
02E
07E
128
154
39C
3F6
3B5
386
336
3C2
3D4
004
00B
007
05B
026
04C
3BE
397
001
3F6
3BE
010
02E
038
0AA
3FF
06F
02D
00D
05B
096
36A
3FA
38A
04E
016
391
3FD
3F7
039
074
01A
02C
01E
3FE
3EE
3B1
3CA
3EA
02F
00C
063
000
05F
020
02F
02B
0BA
05B
3FD
36B
01E
3BE
3D2
00A
3E5
050
097
0A8
072
04C
030
3EA
3AE
39F
3BA
3E5
3E9
3F3
3C7
3C7
046
3C6
065
3A3
02C
085
3C6
389
088
04D
044
08C
076
064
075
030
04C
021
3FA
396
3E1
375
372
3A0
3F9
3B5
3C8
005
055
3EE
021
007
3BA
060
055
05D
08D
0C7
075
035
091
061
04D
039
002
398
3CD
3A7
3D4
003
3C0
3ED
397
3A5
3DD
3FD
3CD
08F
022
376
3E2
391
037
056
08B
3B2
087
042
036
021
069
39A
39E
36F
3DB
3B4
3D9
025
3ED
3D3
3CA
3F8
3C3
379
3D5
3E7
36A
014
3CD
3BC
3E3
092
3A5
04F
3E7
3BD
00D
037
012
3BC
36C
364
3C3
012
3EB
3D8
00E
3E4
03A
3E5
01E
01F
3B2
3DB
36A
020
3E3
395
051
0D0
04D
077
00D
3F5
3EF
005
01D
3AE
381
31F
3B0
3CE
3F2
3B7
3C3
01C
04F
04A
3A8
3CF
352
389
3B1
3A6
3DB
079
007
109
08C
056
098
076
3BF
014
3DA
3FE
396
381
35E
00B
3CC
3BD
3C6
3A6
37B
3A0
3BF
38F
356
393
01F
3D9
028
388
109
171
0BE
09F
0F4
0FC
079
0E6
0C8
098
001
3F2
35F
047
020
012
3D7
3E2
3BF
016
03E
01B
3C7
3C4
012
376
36E
3E3
074
3E7
06F
09D
0A7
153
11A
0F4
108
0BE
0B0
068
016
04D
0AA
087
059
08C
082
08D
050
02E
049
01C
066
377
37A
3C6
320
309
3D1
083
025
0BC
09F
124
131
101
0B1
084
088
058
080
09C
0AE
0DD
09C
0B7
01E
080
053
09E
055
070
3D0
371
32E
2CE
2E7
07E
3BD
3EA
3ED
064
0C5
09B
0C5
0CD
067
091
09E
097
079
0AE
04D
076
08D
05D
071
05C
011
05F
344
3A6
300
251
36A
3ED
02B
08F
059
061
058
0BE
0AF
0CC
057
076
02C
077
053
030
001
02E
091
3E3
0A4
0C3
3C0
3E0
36D
3C8
3D3
317
31D
354
2B9
32A
014
3E5
033
3D8
3C6
062
074
03A
01D
025
3E4
3E0
03A
063
06C
08C
05E
04F
055
33F
006
094
3B6
35B
3D3
3AE
337
3A7
3D7
3C1
39F
3F5
3E5
3F2
01D
3F1
024
3EE
019
019
05C
016
0A2
3EF
381
3FD
3D0
331
051
3EE
38F
343
37A
385
347
33E
3BC
387
372
3D3
3B2
37C
00D
002
050
051
08D
060
3E7
3C6
3F5
35A
301
2FC
3A8
084
066
00E
