000
7FE
7A2
79B
6A1
665
67D
5D9
66B
553
510
5F2
670
6AE
5E2
6A4
6C7
759
792
00D
000
74E
6F8
70C
7CD
027
7C5
75B
785
7FE
723
6D7
6D2
693
5D8
651
651
799
689
68B
653
6BF
75A
739
7B7
01D
7C2
01E
795
029
7E0
021
00F
7F3
70B
767
7AF
780
758
765
7A6
798
7AE
788
032
7DE
06E
7D5
7E2
7F5
7DB
05F
7E5
793
7B6
07C
774
00E
014
7A9
7D9
783
7B5
017
7A6
6C7
6CD
75C
791
783
73C
784
771
76A
78B
7DD
7C0
777
7AE
7AF
7D7
018
7BD
076
029
7D5
7F0
7C9
7FC
7F4
74F
755
003
761
730
721
788
725
772
79F
74C
742
7B6
023
04D
7F8
047
79F
03B
7E9
7E8
008
040
099
084
05E
053
7CA
7C1
7D5
08D
7A1
769
046
770
7FC
00A
7E3
7C1
7F1
072
04A
02E
7FB
059
7FC
023
03A
7FD
7C5
027
09F
055
7F9
04A
018
7BE
720
024
776
045
0BC
0D1
0F4
11C
12B
103
0CD
09B
0AB
042
00C
7FE
7E4
75B
7C7
7D4
7F8
003
7EC
065
7D1
065
7D8
743
7AA
7B6
7C5
0C7
14A
175
10E
1A5
1B5
186
055
037
00E
02E
02A
7D3
7DA
049
01B
004
032
7F6
7CB
006
00C
076
7E3
76D
7CC
0C9
080
09B
1A0
24E
0D0
14A
0B1
096
7F6
05D
03A
03D
01D
7B0
023
053
049
00E
047
06B
025
0ED
0CF
055
7CF
77C
78C
10F
0DA
147
0E6
057
7E2
024
7CA
7FB
056
7BF
044
070
020
003
005
7FE
028
7F0
08F
09E
067
127
1B7
167
08E
098
014
021
115
0F3
034
746
764
7DE
7F5
019
7A1
784
017
010
7E8
00D
7A1
7D7
7F1
7FA
0A1
0F9
05E
132
1BA
216
1B2
11E
058
0CC
002
09E
75C
6FF
7A0
7C3
7FD
7D7
7AD
7EB
79E
7D3
750
78E
77F
7A5
7DD
7EB
073
097
12C
0DA
201
119
1E7
008
053
085
7A6
76C
79F
026
749
7D5
042
7D7
7EC
7CB
782
79F
79F
7F9
7D3
7F6
03A
7EB
04E
096
087
7C0
080
071
146
01F
064
0C8
06F
7CA
005
7BA
7BF
02A
067
7CD
00B
06E
068
05D
7DD
002
042
048
7E7
7F4
009
799
7CC
038
7E7
0B6
0E5
778
08A
7CF
7A4
00B
02E
003
064
048
034
08E
09F
077
07E
014
7EA
034
029
7A5
7C1
020
7C8
024
0A3
7D9
015
082
06C
0A1
01B
7BB
07F
05A
094
04D
007
08F
08E
091
0A9
086
01B
065
7D9
038
01F
7BD
001
7C6
7B5
794
7F5
7D4
7AC
7F8
013
763
7D3
7FC
031
78D
07C
047
00A
05B
06A
091
014
062
029
02F
7DC
022
7E8
7D3
02E
7FF
00A
7B9
03B
067
7BD
02D
7BC
7C9
76E
78E
726
029
005
768
7A8
7D7
7FC
009
7BB
7AD
003
031
031
066
014
028
05A
034
0AE
07B
04D
029
7C7
7BC
7C6
776
7B7
003
7E7
7E6
7DD
76C
797
784
770
75A
7CA
76D
7E0
008
088
012
097
7E8
004
02D
086
052
008
052
015
78B
75F
717
7E7
043
061
055
7EC
7C9
7EC
7D9
716
741
790
7BA
7A8
77D
038
030
0A9
084
072
033
052
00E
7F2
78B
7EB
74D
03D
01C
6F8
0A4
04D
00A
7BD
7EB
029
00D
7F9
018
7CF
7B6
7EF
020
7F4
7E1
03A
04E
0A1
0AC
018
003
05C
038
7AF
76A
799
024
107
0CA
0EB
7E2
007
05D
058
014
04C
068
01C
7C8
060
044
05F
056
059
02F
073
03C
00A
7DF
7B1
03B
777
737
735
01E
01A
05D
0A5
0D5
7F6
089
027
043
04B
03E
001
00E
04C
063
064
058
044
07F
05E
7F9
012
003
7E0
018
7F5
78B
7D0
727
75B
056
086
08B
7E3
0BE
101
174
0EE
073
042
0A3
07F
06C
03B
7FF
07E
7EB
7E6
7C6
7E8
7F0
7AE
763
6A7
6F1
725
738
6B7
012
769
08A
7D3
7DA
059
05D
15D
102
0A8
04B
053
7F1
7F2
7FC
7CC
747
7B7
7F8
78B
7E8
7CD
039
7ED
09D
7A7
738
782
079
79C
77B
730
720
747
016
7D2
05E
7D5
7B0
026
789
7C4
7CD
01D
7D8
046
7D4
7E7
02C
06D
05C
08C
03A
004
735
036
04B
7EB
7E3
00C
771
7A9
008
7E2
00A
7B7
762
773
7B9
7C0
79A
7FD
79E
034
046
018
026
002
056
7DA
71B
71A
02B
00A
768
79D
7F5
7CC
7DF
781
723
788
788
02C
7E9
7BD
02A
037
05B
044
0A3
005
0A7
077
0BE
09A
053
7F3
6BA
774
028
7FE
