7E3
006
7DC
7D4
75F
72E
7C3
6F0
774
670
636
664
5FF
5B3
6E2
6C6
6A6
6AD
6CA
774
6EF
7C3
75E
702
6F7
73D
6E2
73F
765
7E0
74F
73F
729
678
6AF
711
519
61E
5C7
5D5
65D
781
7A9
7BE
7B3
73D
77E
7D5
003
021
7A9
7DB
7A1
02F
791
704
0D2
74D
795
6B4
6C0
6CE
5F4
564
65F
706
7B5
7CB
7D2
7F4
7C3
7ED
781
79F
7E9
7E6
7E3
7BE
7E0
7E5
793
030
07C
7CD
73A
78B
716
709
7B3
706
6F5
704
7C4
00D
008
7BC
015
7F8
02B
004
011
02F
7BC
7F3
7FC
7C4
00B
7B3
03F
002
047
04F
01E
7A9
704
7AB
7EC
7AC
73F
7BF
007
055
028
03C
04B
028
041
051
049
044
077
041
03A
03C
07D
7E8
044
0A3
065
064
7B4
75A
78E
7F4
76D
736
7EA
7ED
05C
7FF
7E4
7F5
7F5
7F3
7F3
01C
01C
045
011
031
03E
066
7F3
068
003
00C
7EF
073
775
01E
04A
790
740
766
7A1
7EC
79A
007
007
7ED
016
7E9
7EB
7CC
7F5
7ED
7BB
7E8
7B4
7D4
7E7
7B2
7BC
022
7EC
068
7EB
7D2
056
798
73E
019
7EA
771
7B6
7BA
797
7CF
7DC
01C
01A
06E
011
00C
7BA
7D5
7EE
7C6
797
7EB
7E7
7AB
013
09B
7E0
00B
7D8
7BB
79C
79A
7AC
7B2
78E
78C
79B
012
796
01E
01F
07D
058
059
011
7F7
7E5
7D4
7E2
7E7
7A4
047
7DC
08C
07A
032
7EE
7F7
7D2
7CD
796
7A1
791
7B5
7EA
7EA
026
02B
034
054
033
7FE
01E
02B
01E
037
013
00C
7E4
03C
7F7
7F9
009
02C
7C5
7BA
783
7C3
7C4
014
00A
7F7
026
7F7
02A
027
07A
074
04D
016
059
05E
04F
7E3
031
020
08B
034
03A
001
7C7
7FE
795
7FD
029
7FB
032
010
081
08C
0CF
094
085
081
085
082
7E1
7E0
03F
06C
062
077
097
00C
044
7D2
7F2
7EC
0A5
08D
03E
048
04E
0A9
087
0DA
0E6
0D0
091
054
061
055
00C
7D2
7F2
7A1
7DE
00B
012
7F3
034
031
034
01E
057
029
00C
1F2
13E
144
18C
0F5
17C
11D
07A
03E
040
020
021
011
7DD
7BE
7BC
7CD
7FB
7A0
7DB
02C
02A
7D0
008
7DA
068
081
75A
177
0E7
0BD
088
038
030
00C
7E9
7D7
02F
011
012
007
7ED
008
7C0
019
02D
7BD
00C
003
7E0
006
00C
7ED
028
7C7
74F
0C0
0DC
04C
765
7C4
7C4
7F8
7A6
002
027
000
07F
03B
044
052
7DF
007
7D2
00A
7AC
7EB
02D
030
029
7F7
027
018
755
0B6
025
7D6
7FD
000
7C4
797
7C1
7F2
027
015
055
060
050
00A
7C8
008
01E
7F0
049
7E6
026
7DC
021
035
040
7F7
78D
058
00F
005
012
794
7DA
7DE
79D
7B9
7D8
7F2
053
043
045
03B
01E
004
7F3
7FF
7E2
7BD
7E2
022
008
7E4
7DD
7F7
016
7D5
7CE
012
791
7E9
7FA
02F
015
79E
7D4
7AE
7FA
046
043
7FF
051
035
015
028
02E
7F9
003
060
7A8
7FF
7EA
7F1
761
77E
76D
7D8
01C
7DC
03F
7F8
005
056
04F
01C
045
7D9
04B
053
01C
039
027
043
03A
7D4
053
061
0E0
7EB
7CC
030
78C
788
012
7BF
7F8
7E4
03C
031
01A
038
040
022
024
004
01B
7DA
013
039
058
07D
042
011
081
071
029
788
7DE
069
6B0
772
796
020
01D
065
013
03A
01C
7E8
7FD
010
033
070
035
03F
03E
04F
04E
055
057
07E
0A6
081
02D
7E1
783
7FF
70F
789
7B1
78E
06F
02B
7EC
064
064
042
063
01A
7F3
027
001
036
064
061
007
093
7FB
02A
05B
052
7D2
7CE
055
046
73D
7D6
042
79F
7DF
024
06E
061
085
021
7EA
04D
010
7D9
76A
78D
7A4
757
79D
792
7D8
7D9
7B4
7FC
011
098
091
777
71E
772
015
6D5
734
7D9
035
049
048
0AC
7C4
070
7D8
029
7D3
745
79F
7D9
7BA
7F2
7B2
776
77F
02D
04A
009
79F
7C8
723
6EA
7C6
7CE
698
643
6DF
79A
7BA
77F
002
01D
7F6
7DE
077
7DB
7C8
7B3
79D
7B0
7C1
018
00B
7B1
046
79F
78F
015
039
78F
7E9
7B0
787
756
75D
74C
735
7D8
7F5
030
00B
7FF
011
7E0
00C
7CA
797
7A8
7C2
02D
01C
7F4
037
773
00B
004
040
7A2
779
774
7FF
045
00F
035
7E9
798
7C2
7D1
033
037
092
040
052
021
042
7D7
7EA
7B2
7F2
03E
77E
789
00A
7E7
