00F
009
01D
080
0F4
0E9
0B0
134
15A
149
0B3
168
15C
051
053
03D
0A4
09D
0A8
0A0
FBB
FB4
057
104
0FA
10F
078
00A
099
FFB
FB3
0B5
074
0A8
03A
004
046
058
020
08C
0F3
06F
087
044
FE4
03F
084
FD7
044
055
FA8
FC2
FF8
0E0
0F0
060
017
F4B
FB8
FDD
FD7
FFD
FE5
F79
FB3
FB7
FC0
004
050
068
092
08E
041
07F
039
07D
FED
F64
F8C
F41
07A
0A3
18D
1D0
F36
EEB
F9D
FAF
03A
03F
002
02A
FEE
010
006
04A
FF0
033
0B4
079
058
0C6
037
0F2
055
01D
029
05E
0A5
0A8
1F0
183
F70
FA8
029
029
077
FAD
FDF
021
002
FFE
FF3
057
052
FF4
03A
096
06F
0B9
0DB
110
090
063
0C9
09F
0D6
0CB
047
13D
FB7
FCA
06E
023
050
04A
01D
051
00C
033
045
043
04A
057
083
0D9
083
11C
0C6
132
02B
F28
FA5
F42
E95
E75
E1A
FE0
01F
FAE
FC1
00F
FE5
022
FFA
03C
FAB
FF6
017
01D
058
05D
07D
097
054
04D
FF5
F22
E16
D53
CB9
D01
C5F
CFE
D24
E26
04C
F01
F6C
FCA
01F
FF4
03F
029
05B
017
023
015
05E
037
FF6
F94
F5E
EDE
DA0
D19
B18
A63
BB5
BE5
BD0
C03
CFB
D83
F93
FE5
FB8
FF2
02D
023
026
072
045
F92
FF9
FF4
008
FC5
F66
F1A
F5A
F22
EB0
DB8
D66
D65
D58
DE5
D27
E02
EC1
E51
F77
FA7
FE5
FFE
FEB
024
00C
FE7
041
FA5
FD4
007
FB5
F6A
F4B
F29
F1F
E94
E2C
E7B
E6B
F56
EDA
F5F
F97
032
048
F21
088
FAC
FCB
02F
033
017
005
FD7
006
FEE
F9D
FE8
018
FD2
FCF
FC6
FC7
F8E
043
FEE
037
089
09E
15C
114
15B
18B
05E
F7E
FC6
046
FB5
01A
FD9
FCD
054
FE0
FCB
038
06D
000
004
057
05B
026
086
06F
0A6
114
11A
187
1A8
191
1D2
096
11B
019
FE6
FEC
05B
0A2
F9C
01B
010
00B
03A
FE3
031
02D
023
04B
067
034
059
086
09D
0A6
0D5
0DB
0E4
0F7
0BD
092
05B
FF2
FA7
FD7
03D
F9E
03E
FEF
FF5
FE4
FF8
FF6
060
FEB
040
04C
021
046
08D
069
0BE
0CF
0E0
06B
078
02C
0A9
062
FE3
FDD
F74
F6A
028
FC3
FEA
FD0
01C
FF6
FE1
01B
FD6
01E
04D
020
02A
FF4
0A6
098
04C
034
FFD
FB1
00B
F75
06C
FF8
01E
FA6
FF3
014
036
F80
002
FE8
002
000
FB8
FE7
FD0
FFD
FC1
004
034
020
049
FF8
05D
FBE
FE0
F87
FD7
FE8
01F
FBD
079
03B
FE8
04D
017
F7B
02C
FEF
FCA
015
FC3
FDC
FA7
FEB
FA1
FF6
FD6
FE2
035
FD7
FB3
FDE
FA3
02C
FF2
FDE
FBF
FED
08A
FDE
02E
055
FFB
03B
027
030
01C
FFD
FEC
FCE
FBD
FCD
FD1
057
033
FF0
FFC
FF9
FCF
061
FC6
FE0
027
031
047
FDD
07F
F97
FC9
00A
FB6
FB9
028
002
FF2
026
FF8
006
FE9
FB2
FD2
FF9
04B
020
022
026
02A
02E
045
029
FD9
FD4
F86
085
0B0
FD9
FE0
FFA
FB3
018
007
037
008
024
FF9
00D
FF2
FAF
FDD
036
04E
005
FFA
012
047
003
FEC
FAD
FF8
FE4
FF1
050
068
00F
F7D
01B
017
012
FAE
F80
FE6
00C
FE1
025
FB0
012
006
058
03E
041
05E
054
003
00C
05F
FFC
FCB
F7F
FD4
013
00C
FEE
F72
FE3
00B
FB3
FAF
FB6
FFA
FF8
FA1
FB5
FC5
FDD
FF7
02F
06D
051
061
03C
067
007
063
FE0
FD7
F31
03F
04D
050
F94
FED
F5D
FE7
FEC
FAF
FE8
FB5
F7C
FE6
FF3
FB9
FDA
FF8
03D
00D
003
038
FDD
FFD
FF9
FA4
FC3
F4E
FB8
074
0F2
0C5
FE3
F8A
FA3
FA5
FF5
F73
F96
F48
007
FCF
FE5
F8D
FBF
FDA
FE5
024
FEB
030
FE3
FAB
FC5
F94
F9E
F86
FF5
061
0B7
0A3
FA0
FCA
F7B
F79
F45
FD1
FAD
FE0
FDF
FE1
00B
FD8
FB1
018
FD3
030
FC3
040
FFD
FFD
014
F61
FE2
F1C
01F
029
0EE
04B
FD4
FD3
FD6
F1F
F98
F2F
F3F
F22
F5B
F3B
F74
FD8
057
FEF
05C
FF8
04A
01A
FD7
03A
064
F73
F67
F59
F39
03D
0B7
00B
03E
F9E
03B
0F1
F7D
F92
F7A
FF3
FF1
FA8
FDE
F9B
00E
FBA
FF3
FE4
FF3
FEC
FC4
FFD
FF7
F40
FDE
F4A
FD1
051
065
01D
FED
072
0D4
0BE
0AC
FEB
FB2
F95
00C
FA9
F15
F81
F8B
F98
FD2
07D
FB7
00B
FFA
01D
00E
FCE
EAC
F7C
00D
F5C
FE7
002
