FDD
FEA
029
050
139
10B
169
18C
21A
1FE
0C1
1B5
1AE
138
1F4
11A
02E
047
0D6
0D5
062
14D
18A
070
0C8
0C5
13F
0D4
04C
012
0A5
0B0
0F7
1CF
15D
081
0D7
05C
082
0D3
119
097
076
FD7
FF3
FF0
003
066
011
0D5
0C7
0C0
02B
019
0E2
0D9
FE2
08A
092
0B1
104
149
10A
015
FCD
FDA
066
01B
F86
0BA
00A
FFE
03F
00A
05D
085
FEA
FCF
03D
027
02C
05B
027
FFB
007
F97
FD4
12F
FFD
FCA
FDB
FD4
F99
F9A
F90
FC3
FAD
F60
004
00A
012
FC1
FB7
094
FDA
000
FDE
FBE
00B
FF1
04A
046
FB7
03D
F97
FD9
F5B
F9E
F95
F78
FA4
FD7
FBA
FC1
FF0
FE2
003
F7E
FE7
FB3
FFB
F81
FFB
FF5
01C
034
011
031
FAC
FD4
EFE
F8A
F5C
F3A
FA5
010
FAA
FAC
FE2
FC5
FCE
F84
003
02F
022
FFE
004
FD5
FE8
001
FAC
015
FC5
FE7
FFA
F86
FD8
FE5
FDE
F6D
021
F8D
F72
FA3
006
FC7
038
002
FCB
00F
FF8
FE0
03C
008
008
FD7
015
FA2
FC3
F82
FCA
F79
FE9
FDA
FBE
FFD
F93
FA3
FFD
04B
FF3
00F
023
FD9
FC6
FE3
007
FD5
FD6
FC7
F9F
FC6
FAF
FFE
FD7
007
FE3
01D
FE9
05A
FDE
FDF
FB8
FB5
FDF
FFE
018
074
FD3
06C
FF1
F95
FC5
FBE
FCA
FE3
F61
FA6
FE3
FDB
FF8
FA0
F93
01F
039
FD3
003
01F
069
031
018
070
F9F
0B0
005
FA1
FF5
F9A
F8B
FDE
FBA
F58
FA8
F87
FFA
FE5
003
FDA
FFF
024
F9E
017
02B
017
FA0
FB5
FED
FFB
F9F
12C
020
0C7
FD2
FA1
FAB
FC3
FE0
FDD
FEE
FCF
FEA
F9B
FA8
FF8
003
00D
FC0
028
043
FCE
FC8
FEA
041
FCF
045
00A
FF1
0C7
F85
017
FCF
FB5
F74
FB4
FBD
F87
F6B
FB4
F93
F63
FD9
FD0
FAA
FB9
012
004
048
023
FCC
FEF
FE3
FDF
FBF
01A
074
04A
F04
FA8
FC4
FA7
04F
F61
FE0
FB4
FAB
FB2
FD4
F89
00A
FE6
F8D
FF8
00B
01D
008
013
019
01E
FE4
012
FC5
031
021
FCF
F5C
FC3
FA5
F8F
EED
F93
F81
F95
F7C
FE1
FCC
F9D
FC9
FF3
FDC
018
FF9
04E
021
012
FF5
FFA
FB4
FF4
FF0
FE3
FB4
F16
FEC
06B
FB5
FCC
F0F
FCE
F50
F95
FC0
FE0
FF2
FD8
FEE
FE6
FEE
FE3
007
03D
FFB
F93
019
FCC
FD2
FB2
FB3
F82
FE6
F60
08C
098
F9B
FC9
F11
F97
F5E
016
008
012
072
032
044
FBE
FFD
008
FDC
FC5
FF2
F94
01A
F90
F98
FA6
FB2
F9B
027
FC7
05E
024
FD8
01A
007
FDF
FA7
077
023
00F
032
FD1
03B
05A
FF2
FB8
010
FF4
FCE
FF8
FDA
FE9
021
FFB
050
FFE
FFD
FCD
FD9
008
042
13D
243
280
2C8
22D
111
0B5
FED
FEB
05C
048
FE5
05A
023
FD8
052
014
03C
066
02F
0C9
09F
111
11B
08E
12F
100
1A7
205
3A9
491
34A
28B
2A6
1B2
108
0E1
082
08F
076
083
052
08C
09D
0C0
0E0
115
132
14B
171
225
140
157
1D4
19A
25C
2AE
3C8
163
0B3
0C9
119
140
167
10B
0F7
122
0F2
126
0EB
0A1
0C8
12F
11D
136
0AE
156
120
0BE
0A6
080
1F8
119
225
246
0D5
075
FBB
FF3
FE0
FCF
064
07A
0A5
106
130
0F6
10A
10A
0C5
112
0F4
0B6
0C6
0A4
01B
08B
FBB
FF2
114
0D1
194
157
FF2
F0C
FD4
F4C
000
05B
032
06C
0A7
0F9
0D8
0D3
0A0
0F6
07A
052
070
05B
063
F94
FF0
FF4
F88
F62
15B
10E
0CE
045
F06
EEF
FC9
F9F
062
050
06F
041
098
04B
07B
04A
042
010
025
045
FD4
01B
F81
009
007
01A
F9C
FA5
04B
FE8
FEC
FB8
F19
009
FC2
FBD
FBB
FD2
FD9
068
17B
085
FF0
FE9
000
FC8
005
032
F9E
F4E
FBD
FCA
FFF
FB3
FBF
049
09B
03A
FFE
023
FBB
0D8
035
FEC
FFF
034
0DF
1F4
0F9
05E
045
031
FED
FD9
FAE
FA8
02C
FF0
FB5
FA5
EEB
021
F97
062
FBD
016
05B
06F
087
005
0C2
0DB
0B0
162
1C0
1E8
FD2
FC7
FAB
00B
F51
FF6
03C
FBE
F91
031
022
03A
FB3
011
094
07F
017
035
F71
05D
F9E
116
0FF
0C1
16F
1E3
1F2
FFC
F89
F31
F72
F5C
FA9
F4D
068
FFF
053
019
042
001
04C
10B
082
FFD
02D
F9F
FE7
083
0E4
0AD
FFC
FC0
0B0
18A
015
F23
F77
FA0
F70
03C
FDF
06F
FC4
FAB
037
FCE
FF7
075
062
104
04C
01E
