012
008
075
09A
108
130
15F
23E
0F1
27D
22A
1C3
187
196
14D
2FF
208
135
0ED
112
094
19A
15F
1D4
159
0EA
119
0B4
097
013
00E
05D
07B
0EB
08C
1B4
1C4
10A
0E7
07C
1CE
10E
101
134
153
1C8
123
157
20B
1A0
1FE
19F
11C
100
103
125
FCD
F68
F7C
F93
F5A
F93
03D
058
FAE
F72
F92
00C
012
035
FA7
006
001
FB8
024
04D
082
0AA
0A2
0CE
0C1
002
08E
020
FE8
F6C
EFC
F4C
FA0
F93
F94
FC6
F8E
F6A
F5B
F8F
FD5
FB5
FD0
F90
FBB
FC1
FC3
FAD
FFC
FFC
03D
FFC
05D
FE9
FFF
FAB
F5A
F10
01D
05D
FB6
FB2
F8E
F8F
F84
FAF
F9B
F58
FEC
FB7
FEE
F9E
00C
F86
045
FE0
FFA
FFF
02E
FFF
001
019
02B
048
064
F90
05E
054
03E
014
01C
FDA
00A
00C
028
F9E
FE1
FDD
00D
030
FC4
00F
002
067
043
00E
01E
035
00D
057
FB4
08B
036
006
008
07B
FFD
047
FCB
047
004
FF2
03F
00E
00D
FE7
046
01B
00B
FDA
FEA
FEE
085
057
01B
026
05E
08F
FE2
140
068
00F
00A
FF8
F5E
027
073
005
02B
021
034
034
018
002
025
03B
042
091
F98
FDF
FB7
FC4
041
FBB
01D
02E
FDC
17E
015
130
03F
02F
FBA
028
03C
05F
035
070
008
064
010
047
00B
FCC
F51
F5B
F92
F53
FBE
FA6
FCF
FB5
F9C
F7E
FE1
16D
FEA
019
FE9
FFA
FEC
FD9
038
031
061
010
054
023
FDB
FEB
FA5
FD8
F90
F7D
F7A
F5F
F6E
F90
FDA
F9C
FD3
001
06B
0FA
FE4
032
FA0
FF4
FFC
FDA
00A
FC3
F84
F9B
F46
F69
F86
F8F
FDB
FFC
FC6
FC5
FDA
FBE
F85
F9A
FEC
F9F
01C
005
025
127
081
FCD
FD5
FD5
00A
FDB
FBC
F77
F80
F6F
F4E
F4D
F84
FC3
FFF
FF9
01B
000
030
003
FE3
F29
004
F98
FE1
F85
0AA
10C
FA9
FF3
F94
073
054
F9F
019
F26
F46
F67
F2D
F9B
F53
FC6
052
FD4
04F
00E
05A
FFF
FF5
FB9
F80
F58
F39
F89
01A
10F
026
F08
F91
FA9
F72
F77
F51
F73
F8B
F32
FF2
FF2
FEC
FCF
037
018
FFC
026
03B
03A
FF9
FD2
FAD
038
F90
EEE
FDF
0CE
FC8
E36
FA1
FA1
ED9
EED
F21
FDE
FD7
029
FE0
02E
03E
01F
00D
030
FCD
051
055
044
017
04F
040
FBF
FDC
FF5
091
102
F94
E85
F67
F3D
ECE
EE0
F12
FAF
F69
07D
05B
055
015
05A
056
076
04F
053
03D
072
046
FF6
028
FC2
020
F6A
FF2
10B
F27
EA2
F8B
EFA
EC1
F0C
F75
FBC
052
0EF
0DB
0A9
052
083
060
099
043
0B7
069
083
08A
0A0
069
032
000
01B
029
18D
F92
E40
F62
F29
F28
F69
F34
071
0DF
090
08B
0B8
096
079
0A5
0A5
0CC
0A0
0C3
0A0
076
094
069
109
04E
056
092
1A6
FF8
EBC
F30
F51
F45
F8A
FFB
05B
098
0AB
07E
105
0EC
0AC
0C6
084
09B
07A
05E
05D
09C
079
04E
043
045
060
090
1B7
F08
FE7
F76
F96
030
03C
01B
02E
01E
090
094
01B
08A
08F
08E
050
031
070
059
05B
02E
044
022
074
055
FDA
097
0FC
EE6
F6B
FBF
FD6
052
061
03F
FCA
FE9
056
04D
051
036
020
01E
03C
05C
069
09F
09F
083
087
0A0
066
0AB
078
127
03B
FBE
FC8
032
036
017
030
01C
025
FC9
017
04D
01D
FE8
FE9
00A
033
FFE
02D
014
04C
05F
090
018
0D2
0B2
09E
057
003
0B8
041
058
FE7
FE1
062
030
F8C
F99
F85
FBD
FDA
F92
FE9
FD4
FED
009
00E
FF1
F96
FDB
017
FBA
019
017
FAB
038
FB5
FED
0BD
031
FD6
F92
FED
01C
00F
F6E
F8A
F54
FC8
FA7
03D
01D
FFE
FA6
F9A
F00
F50
ED6
EA7
EFB
EE4
F84
ED3
FBD
FF5
F6B
FD9
F7A
FE7
FAF
00C
053
FEF
F8B
FDE
FF3
FA3
FED
FC2
01C
FB6
FB4
EAF
DD4
E9A
E4F
DE9
E99
F16
FC4
FFB
05A
020
F95
FEC
FD4
FB5
F68
F1F
F90
F2C
EA3
E9A
F2A
E67
DCB
DDE
E0A
D6A
DAE
DD1
D7C
DF7
DD4
DD3
DD2
F03
F6A
026
073
092
FBE
F9B
01C
00A
FCB
F0C
E85
E6E
E0B
DC6
DEF
DA2
C92
C58
BD8
BA9
CA9
CBA
CA1
D94
E3D
DCE
E73
EE1
F9C
037
05E
020
FD5
039
FE7
FF3
F4C
F12
EA1
E3F
E4D
DAE
E2E
D9F
D17
D58
D2B
036
DB0
E06
DD0
E3F
DC9
E37
DEF
F30
014
032
078
002
