003
003
035
03C
0BC
0EA
0BB
158
1E3
11B
13F
1CE
2C8
2E3
260
299
183
226
170
202
175
1E7
221
06D
0D3
029
052
091
0AA
7F4
0CD
0F5
16E
1AB
05F
21B
23F
179
193
140
1C5
11C
206
2DD
305
21B
19F
1F0
1E6
133
158
109
0E6
0C5
043
173
7B1
07C
17E
0FD
0BC
225
18C
161
10A
0D1
055
0B2
03C
04E
0AA
066
12E
19B
1BA
044
13A
093
1A1
143
7FE
050
777
05E
0D5
0B0
0AE
0DD
0B0
112
092
7ED
00B
0B1
7E3
04D
061
036
0FD
7FF
108
0D2
1B7
110
063
7FB
044
113
7C8
75A
728
6A2
071
063
061
07A
110
099
061
098
0C5
0A1
07F
097
7F3
052
053
04C
004
092
0A7
048
00B
7BB
7BD
068
7D7
632
662
625
0A2
0B1
069
04F
03D
02C
08F
03A
098
0B3
05F
050
049
7DC
7D0
7A8
01A
044
062
06A
07C
074
045
7AF
6CA
652
4C0
5F7
049
068
01D
04D
079
049
032
025
01E
04C
7E3
0A1
056
7DF
028
7E9
026
013
07D
0F4
180
10F
0B6
72D
6DC
5C2
595
4CF
097
087
065
090
054
08C
7F9
03A
019
7ED
008
0BA
04B
03F
7B4
7F5
7FD
7F5
024
051
0F6
127
7BD
776
71F
614
581
51A
026
092
064
0C7
7E8
094
794
00D
031
7F6
036
0BF
047
030
008
7BF
7C9
7BE
7C2
024
04B
0C0
7A9
785
75A
6BE
62A
5F2
015
025
04F
0A9
7D0
7C2
7F2
011
7FD
020
002
082
029
081
02F
049
024
07F
046
079
079
052
7EF
7B6
78E
780
651
6C0
00D
075
04C
01B
7F8
7A5
7C5
7AD
01A
027
05F
084
074
072
7EF
7E1
020
087
069
037
079
09B
7EF
7FC
7CA
782
73A
7D2
75C
00C
01A
047
796
72A
781
798
786
782
7AA
022
7CE
066
016
7F4
7DF
03D
7EB
05A
035
7F7
7D2
753
769
752
005
042
7F1
01B
7D8
05D
05A
774
7E8
753
776
7C3
791
78E
7CF
011
7D0
7A1
7AA
00E
7C9
00B
08A
007
00C
71B
780
7DB
76C
094
7DB
7E4
7E1
78F
791
794
737
767
766
75C
78E
79A
7DA
7CB
7BE
7B7
7B7
7FE
7D8
7F5
015
015
786
75D
7C6
7C8
018
079
7A7
7A4
7F0
7D4
001
7E8
00B
003
7C3
7F8
7C0
7AF
00F
025
7F2
7EF
7CF
7EA
7C2
7F7
7A2
015
7B1
7B1
7E9
7B5
061
055
7DA
7D9
035
008
7B3
7D3
020
03B
039
095
070
02E
019
032
7DF
7FC
022
015
06F
074
03D
06A
03B
7F5
7E5
09B
077
032
025
00A
7D1
7D2
7EF
02F
051
7BA
071
05D
0C9
09E
06E
021
07C
04A
7B1
050
05B
047
071
7F2
0D3
7F0
019
7FD
063
7BE
0BF
000
7C7
7B2
006
02C
7F4
7C7
7D3
7F0
08D
028
087
036
093
064
04F
08C
0AD
09E
088
02C
017
028
02C
065
7F1
02F
0BD
7A1
773
7BC
01A
79F
7AC
7B4
7D0
7FE
0A0
086
06D
021
061
7DF
028
025
054
0A2
0CB
056
056
055
02C
078
70D
731
0C5
77F
79F
7E2
032
7D7
778
7D7
769
7E1
0A9
0ED
08E
024
031
063
0A1
03B
025
0B4
013
7E6
000
792
752
768
6C1
081
0BE
7E0
726
774
026
793
7A4
7B3
6F5
73E
066
154
17D
09A
04D
013
04F
019
00E
790
7F2
7CD
00B
78D
7D2
6E4
702
0D2
144
7B3
7B2
776
795
7FA
79B
765
70C
6D0
7DD
1B0
15C
0E5
03D
02B
01C
7EA
777
773
000
79C
7EF
74C
78E
780
014
18D
19E
752
767
781
7CB
7E3
7A5
791
73E
6B4
721
0DE
0E3
0A3
0A4
09B
038
08A
04B
03C
042
073
02B
048
061
196
114
031
0C8
7BF
770
018
7F4
7F5
75A
75A
74D
6FB
6D4
7E7
064
0CC
081
074
091
0A5
0C0
090
0EB
06D
0F6
0FB
0FA
1EA
05E
02F
0EA
7FE
735
786
7CA
02B
006
7C7
769
755
782
7AA
012
072
05D
0DB
096
0C2
0D5
0A0
071
086
01C
0D0
0EE
0A8
7AF
7B9
06C
01E
00C
79B
7BC
7C0
7B1
7BA
77C
7D6
791
788
79A
01D
02B
091
093
064
019
05D
001
050
019
110
120
023
782
06C
7B6
081
0BD
086
042
770
796
7AE
760
782
795
7B7
778
78E
7B4
7DB
046
067
05E
06F
0CB
039
145
7E0
01F
782
779
002
0B3
7CB
0E0
013
79C
7DC
7C9
777
78C
710
707
764
7EF
7EE
7E6
04F
03F
0B8
076
10D
039
0A2
0E8
04C
07C
097
09B
012
