7E3
7EA
79F
79D
777
79A
771
783
03B
782
72F
6BD
6D2
78E
739
6EB
791
781
7C2
776
77F
72D
714
695
6FF
7F0
733
775
7A1
00E
7CD
78B
77A
6D0
6C4
700
6CC
051
661
68D
669
6A1
748
6AF
72C
6FB
76B
7B9
7AB
736
76C
7DF
7E2
7D3
768
72F
03B
791
73B
722
6D1
6C4
678
660
5F3
62B
645
610
58B
672
642
620
680
76B
75C
0A6
7EB
78C
772
791
7E1
007
7C0
749
78B
00B
760
7D2
687
699
69C
62D
5E6
58B
5C5
6C9
64E
648
63C
618
75C
6F9
6DA
75D
765
742
036
6B5
706
7A4
713
02A
022
79C
79F
79C
70F
6E9
699
5D7
5C8
53C
56D
5D7
694
617
6C0
673
6B1
6D1
6A9
665
5DE
671
618
65B
664
716
78A
7F0
00A
765
6A1
79A
6E2
6EE
6C7
51C
583
5F4
5FB
5C3
605
5FF
637
655
65D
64E
608
619
618
624
6CD
776
708
7EC
7FF
053
00C
7B9
75E
795
7C4
747
75A
6FA
64D
717
6DF
6BB
6E5
665
660
6EA
6BF
69E
674
6E0
7E5
024
796
03B
7FA
7D3
099
0C2
764
73F
799
04D
7E3
7FF
79E
726
759
73E
795
7D0
741
753
78D
763
7BF
7C0
7DB
00F
040
0E3
029
7FB
7E5
7B2
07D
11C
7A3
7E3
032
7D3
7F0
057
739
7DB
728
773
79D
743
7A0
7A1
031
7E9
025
045
017
7B8
035
0AF
0B7
096
09F
799
076
115
014
00F
08A
7B1
7D2
798
719
000
7B7
7A3
79E
7C5
029
7EF
028
06B
01A
027
072
7A7
00B
7BF
06F
038
02A
01B
06F
0F2
034
082
036
7AF
7AC
7BE
796
78A
7BB
7DA
7FB
055
068
036
0C7
028
053
7DB
069
7ED
797
7C9
02C
08E
02E
04E
057
069
038
7D0
043
004
75B
790
01A
068
033
01E
0A0
079
089
030
08C
04F
039
05A
7D1
030
022
7B1
7E9
01C
091
073
06A
146
784
024
7DF
035
073
7D2
7B0
012
005
043
041
067
067
018
0E8
085
074
07C
01D
02A
7EC
03F
005
085
031
06F
084
169
7EA
005
09B
01C
7B4
7B4
7E1
04E
048
05C
042
060
060
033
7CE
051
05E
01D
005
008
7F5
035
05F
03E
07C
041
106
0D3
03A
02E
099
7B5
795
030
003
036
09F
7F2
067
002
7C9
04F
782
7CC
7FF
007
01B
044
0A6
06C
0CE
074
797
04C
098
0D1
089
0E5
0E2
7FD
7D7
74D
7E1
019
00E
7FD
7D4
7B9
7B2
75C
7A1
76A
7E7
013
7FC
057
08E
084
044
035
7FD
03E
0C1
103
07A
0F1
0A1
02B
78D
7CE
058
7FC
00C
02E
7EE
029
017
72A
743
788
798
7D3
013
09D
033
06E
08B
098
017
0B2
0F6
095
01F
08C
091
0FD
7F7
00A
7E7
031
068
030
011
00A
7AE
6C3
6FC
72C
7B1
07F
0AF
0B7
08E
09D
065
0BC
030
090
04A
7DA
013
0F1
128
0BB
05E
7FF
018
7C7
7F1
031
09D
04C
7E3
6B8
70C
74E
024
0E6
0C1
072
097
03C
07B
080
05B
0AA
7C6
7AD
02F
0DE
041
03E
046
7BD
0D5
01C
071
015
0A3
047
00E
776
6F9
78A
0A7
055
022
0C6
015
052
00D
01B
07A
0A3
073
7AD
7CA
0CE
0B4
08F
059
053
03B
060
011
7CD
7E1
02C
74A
732
7BA
0CD
06A
062
055
048
082
05B
077
7FF
03B
7C6
093
7C3
7F1
084
084
02B
78D
115
029
7F7
036
021
7E6
78E
7AB
764
06C
0C3
022
026
064
7CD
7CC
013
00F
78F
060
7BD
7DA
0FB
0CB
0F2
07F
7F6
7DF
059
03E
7EA
7B1
7B8
7D4
79E
759
079
0A8
08C
030
7D4
02D
025
03D
01B
7DF
796
04A
08B
068
17B
0BA
0BB
096
7F8
7F8
04C
7F4
77D
74B
785
77B
7A3
7C8
06F
04E
031
7FA
7F8
7EC
00F
009
79D
7A0
77F
08D
0C7
0FD
0F8
02A
169
063
7BA
786
796
7F5
7DF
6E4
7A4
7B6
7D1
01C
040
057
027
030
009
7F1
7ED
7D8
7B9
01B
7F8
0A1
0D3
099
08E
081
085
00C
00B
04F
7A7
73C
7AF
743
7AF
7CB
793
055
7D2
035
7F6
024
01D
7CA
7BE
039
05F
04C
12A
0B4
11D
09A
046
009
7D0
799
001
0AD
7DF
01F
017
7A9
7BE
084
047
7E6
7BF
01F
7DD
7C4
00B
79F
7FC
7E4
042
013
7FE
166
055
0BC
00F
7D9
001
715
738
71A
7CB
757
731
7A4
78E
7C4
770
7E0
7A2
043
0A7
0D6
045
009
03E
004
7FC
07C
036
0F6
042
03A
01E
