7EE
7E0
7BF
793
6BE
698
70D
6DD
688
70D
7A5
6C7
787
6BC
7B4
01E
6EC
6F3
778
66D
6A4
717
6D2
7CE
783
743
7AE
757
054
7EA
059
06A
6B8
68B
748
733
732
759
78B
702
73D
003
72C
706
7FD
7EB
7A3
779
756
71E
7A7
73C
74C
795
6D1
6A2
02A
7DD
7A2
714
739
790
6E2
662
72F
7CA
769
766
009
76D
7BA
026
006
000
030
015
786
7ED
7BC
7E1
754
77A
738
751
057
09D
76B
068
7BC
77F
757
772
7D9
7CD
774
77F
777
77E
016
78B
78A
7B7
7BB
7F2
7D6
7A9
000
750
75E
6F3
79D
67E
046
05F
0A1
049
04E
067
7D3
016
7D8
048
03C
7E2
7F4
7B6
7A7
7CE
7CF
7F4
014
793
009
793
78D
7BF
737
77A
7FD
77F
12C
01D
022
0B8
00F
029
0B5
060
061
071
025
03C
030
7F5
7CF
000
7F3
7D2
7A8
7EC
7A3
03F
037
7D3
7D9
070
10C
728
189
090
7FF
03B
01B
046
05A
027
7F8
030
049
019
00B
002
7BB
7FD
7EF
7B2
7AB
7BD
7EF
7E3
020
0C0
0D3
104
0B0
766
0D4
053
7D2
004
067
7F2
033
021
036
01E
03F
006
04B
032
7BC
00F
7FC
7AF
7D5
781
001
008
05C
0B8
0FD
171
05B
765
121
09E
7DE
059
038
00F
7EC
051
041
060
03D
07F
000
06C
7D5
7E7
000
7FC
772
749
78B
01A
078
07B
062
0F6
069
7DE
0B8
059
067
7FD
044
003
003
7BD
7DA
7E5
024
00C
7F2
7FB
7D8
7DC
76A
71B
75A
714
779
03F
072
020
0EB
03D
108
165
0EF
081
7AC
7A0
011
005
01A
7F3
7E6
00B
7BC
026
00F
022
022
7C6
76D
78E
7B7
76C
740
08B
09F
0EE
069
0CD
216
1FB
025
048
027
79D
025
7EE
01D
7F6
7E5
7EF
7D3
7F2
002
022
01B
052
04C
065
071
03F
0A1
19F
198
115
117
18B
099
1FC
0AA
7ED
004
7FD
054
7B4
056
7CD
7CF
7C8
7FA
01E
01A
04E
0A8
0E4
165
188
12F
184
221
1C1
1CA
179
11C
0B4
224
210
7F1
007
029
798
01F
7E3
008
7F7
7D3
009
7F7
011
046
7F7
03A
0BF
0FE
1F3
112
1A1
255
211
12E
11B
174
0B9
0FA
18E
7C0
7FE
7CB
005
7A1
7FE
7E8
7F8
033
7BA
7E4
02D
009
035
03A
013
015
065
0BE
0D8
13F
09A
077
062
0A8
082
04B
16F
010
01F
7EC
7A0
008
7D4
064
012
7E9
7FB
048
031
02C
7D4
01D
7B7
007
004
06D
0AD
067
7C6
02A
7F0
7AF
0A4
107
027
7EE
050
032
007
024
02C
031
056
7E3
03B
03D
029
030
7F1
009
01F
7C2
7CD
05C
01D
774
02E
7F7
029
7FA
0B8
0B9
7C0
033
08C
055
009
080
036
01E
03C
001
002
03A
7FF
7DB
044
002
05F
7CA
00C
030
7DF
031
075
03F
7ED
03C
7ED
781
7AC
076
034
062
081
08D
027
010
016
001
02F
000
03C
023
7FE
030
021
006
78D
7C0
7CB
7C8
7F0
7F7
036
03B
792
7B1
6F3
7DF
005
072
098
7FB
082
03E
033
035
7FE
008
7EB
03F
7EB
016
05D
017
00F
7CF
7E7
7A6
7F1
7D6
7FB
79C
733
70C
72E
796
00E
02A
092
04B
01B
040
041
009
043
7E5
7F0
79D
7E9
7F4
7ED
001
7C6
7FE
75D
7BE
7D7
7CD
7ED
7A1
703
749
735
78A
7B4
7DD
061
026
068
05A
02D
054
011
02A
027
031
7DF
02E
7CA
7B8
7EE
778
7C7
78B
7E9
793
035
7CB
772
756
728
778
036
064
026
008
7CC
7DC
00D
7F6
00D
030
7CB
7E7
7F5
7E8
7A5
770
772
776
7EF
7B9
02A
7B6
779
7B0
7A7
7B4
025
7D6
787
040
04F
057
012
7DB
05A
050
044
090
038
042
7E5
7B5
033
009
7B9
068
01A
7EF
055
05E
7E0
7E4
7A8
7C1
72D
009
7FB
7DF
7AF
7BB
00D
05C
029
040
00E
047
000
7AB
034
795
092
7EF
7C1
7C5
77D
04B
02A
023
738
731
79F
722
76F
007
781
7AD
78F
000
00E
7E8
7B5
7EA
783
7E7
06C
7E7
7F0
046
0B2
011
7B9
7B1
770
762
79C
79F
781
7B9
04D
78A
02D
799
04C
75E
042
79D
7FD
7A5
79D
7E6
7F0
00C
7E1
020
7F9
7F1
0A7
025
74E
7B6
712
728
6D4
671
780
7C4
099
798
7E3
7E5
000
05E
06F
7E9
028
015
038
05A
0BF
122
0C0
081
113
0FF
07C
0A8
039
6E7
726
721
720
750
023
6CE
74A
033
014
