7FE
00F
7B8
7D5
7D7
77A
762
019
77B
048
050
7A4
75D
6F1
757
010
7E7
7B2
7A5
734
78F
08D
7BF
070
755
7BE
00A
7F5
050
011
766
71E
71E
6BE
7CF
7C4
7CB
00B
7E4
00B
776
793
019
7DD
75D
74E
7E7
79B
7DD
7FD
7F7
0A7
059
7D7
77F
7AF
042
081
731
780
780
023
07B
7FA
0CB
06A
067
01F
0AF
07D
7FA
010
7EA
00D
7F4
029
061
014
016
004
037
00C
077
04F
085
7E1
77F
7F0
012
04F
7CB
7FB
7FA
046
047
0AB
04E
04E
065
02F
02A
01A
7EA
7E6
004
7D2
7E8
024
04F
09D
7EA
7E4
7E1
070
044
0B4
0B4
071
067
052
062
059
088
7F9
04A
062
019
096
047
059
03C
009
7AB
7D0
7A0
7BD
793
7DF
790
0B3
798
026
089
13E
08E
088
068
012
058
7E6
02B
02C
04D
06F
058
7FC
023
004
00A
015
7E9
010
7C4
004
7FF
7B5
7AE
7B3
06A
03E
084
13A
11B
034
07E
097
7E1
05A
08C
057
05B
03C
00B
047
024
027
7F5
05B
031
074
01F
002
7BE
02A
7C4
035
7FF
052
101
118
09C
081
089
044
05D
00E
045
7C9
02F
035
7EB
7FA
02C
01C
03A
075
041
039
03A
7A1
03F
7B2
7FA
184
0A7
0EB
0D7
0BA
090
027
093
076
02E
059
7AF
015
025
004
7D9
00F
7E2
7C6
7D9
008
7F5
7F6
0BB
06E
0C6
12F
03D
08C
09E
00D
028
043
0C5
07D
10E
0C8
0BD
0AD
006
051
06E
093
027
044
035
7F6
7B5
05B
01B
7FE
7A2
7E8
7A6
79B
6AA
73C
77F
038
051
7F3
0DF
06A
038
0B1
122
0EF
0F4
0D6
0C9
0C4
110
0E9
0BF
021
054
06B
046
02D
002
7DA
79B
6DB
635
6EC
7C1
7C2
7F6
008
7B4
7F0
6F7
739
049
020
066
004
067
048
0A6
056
06F
026
7FA
7E1
7D6
7B7
7E3
7B7
764
6C2
72E
647
062
7AD
74D
729
016
683
71F
5E1
71C
73E
779
786
00A
7CC
7F7
004
00F
033
004
7E2
7EC
7BB
751
76C
742
6C7
6A1
6F6
7D5
660
5F4
633
587
511
544
5D6
617
71A
75E
783
7A5
7B0
7BF
003
052
001
006
79F
7CB
790
7EE
73B
759
774
020
7C5
72A
5FE
5E2
4C2
4FA
601
682
694
651
6B2
755
768
788
7D5
000
7BE
7ED
7C6
009
00D
010
784
7E3
00F
7E8
7BC
090
0DD
723
677
5B8
629
72C
01A
005
07D
7BA
77A
740
76B
761
7D0
00C
028
009
00C
003
019
7F5
024
026
02A
03F
03A
06C
7ED
043
008
6E6
7BE
00C
0C0
07B
048
07D
7F7
7C7
77E
7A1
7FC
7EC
7DF
7C6
7DB
00B
009
037
00B
018
009
7AE
7E8
7BF
027
07E
7B6
062
7F4
7EA
02D
06E
020
053
064
03C
029
7ED
7C0
7DC
7AE
7C0
000
01F
026
05F
061
02F
0B9
7D9
02E
781
075
7EA
7EC
095
037
037
04C
054
02F
02A
046
06B
00F
002
7C4
7E3
7BD
78D
015
039
039
05D
021
00B
014
7AA
011
085
7A1
7F0
7A6
0FA
0BA
027
03F
7D9
046
066
053
059
7E2
037
01F
7D1
012
78C
7CF
7CF
7E8
02C
00C
7FD
01E
7B4
01F
023
75E
023
787
047
0A6
03D
07A
03A
042
037
016
044
01A
025
012
7D2
7CB
7AC
7EB
7CF
050
7EC
78A
021
7F8
7D5
037
064
041
0BB
016
0A6
06B
007
036
7DE
793
7E8
7C7
046
01C
023
7EB
7DA
7F4
01F
7A2
7A6
78F
7F9
784
743
7CC
7BD
002
7E5
078
0D3
7BF
043
788
7F0
7EF
026
7CA
7B3
7D3
7F3
035
01F
7CC
031
7CD
7AD
7D0
7B3
78E
7B2
7B9
7E4
6C4
73D
7A9
02D
0A5
7B4
01F
02A
01B
7D0
027
7F6
026
053
016
76E
7F7
7D0
7B7
7CC
031
05F
7AB
7CE
7A8
7B5
7CE
785
72F
06D
7CE
03A
0C8
77E
069
788
03A
79E
7D5
7E7
7F1
7A9
7B3
016
7D6
7AC
02F
7AA
7DF
78B
02E
7BF
05A
7BA
7B1
7B1
012
0A4
05F
07B
097
797
7C7
086
060
08B
004
788
7EF
038
7A3
000
026
025
006
022
004
7FC
7D1
003
7CA
7F5
7D6
75A
055
75C
058
035
7CC
0C3
759
736
783
045
029
07D
09E
008
057
7CC
735
00C
045
02A
7EB
042
7E5
020
004
7F7
7FD
7C9
763
77E
024
059
020
7EA
03B
6A1
005
09F
053
06C
024
086
10E
0AE
0A7
05F
077
05C
01C
08D
052
0A8
0AA
0D1
051
7C3
7EA
7D0
7DD
7A6
7FA
