3E8
3E9
399
013
3FD
3ED
071
0C5
088
3DC
027
083
123
032
3CE
004
331
357
274
382
370
325
3BE
304
0E6
39A
063
3DF
04E
012
08C
388
07B
3EE
3D5
06D
03C
3C6
01D
00E
00F
3E5
3F5
3AB
3DE
045
044
06C
08D
035
39B
399
048
3E0
065
00F
365
372
058
0C5
3A1
0CF
080
04C
01A
00A
3F1
02D
3D6
000
3BD
3E3
042
3D6
3DF
07B
006
042
3ED
066
02A
3E3
36F
399
08F
3FD
37B
37C
3F3
03B
0AC
059
05C
056
02A
09D
055
002
057
015
3E5
010
3F7
019
019
03B
022
01E
078
026
3C4
006
3BA
03C
3D9
035
063
007
000
041
047
01E
045
005
035
02C
038
05B
040
083
003
04C
007
02F
065
073
04C
037
09B
043
36C
09E
03A
00E
3E4
0AF
06F
01E
01C
039
029
3E2
03D
3DD
03B
032
3EC
039
075
084
050
3FB
040
059
010
03D
000
3E0
387
024
08E
047
050
01E
031
002
3F6
3CE
009
3E7
3EB
001
004
025
02B
010
04F
05F
06B
061
080
027
052
02E
03F
039
02D
3EF
07B
067
04D
013
3EC
020
014
024
027
03D
01E
01C
00E
054
026
040
093
050
06C
05F
07B
01F
036
045
01C
3FB
3A2
3EC
037
3B2
009
014
015
04C
0A2
033
02B
010
003
016
022
011
3C5
3E9
040
006
09F
072
078
06E
094
02E
02F
3F1
061
3E2
3C0
3E2
03A
397
026
031
026
3E0
04C
3D8
3FC
01C
3CA
021
3C7
3D2
3D5
005
3E7
07F
052
0B5
02E
0B1
052
3FF
3B7
3D3
066
03B
041
3A8
3E9
01B
3CC
017
005
002
3E6
3E2
039
3F2
019
3F8
3F5
013
3FF
025
093
075
07C
0BE
0BD
08F
3FA
3DE
03F
04B
021
3A4
36C
369
38D
38F
027
3ED
02E
3C3
009
3C8
3E2
3F4
3FD
3D0
01D
011
062
070
0B3
063
099
174
3C2
349
3F2
083
05C
04D
3E8
3BA
380
3C8
3EB
3C9
018
3CE
07A
3AF
008
018
3FB
039
02B
029
03A
022
045
058
0C3
142
004
018
0E5
08B
082
08B
0B1
046
02C
037
001
01F
046
040
002
000
03B
063
029
04A
033
3F6
3EE
3D6
3F1
3EB
00C
053
3F0
03A
04D
08B
046
0F2
0D3
0A7
015
038
06D
03A
067
07E
06B
061
063
081
053
02B
008
3EB
00F
3E7
3B3
3ED
01C
095
3FC
022
005
001
048
0C2
0D8
03C
0C2
0AD
081
01B
09B
09E
0E3
0B4
06F
041
037
02B
000
00F
3D9
3B7
3D1
3D5
398
088
068
008
3FB
028
3F2
07E
07C
00F
056
091
097
0A3
08C
0E4
065
028
008
001
014
003
3CB
3E2
3D7
3CF
001
3AF
3FB
00B
02F
067
39E
3F8
3BC
012
3DF
3BF
02D
045
3F9
022
01D
027
09E
047
067
007
3FE
3E1
053
002
3DF
005
012
3EA
3E9
0A8
3B1
015
03A
3BB
3C0
3BC
332
32D
39F
3F0
3BF
3CF
3B2
3D3
019
3DC
018
3EF
005
009
3DD
02B
013
008
3E2
398
3CC
3F1
3EE
3A3
3DA
39A
3EE
37D
34B
35D
343
33D
374
369
3BC
3C7
3F0
3ED
3D5
3C9
3FB
017
016
3FE
3FC
3EE
02B
38B
3DE
08A
029
37C
3AD
014
02F
391
372
35D
36B
3A2
387
380
3C9
3B0
3C5
004
033
3F9
03A
000
033
017
3BD
3A4
39E
01B
03D
0C3
3D4
304
3B7
3A2
3E0
3D8
361
3A2
3B8
379
3D7
34F
3AA
3BB
397
3A5
39D
3C5
3BD
3E8
3ED
02F
3E8
048
3DD
3D7
0D3
0E1
35B
315
210
2FE
337
3AC
3E5
378
33C
373
39D
3E8
36A
3BE
3F3
3E3
380
3C2
3C6
3B8
020
012
3EB
01B
04C
032
190
399
36A
368
269
272
2A9
333
334
305
31D
338
284
286
349
3BC
3AC
3AE
3B8
3F0
3D8
313
34F
011
38D
363
341
02F
104
3BF
3A1
34E
39E
003
2EB
2C9
314
32E
359
34C
04D
2C9
2F0
300
313
2FE
2A9
32D
25C
2C0
2D4
2D4
2D5
382
300
393
3A6
37A
3D5
0C0
3AE
026
2D8
2BF
37E
3A4
3CA
011
027
3A9
033
3A2
2D8
2CD
256
2A2
296
385
38B
38B
34F
2FC
3B4
38F
33A
031
3BB
3B1
397
331
2B6
231
01B
36F
021
357
358
3B4
363
3F0
37A
297
2BD
2B5
2C4
39B
37F
2EA
2FC
346
342
33E
05B
021
3F0
3A5
3AB
324
2CC
314
077
310
3D5
34F
339
02C
316
37E
3BE
036
267
21A
2A3
2D8
2D4
2B2
340
2C5
301
012
028
3F0
