024
7F4
03B
0C3
12D
7F6
04E
040
0AD
05F
154
0D6
128
13D
195
166
14D
0F3
0D4
7C5
1A6
15B
01A
0CD
02E
007
7BA
048
7F3
7E0
02A
04F
7AD
78C
026
088
087
16A
0CE
108
162
19C
19A
18B
0CF
019
7C7
028
08B
7C4
165
186
0AC
1CD
06C
0FA
1A6
03A
76B
78E
7C8
03F
063
063
7EF
056
057
010
0A4
0C4
21E
183
1EE
1CF
0D1
07F
0B7
7A6
019
100
0C3
0D8
158
076
77C
7A7
7DF
035
7F4
7B0
00C
7DD
001
067
081
047
095
09D
1C5
1BA
288
214
0D6
06E
022
7A0
024
082
06D
00A
0D0
154
7B8
77A
7B1
7F2
033
7FD
02E
7CB
01F
02F
047
025
00B
065
0B0
1DB
1B9
210
1C3
0A4
7BC
719
6F0
01B
025
751
7E3
14D
766
765
7FC
00C
023
7ED
038
79E
7EA
015
7EF
001
7B4
04A
7C2
09F
10C
220
254
101
09C
731
6DB
736
74B
730
746
016
76D
7DA
084
055
02E
059
03C
00F
7B7
035
7CA
7E1
7DC
00F
783
7F2
0A5
18C
222
20D
1F4
027
755
715
728
7A4
69C
79F
7ED
766
07F
05A
7DC
7EC
03B
799
7D5
000
7FD
7A7
7C9
7FC
790
76E
7A1
00B
149
2AD
2F7
185
7D8
7CB
75A
6AA
6A9
74F
771
73E
009
77B
7D9
06D
02F
7F0
79C
003
024
780
7BE
7CC
7BD
7CD
7E0
78C
7C7
173
25B
220
163
03C
78E
6DD
701
7F0
76C
762
748
7B6
7EB
017
7ED
7AC
79D
7CD
004
7CD
78A
7DC
7E5
7A9
7B6
7F7
7C6
077
126
232
0C4
061
052
7A2
780
017
7AF
7EF
72D
77E
7E0
03A
038
7EA
79B
7E2
7F1
79F
7DB
000
006
7FD
7DA
02E
7F3
054
08F
1E6
0AA
7F7
015
0BE
73E
7C0
099
07F
7D4
772
7F6
039
027
022
738
748
00A
7CA
027
000
028
7DC
05F
057
07B
006
02E
07A
7CC
7BD
7C2
023
072
78B
0D1
107
056
03F
059
00F
032
01F
7A7
78B
7F0
019
054
032
06C
09A
014
02F
050
021
04F
7E1
754
7F7
7AF
7B9
729
04D
0BA
7F7
021
057
7D8
005
01D
7F0
7F3
753
033
096
04A
017
03D
042
001
098
008
005
031
7E6
767
7D6
033
002
02A
77E
03D
7B3
7EA
017
03E
7E0
020
005
7C4
002
06B
057
025
029
056
03B
03E
02A
7F5
7AD
78C
6E6
6F0
789
012
7DB
764
757
7AB
7E2
0AD
038
7D4
03C
7F1
7E3
7FA
7D7
04B
00D
7EB
02F
068
037
006
01A
7C5
053
7A9
6AB
71D
7AF
743
760
7FA
00F
722
779
015
01F
7F3
054
039
7B6
007
025
06A
005
7EF
7F4
017
008
7C0
7E8
02C
076
019
653
68F
788
752
7AF
7DA
76F
789
7BC
750
778
011
062
020
7AB
040
0A2
00E
05D
7F8
7DB
07A
04F
0A0
067
066
058
0AA
743
68B
757
711
7A4
7D7
774
700
793
7B2
7D2
020
7E0
000
7D7
7FC
02B
040
0A3
063
003
035
7D8
03F
7EF
0BD
03F
071
03F
77A
73E
768
7D8
7D7
773
687
742
7CA
7BD
029
7E8
7AA
7F0
7FA
7A3
06A
040
084
012
00C
03D
054
023
060
7D3
030
79B
7A1
783
74D
743
789
717
722
7C9
026
7A9
7E4
7AF
781
7F3
7CC
738
034
059
060
017
7DE
002
00A
05A
00E
038
07E
006
7E5
72B
776
75B
6FB
794
714
770
7AA
7BE
72E
7E6
7A4
79D
767
770
016
0F7
0BD
060
01F
7D7
776
7B9
7F0
015
013
7F9
779
73D
744
06A
02A
76B
774
73A
72F
73F
789
7C7
78F
75A
729
7A4
7FE
030
0C6
078
01E
04F
7FF
7E3
021
7F7
049
7EB
745
772
769
7D2
0D9
08A
781
70E
746
71B
773
7B3
7B9
753
798
7C7
7CE
039
073
05A
0BA
047
7EA
7B3
020
03E
02F
7A9
793
6E1
763
7E8
09F
0D1
064
00D
76D
779
7A3
75E
01D
796
7C5
03E
7EF
7F8
7D0
7D9
02A
072
003
7B8
7D6
029
7EB
7A1
794
78A
7DA
03C
0B7
08C
7DF
017
771
74C
703
767
7AB
00F
7A9
7A8
7CF
7B7
77B
7F8
024
767
7DD
72A
7A1
7EB
059
03C
73B
78C
751
7DF
7E5
78B
075
7F0
73C
7BC
66E
6F2
794
7EC
031
7BF
7E1
7BE
060
004
7A6
7EB
7E4
7C5
7D8
7E0
010
03D
7E7
7F4
7A1
77E
011
7EA
040
022
038
79B
78F
766
75E
7DE
7FC
731
70A
7A2
040
7F4
066
093
794
6E2
6BA
009
038
7DD
7AB
045
019
741
793
7E4
