020
7E6
7BC
79C
7FE
041
751
6EA
6DF
767
751
018
7B6
04C
7AF
7FD
79E
02C
036
78E
013
7C7
788
027
799
751
6EA
739
009
7F0
00F
780
00A
797
723
74C
79C
0BE
7A6
7F4
7EA
7C6
021
03B
04B
05B
059
05F
7E9
07F
7EA
02F
03A
03A
7A1
72C
0B5
071
7DE
6FE
727
772
7BC
755
7E9
7E5
01D
7E5
7B2
00B
7F9
7A4
77B
012
020
7FF
032
00A
7FF
029
00A
060
0C1
046
7CE
7AE
766
72E
74A
781
77E
740
75E
7C8
7E2
7E7
771
79A
7BE
778
766
7F6
7CA
7A2
7D3
7FA
026
032
04C
000
7B7
77F
007
7D5
7DF
75F
753
747
009
788
768
794
7A6
018
026
00F
029
79D
7A9
00A
7FD
7A0
7E4
037
045
00D
006
037
003
01F
050
076
018
016
789
75E
78D
7FB
793
017
03E
097
07E
088
02F
037
7F7
7E6
7F8
04F
01A
7BF
003
09A
026
04F
7B1
06E
0A7
02A
037
7C8
03A
7E7
03E
04F
7F7
021
01D
093
7FB
070
085
070
7E3
7C7
7D8
056
032
04F
02F
003
01B
08D
088
08C
086
7EF
7E8
7F7
7EC
036
092
7E2
057
7AE
08D
05F
031
026
023
074
050
025
7D3
01E
015
7E2
7FA
7EC
02E
008
063
139
113
06E
081
019
049
7AF
03B
034
0CE
091
074
0A2
030
034
01E
036
022
011
7F4
006
047
037
7C6
01A
7C3
7E5
062
27E
150
057
044
098
0B7
13D
174
1AC
2A6
214
0D4
063
07A
068
0C1
020
05E
00B
061
043
7EE
031
7D7
005
7FC
7D0
03C
06D
00D
053
7A1
0A4
1A5
1C7
25C
1BA
1B1
115
0B0
06A
0C4
090
0CD
093
069
00A
059
00B
7CE
03E
7EC
7CE
7EC
747
7D0
001
04C
04D
064
121
12F
05E
07D
04C
7FB
7DD
02B
7D1
050
033
7F4
039
040
7F2
070
04F
7F3
036
004
044
7EA
7FD
071
74C
071
057
034
048
03A
776
01D
044
7A1
7A9
798
780
7B9
7F7
7D5
7CA
006
00C
04C
00F
7D4
79C
7CE
7D9
7E0
017
043
665
765
7A8
78C
73A
770
72B
7BD
7AC
763
786
7C9
012
00F
782
7AC
7D3
7E1
7DE
7E1
009
019
7C6
030
080
075
7B4
747
787
7F7
7DD
79E
714
707
7AD
7B2
7C1
749
76D
796
77D
781
776
78E
7C8
7E7
7F0
7C6
7D7
7EC
010
047
04B
7EE
7C6
7A2
69C
7A1
7B6
7CB
765
745
79D
7DC
7E4
026
77E
001
7AF
7BD
7C8
7DF
008
7E6
04E
05E
02C
7E2
7F2
7E5
04B
792
7C2
721
6E9
79C
7D7
028
7D2
781
785
7B4
00B
7D5
7BB
7DE
7D3
011
02C
034
044
7D2
01D
7E5
7C6
02B
00F
7E3
002
045
73C
700
68A
7DF
763
012
7EB
7D3
7AD
78E
7C6
024
7E8
031
7B1
008
035
07E
095
06D
053
03C
7E9
016
7F7
064
008
73D
72C
701
6DA
7E5
7F9
094
07A
053
7CE
00C
019
054
042
02F
02D
7F5
098
07B
076
072
0B6
7CD
02E
074
016
035
7E1
6E2
6C6
704
6C8
051
036
027
08E
063
0B1
026
015
022
035
035
796
025
032
078
0EF
078
00C
7D8
7DC
03A
09B
7D1
722
64C
694
69C
61E
05A
013
09F
0D2
056
03D
03A
070
7ED
7CA
7E3
7F9
7F6
01E
062
138
158
07A
092
7F6
7DF
056
758
6A3
60B
65E
6C3
72A
0C6
079
034
096
063
040
076
7FD
01B
7B0
7E7
7E3
7BE
03B
0CD
15E
150
12A
0D1
7BB
754
7A8
686
59A
5E8
773
775
6D3
135
03D
107
0D2
04C
087
0AB
7D4
01E
046
7D9
7C5
7B5
01D
0EA
1AC
1D8
16C
1AF
0D6
07B
7AB
6B1
617
671
79B
77A
74A
109
7D7
7CB
004
026
027
06E
07C
08A
004
7EA
7B2
7B9
01C
014
119
139
18A
249
2A7
1EF
0F1
75D
67B
746
796
7CD
054
050
7F4
76E
7ED
111
005
097
0A5
039
040
7D1
7A6
7FA
060
7D6
0C7
0BB
217
0DC
16A
2BA
278
08E
754
771
009
775
00A
06C
7A3
6D3
7AB
7BB
058
7C5
025
7C5
774
772
7D9
047
033
7C0
066
150
0F6
13F
044
10B
126
005
7B7
7EE
76F
0C0
7E7
0D1
120
79A
69D
6D9
6F3
716
783
7A0
01F
7F0
73B
726
7E0
799
70F
0BC
100
112
05F
0A3
176
0F4
0AE
054
745
07F
018
035
083
023
793
73F
75B
7F4
009
7D1
11D
04F
0D6
0C6
034
03E
033
092
0DD
148
141
23D
1A5
23F
1C2
076
78A
7F1
7F4
