7EB
00F
012
063
0A6
0C4
0A8
0D4
178
1BC
155
1CC
240
0D7
16E
1A4
164
0D3
127
1AB
122
13B
144
13F
0B9
031
0D4
02F
03F
7FD
084
0CD
0B3
073
104
1C9
260
15C
203
2DA
247
138
1C1
10E
0C7
1B3
177
15F
104
1F6
1C5
086
11A
11D
08C
02C
026
034
0A4
116
04C
072
1A3
140
0DF
14A
07B
086
138
127
10F
181
101
0F7
1E7
0B9
328
1AD
21D
1B4
25B
1AB
0B3
017
7CE
7F3
040
0A0
073
014
14D
0CA
028
7A9
783
7AC
7D1
7B8
7EF
07A
102
226
382
304
27D
357
269
26B
239
201
21D
15F
03A
7B9
093
032
0A6
023
006
79E
759
6F8
6FE
7EF
000
033
094
056
7BE
7CB
733
732
7BE
7E0
073
0FF
059
0F9
206
2E4
7F3
7F4
02A
7B7
7F4
7A3
77F
791
774
754
7C0
7A3
058
056
037
01F
02F
791
746
786
79E
7E7
7CD
03C
032
05D
00A
15D
769
7D8
774
7CA
014
7E0
7A9
012
003
770
753
7E1
031
073
056
7E8
7E5
71E
76C
77C
7AF
7E6
002
7C7
7FE
7F0
7FF
05C
7B0
7E6
7DE
7B3
7DD
7A2
789
056
7B3
77E
783
7E9
099
070
048
013
7D6
750
78A
7BB
037
7C3
021
02F
088
7DA
79C
0C6
763
044
04A
7BA
73B
054
7F4
005
7E7
7C1
770
7BA
0B1
06B
019
7C7
7B3
7AC
7CA
7E7
031
7FE
06D
085
015
033
06E
0AF
04A
0BF
018
7C0
7DD
7D6
7E5
018
7F9
780
6DB
7AC
05B
02F
03F
7FC
7C4
01F
7EA
059
022
03B
7C4
7EE
022
737
7A0
021
724
7ED
782
7CE
7CC
7D3
7A7
025
7DA
790
702
7A7
7F0
019
040
050
7D6
024
066
01F
029
026
797
747
02A
7C6
793
04F
064
7C7
001
7D3
7B6
7B7
7C1
010
061
7AC
7C7
786
031
066
07B
077
02F
795
03E
012
7E4
003
015
7FE
7BA
7E9
003
05F
787
705
7D5
7E4
088
7A8
048
7D8
01C
7CD
7CC
7EE
026
06E
098
05F
01C
7CA
029
00D
7EE
022
7D9
054
7F0
0AE
06C
0C7
7CA
6E9
049
01D
039
7B8
7BC
7B4
7A5
7BD
799
7DE
01F
024
7F9
022
027
01B
054
02E
7E5
00E
035
069
055
052
044
118
00D
782
041
084
7F2
7EE
7E8
040
004
798
031
7F6
094
037
034
7F1
005
032
043
031
7F4
01E
029
7C1
79C
088
053
052
7E9
778
002
021
064
047
7FE
045
006
78C
7BC
067
07F
05A
012
00A
019
011
03A
021
019
020
027
022
78F
013
042
07B
016
7A8
044
010
054
071
0B7
086
00B
7FC
023
06C
06A
082
00B
036
03B
042
025
026
7F0
006
03C
7D1
7C5
028
033
09C
0BC
067
7EF
030
09D
060
03B
024
7D6
00A
037
03D
05F
05C
013
044
074
06B
094
7CC
002
7F3
7DA
7FC
780
7B7
7F0
140
030
0DE
035
03D
024
059
00C
0BE
008
7C8
052
045
01A
069
0A3
0C9
052
094
070
03A
03B
7E5
79B
75A
039
74E
010
102
7EF
006
012
036
03B
01B
06C
02E
054
03F
037
007
05B
043
067
06B
046
066
0C9
0E1
090
052
79E
760
781
747
7E0
01D
06D
7DB
018
025
7B7
7C0
795
041
7F1
7F3
015
04B
7FA
043
05F
06D
088
0C1
0D5
091
076
7ED
7F5
046
05F
069
0E1
7B3
07E
7FC
01C
011
063
02F
01A
022
7C2
01C
7A9
77B
7E5
017
085
09E
08F
05B
08A
08A
08F
086
05B
014
058
046
098
74D
009
7E5
7EC
79F
037
054
7F3
79A
7ED
011
028
7E1
7C7
7F0
79C
7F2
77C
73B
794
7DC
7FB
087
066
024
051
042
05C
7E1
782
793
785
783
7AC
01B
7C1
75C
75C
70C
767
797
72F
6DE
6B1
6C4
6A9
6CF
6F3
6DE
727
00C
77A
7C9
07B
7FB
073
002
7E7
7DC
7B4
744
7D8
798
032
7C8
7E5
7F9
007
7A3
789
7AD
740
7C3
76E
724
743
722
6B2
75F
7EB
7A4
004
05D
097
7F2
78D
769
7F7
03E
7AB
7FE
044
04A
7AB
02C
030
024
7EF
006
7B4
01C
774
01C
7EE
773
72E
75F
749
7C5
79F
7FF
056
78B
763
714
711
787
6B0
737
76E
72E
6A7
74B
78A
72E
7A1
756
735
68D
747
7AA
754
666
638
6A8
68C
6E8
6B6
7FA
006
7FC
038
702
70A
6AD
627
651
65C
5CD
600
642
661
644
63A
6CB
677
03B
63F
5F3
57F
5F0
57D
6B6
6AA
703
79A
040
790
008
