7DF
7EC
01B
05B
053
7F9
045
0ED
0AC
11C
0CF
0A5
794
0C3
04E
0F4
200
16A
082
0D1
0B3
0FF
0DD
0F4
049
024
06F
088
77D
7F0
041
02F
00B
048
0AC
038
0D5
0E8
026
105
09E
076
059
0AC
020
095
078
073
0F5
0D7
066
031
011
013
0E2
0C2
0C3
74D
010
05D
056
7CE
7B1
075
04E
068
029
085
061
091
7DF
049
7C7
773
7C3
010
060
7E5
01E
049
065
01C
072
0A3
046
047
7D6
7F1
7F8
7E8
00A
7E8
7C7
7F3
011
748
7DE
7F7
7EA
7CD
7BE
7BD
74E
75A
7A6
7F6
7F7
02D
7E9
025
044
03B
00E
04A
751
7AE
7DA
019
00C
7BA
7C8
77C
7F4
78E
799
7CD
7E9
01E
7AA
7D7
03C
01A
7A8
008
7BE
018
7D1
7DC
05B
000
045
7B6
7D8
7B7
005
7E2
7BF
78D
001
7A8
7D1
7C4
7B2
7F4
7B3
027
05B
062
020
060
7CC
7FB
79D
7D0
79C
7A2
7CC
7EB
07F
013
033
00F
034
7ED
051
00C
7BA
7E9
7D6
7D7
7EC
7CC
7D6
7F5
7C3
029
00B
008
7DF
02D
00B
7E1
025
003
034
075
06E
7EF
018
026
7BD
04F
7A2
792
78E
7F9
7EF
7B1
010
7E8
7DA
7B4
7E4
03D
7E7
00F
001
7E9
7BE
014
7D7
00E
7EA
06D
0B1
000
024
001
7BA
037
79F
79E
7D3
7F5
7F7
7A7
7D2
7E1
001
7A6
791
013
7FD
7F7
7BE
766
046
002
7BD
7E9
777
768
019
06B
00C
7FE
797
7A9
7EE
013
7F6
7DE
7FE
7D3
7E1
017
004
015
7BA
7C6
7A1
790
77E
756
749
74A
73E
6A3
750
60D
046
7BB
025
7B7
7A4
012
7E1
008
037
038
00D
040
7BF
7E0
7FD
7A9
010
799
019
773
758
794
778
731
707
6E0
693
681
7D2
05F
7C1
7D7
073
0B2
058
049
0A3
058
01B
028
013
7E2
7E2
7EB
04C
022
7CC
7A5
01C
7EF
7BE
7D5
78E
756
7E1
75C
012
043
06E
036
094
0EA
0B2
0FE
092
00B
058
02B
7CD
04F
00C
080
007
004
002
7ED
010
7F9
099
026
08F
04E
7C5
7DD
76C
041
11A
088
0C9
07B
0B9
0BB
05D
02C
089
059
04A
035
059
7D8
037
088
7FF
035
096
076
0CD
110
183
125
0AE
04C
7AB
003
0B2
01C
001
0A4
097
058
046
7F1
7FA
036
078
059
053
046
06A
09A
08A
086
0DC
0F6
141
149
096
0DD
04E
164
7D3
002
024
077
073
002
7DD
035
00F
7DD
031
7D6
7DE
02B
052
07D
074
0AC
0C3
139
14B
15D
140
12F
0B6
171
0E0
155
0A2
0C8
0B1
08B
02D
7BF
02A
7A0
077
01B
7D9
78D
78A
016
075
060
066
089
0C1
12E
136
1AB
138
0BA
189
0DF
0C3
124
13A
0BA
0F5
0C7
022
7F5
7F0
08F
015
004
7F6
7F9
00A
00F
010
02B
01D
053
091
0BA
0E2
0D2
07C
07A
137
053
028
099
19C
15E
088
027
018
7F6
001
7DA
7F2
00D
004
002
019
024
002
011
7D3
7A9
7C4
7B7
7AB
07C
00B
0BB
062
017
774
7C2
161
0DC
030
00A
06C
008
7EF
015
058
04D
019
04F
7F4
008
7D7
047
02B
7A4
7C3
794
7AF
7BC
7D0
7B3
046
769
774
62C
0A5
79E
7D6
77D
7FF
048
037
034
008
01D
01F
038
016
009
02A
028
01D
7B4
7C5
72E
6E5
721
78E
7DC
719
671
699
698
041
7D2
7E8
790
020
073
048
048
066
031
036
045
077
083
05D
013
7E3
799
765
700
681
718
704
693
692
692
680
6C5
049
7D0
026
053
01E
7C7
005
053
044
049
073
02D
080
7F6
7C6
78C
7CE
71B
7B5
767
72C
6C8
669
5EF
601
630
6C6
7A0
097
00F
6E2
75B
766
7EB
7B1
7C8
791
7B4
052
03C
009
76A
714
78C
721
6C3
778
720
720
70C
5E5
5C4
6A3
63C
6CF
7B1
7F7
761
6F9
686
6C7
6BE
6CD
65E
6BF
709
783
6B2
6DF
78C
77C
755
728
6DB
6C2
6D3
670
69C
6A9
5AD
647
6F0
7AB
78D
7CB
72B
68F
63B
56D
4D1
4E1
597
48D
523
529
520
599
588
627
5B8
68D
65D
5F1
5C2
702
67D
67B
698
66D
7AF
7E2
7FC
7EF
787
6D1
69E
632
5A6
58F
585
4E1
543
4A0
54C
582
533
58C
506
5AC
567
583
5B9
669
69B
6D3
74F
795
7FC
04D
7E5
021
7D0
73C
6BC
690
5E5
634
4EC
57D
5CF
570
568
590
5E3
609
0B1
609
4B7
5CB
64D
5EC
661
698
756
779
03B
7D8
7F2
