018
00B
3BF
3C8
376
38F
031
00C
02C
068
3E7
05F
034
033
035
3E1
3F5
39D
3AF
02E
00E
39F
376
364
00B
037
362
074
397
3E4
367
3BC
3F8
022
3E8
3BF
3BE
00A
047
06D
051
014
008
097
06B
03F
3B0
3A6
083
3DA
052
00D
34A
3C2
04B
333
05E
3FB
09D
05C
3BA
021
3DE
31D
35E
3F2
3B4
01F
05A
016
01B
3B1
033
3E8
022
3FF
012
3CE
00F
05B
09A
03A
053
031
093
0AC
3BE
0B1
0B1
03F
05B
030
3E6
3ED
01B
3F4
3ED
007
02D
005
004
03C
07B
026
015
048
009
3C2
00E
3D1
3B1
3F1
06C
060
047
012
0C0
3D2
3B6
017
019
3D6
3CD
3A2
005
022
023
3D5
00F
3ED
04F
044
00E
001
01E
3D4
00C
348
3F0
3F9
0C2
026
358
035
3EF
37F
3DF
3D0
3AA
3E1
3D9
3C4
00F
3D1
012
037
003
003
073
02D
05D
032
03F
3E1
03C
3D5
043
03A
05A
3B5
39B
02A
038
015
346
01E
3DC
3A1
3F3
3B6
3B4
3EE
3D4
020
02E
05F
025
07E
05A
03D
3A4
3EB
3F3
056
036
03E
3DF
38D
37C
38A
3F9
013
3C7
374
3B0
3D3
3D4
3E4
04E
070
025
03C
051
03D
03A
004
064
061
071
3CD
3AC
3FD
03B
005
039
3CE
35B
389
36F
3F8
3E2
3C0
3CA
3C6
3BB
3F9
039
063
00C
03D
029
02A
3E8
3FD
3F3
033
3F0
026
00D
05A
018
003
3BE
3B5
3DC
3CB
389
028
3F5
03C
3CC
3B5
3DA
3D6
026
3FF
013
3F5
3F6
3EA
3DA
030
3EE
023
00D
01A
39A
06C
044
02B
0AE
353
3AE
007
3CC
396
3BE
3C4
3CD
3A7
3AA
006
3E5
007
393
3D4
3CC
399
39D
3C4
3DD
393
00D
01B
013
0B9
121
082
027
393
3D6
3A9
3FD
3A4
385
3C2
3B9
3CA
385
3E8
3F7
3CA
3CE
397
3DE
02B
392
3B7
3F9
380
3F7
045
126
098
0C5
07D
3F6
075
01E
3FD
022
392
01B
008
3C3
3F0
3C6
3A9
3DD
3EA
03B
3DC
3DA
3D7
3BE
015
00A
00C
04F
022
041
0B8
132
012
0A1
12B
0B0
3EF
3FA
3FD
013
3AD
3FB
00D
3FF
3E6
053
0B7
047
02A
3B1
3CE
023
3D6
3DC
07F
03F
021
04A
3FF
3D9
0BB
0B0
14A
088
0A3
068
01E
3D3
379
391
3BE
02D
027
063
06B
03C
3FD
006
3D7
3B3
3B7
044
05D
09B
3F1
3F2
010
3F0
0D0
0F9
180
06E
067
3F3
38A
3B9
2FD
33C
3E5
01E
3FB
02A
04A
061
3F7
014
3D4
390
3B1
0AA
041
03E
022
00C
029
06B
033
138
13E
037
0F9
06E
0AA
066
387
3A4
3CF
014
022
048
026
020
043
011
352
344
072
030
019
3F2
3CB
02A
002
3D1
02F
045
073
0AE
0A7
0AF
097
0B6
02B
04E
00A
00E
02F
070
02B
02B
053
3A5
358
33D
058
01A
38D
3E2
3DF
035
3DA
013
045
02B
050
03C
00C
07C
0B4
10D
078
0BB
02B
066
03D
035
027
061
077
373
2FD
3D9
030
010
017
3DC
011
3BF
3CF
037
0E5
3FF
005
01D
3B4
013
0A5
155
156
099
05B
072
3ED
04F
06C
067
008
357
351
001
02D
016
010
3D3
3A1
3FE
35C
3CC
069
3AA
016
034
03D
021
081
084
0CD
08D
071
078
3D5
05A
06B
00C
006
3A0
390
028
019
012
024
00C
029
3DE
016
3B3
08E
38C
3DD
04F
083
07B
043
04D
011
3E6
01B
008
3F3
08A
067
037
3A4
37B
3E3
03E
02F
01D
02C
3D5
002
3DC
019
09F
082
349
036
0CA
058
06C
0B9
0A3
061
3C6
02D
03F
01D
070
004
3B1
354
380
3F8
045
066
031
03A
3F4
04F
01D
04E
0AA
0F9
3B3
044
05E
021
090
0E4
0F0
10B
112
046
0D3
0D1
106
3AD
340
391
3B2
018
009
07D
089
09E
0E6
0FF
115
09D
0A1
0E0
026
0CF
052
068
0B7
0BA
0A1
0B5
0E7
0BD
114
1AB
06D
370
34A
39C
3B0
017
030
075
052
0CD
082
054
116
02E
03A
04E
057
07E
02E
3F7
03C
0A9
011
00B
0A2
106
114
07E
3F0
3A2
3AD
3E5
3E4
03F
3C8
3D8
3AD
3F1
3AF
3B2
3CB
37B
3E4
036
39B
05E
075
3D2
051
06F
030
01B
08F
0D8
145
055
3CA
38E
3E5
038
3DF
3DD
3DD
3E5
37B
3E8
379
359
004
353
397
010
3D5
38E
3E9
080
05B
09F
05A
38C
12B
105
0A0
3A3
31C
34B
3BE
034
033
3E2
365
3AE
35A
0AF
061
0A3
0B6
39D
057
001
