000
3F6
3D0
3BF
36F
2D0
395
32F
358
356
03A
2AD
3A4
360
34C
3AD
3E6
03D
347
3CD
36E
377
3F5
3AB
382
3FC
3D8
012
363
3F3
066
06E
39B
043
083
3ED
38A
06C
017
09F
058
066
3D1
3A0
03D
3AD
3AE
083
3B5
38B
30E
384
356
3D4
3D8
374
07A
028
05B
033
075
030
084
06E
0A4
0A1
069
061
06C
08B
0E5
08B
3EC
000
022
3CF
37F
3E6
38F
3C9
034
0C2
02A
03F
08A
3A7
0BC
128
0BD
03B
04D
02B
069
08D
030
08D
12A
0A7
066
071
045
027
3BE
037
011
014
392
3CE
3C5
3FE
39C
3C5
059
058
0A5
0C0
3CE
3E9
3DF
001
04D
3E6
096
0AC
077
0A5
05C
0A6
0C2
014
3A2
327
398
2EA
315
2DA
2B9
31C
333
038
3B5
12C
0D8
050
074
36B
353
3C3
3B5
3FE
022
03D
036
3EE
00E
043
032
3AB
350
3B2
3B4
3AE
362
326
2A9
2A0
267
021
00B
09A
06C
073
3CC
3CD
3D9
370
3B6
382
044
3E4
364
365
369
3A7
386
359
336
356
365
391
321
2B1
236
2EC
2BD
3DA
3BF
037
016
011
3D1
38D
37A
3A0
3AC
39C
3F8
01F
019
3B1
364
37D
028
070
040
029
3E4
357
33F
2C5
2CB
285
305
368
03A
3A0
02D
3D5
39A
03A
3B1
394
3CA
006
061
10C
0F0
074
3F6
057
0D5
0F1
144
0FE
3C1
357
384
301
291
2C2
338
346
3CA
32A
3BC
03C
034
3B9
38B
385
374
3D6
064
161
0C5
04F
034
06E
0CB
0DA
099
01A
3A3
350
39A
381
319
354
3B2
064
3F4
3B1
3ED
01F
01E
3FC
35E
37F
386
056
0BA
067
048
379
01F
07E
0F5
0D3
057
31F
364
36A
374
396
39E
025
3D7
054
36E
325
014
015
3BD
396
378
2DE
3B5
07C
0C7
028
051
003
3E5
041
0FB
0E7
349
2DF
302
36F
38B
35F
034
06C
021
082
335
352
3F4
034
0EF
305
392
371
009
0CF
050
030
06E
3DE
382
0DD
146
05C
2B1
36B
39D
374
3A1
3DD
03E
069
3A9
3F3
353
321
3B3
34F
312
26A
2EE
00F
07E
026
033
3E7
021
38F
3CF
0E5
155
09E
2F7
393
32F
380
3DA
01A
07E
0A1
02B
391
3F4
3C6
3D1
371
29A
2F3
3E5
046
0CB
090
3CF
01B
03B
2FA
030
14C
136
091
386
3A1
3CF
342
366
3B7
3C0
3F3
3E1
37A
004
34B
320
370
2F6
2DD
3F7
095
09B
036
065
075
3E1
340
0E7
145
100
06A
390
389
392
332
35C
317
394
3D8
32A
356
00F
049
381
335
34D
3C2
063
035
0DD
02B
004
026
357
3A7
097
132
10A
064
39B
372
3CB
3B1
31B
2CB
380
364
2C0
302
3C9
30A
345
33E
3EC
011
044
07F
05B
037
3DC
3DF
3A0
012
0D7
11E
0E7
044
00A
38E
39F
32F
37B
306
2C7
360
2B6
368
00B
366
2F5
365
03D
086
08F
089
080
3E0
3FB
06C
035
09E
0E2
0DC
0C1
042
3A8
3BC
3D3
319
308
2E8
328
31C
313
2C1
3F2
2AA
34B
39A
061
090
08F
0A1
03C
00D
07C
034
3DD
05B
0ED
196
0BB
06C
01E
385
38C
32C
30C
2D2
31F
37E
3F8
301
0B6
277
28D
3A1
004
3EE
3C7
061
000
048
042
034
08A
0D0
0B5
09D
088
3E3
394
348
38E
3A2
32F
369
3E0
013
3C8
333
09D
2B8
255
3D9
3F5
033
07D
037
005
0A6
08C
0A1
0B4
0C3
0C6
0B2
026
373
3F2
35B
3F0
045
010
3BB
078
3AA
3CA
339
372
2F6
2CF
3FD
382
3F3
060
062
09D
107
13E
12E
0AF
06F
090
05D
00C
3DD
3DF
3A3
007
02C
09C
0EA
0B4
03A
3A8
07B
382
00C
2FA
2D4
35A
3CF
011
093
0AD
0A4
140
0BE
001
3E7
3D8
3F0
019
005
014
3D2
075
002
0E0
089
074
3EA
009
03F
37E
3B3
390
315
3AB
3CA
357
0AC
069
0FC
3E7
01B
3B1
000
002
002
3DA
3C6
3EF
064
080
0D9
0A0
0D6
0A2
04D
018
3B0
392
395
3B7
027
019
013
023
080
09D
07E
036
061
3F4
012
0CF
015
003
3A6
09D
013
026
3D2
042
065
3FA
37F
002
024
08D
007
037
0B2
0BA
3CC
0C6
09F
06D
0A3
0C0
3A1
3C2
381
375
3FE
034
3CB
3BB
0AB
005
3A2
08F
038
030
038
0A1
012
07C
066
0D5
0C4
068
033
0E3
0B9
098
072
3E3
350
3C4
38B
39D
0EC
055
069
3A6
02E
3BC
39D
37F
055
0C0
069
056
3DF
