01B
01C
3ED
3B1
023
32C
2DC
399
351
370
36F
30F
31E
371
3EE
0C6
069
081
0C4
007
3A7
32E
3DF
0E1
3D6
051
0A1
0B6
01F
3EF
3AF
2E6
331
2B4
2F7
29F
2F0
337
318
369
329
35F
3E0
01A
027
38A
036
062
015
349
342
394
3FA
380
048
084
3AA
0BF
067
017
345
30B
2D0
224
28E
357
307
34D
2E4
2BF
357
3A1
383
324
319
3C0
2DB
309
2C3
3F2
2F2
022
0C0
0F0
392
3A7
059
390
31F
37E
332
33E
329
348
33A
33F
2F6
2DA
323
379
3DF
3D6
319
2FD
291
2AB
287
29F
385
3FB
3F3
0C4
3CC
352
377
368
2F2
385
3A8
3AA
36A
364
37A
39B
01A
358
364
3A0
376
3BB
35C
306
2BD
2DB
2D3
299
2EB
3DE
3C3
3B5
00E
363
39A
3B7
3E7
3A1
3D3
350
39E
381
3CF
001
39A
3ED
050
001
03A
3D1
032
057
070
334
3C2
3AF
38A
2EA
011
04B
3DA
3B7
008
3A8
391
398
39B
3B5
3F4
3B3
00E
050
07D
0C8
0BD
07A
0BE
14F
0FF
16E
1B1
167
0B5
05F
3D6
3E1
3D6
3FA
031
0ED
069
367
35B
3D3
3EB
3FC
042
00D
045
0C1
0C6
05B
05E
0E5
096
099
07B
098
0D5
081
0AE
105
035
3FC
013
3CC
0A7
0AD
3E7
339
01B
3D7
057
3F8
060
083
048
025
077
075
070
030
016
3D6
3E3
011
045
049
07C
077
022
04F
04A
3D4
051
035
0C6
099
062
086
014
049
090
049
08F
04D
075
3FD
020
008
01A
3D5
3C3
014
007
050
3F4
067
0BD
017
028
018
3D8
07E
0DA
0BB
15A
0E8
046
3F7
352
00F
3C2
048
034
021
067
3EE
3C4
3BB
3F6
015
015
043
0B1
06B
091
0C3
0ED
093
3EF
0DC
14F
115
0E0
0CA
068
04E
3C8
3E5
3DB
003
037
3EF
3F8
3FA
3BF
043
039
006
07F
079
0B7
091
085
071
051
14F
0DB
0AC
107
057
01A
3EB
014
008
3BD
350
002
3DC
026
018
065
02D
01A
04F
034
032
01C
03A
03C
02E
047
05E
147
179
3C9
0CF
082
3F1
3ED
03B
03D
076
05A
028
022
03C
063
0C1
09A
05A
06E
076
3C8
3FD
066
00D
04D
3DD
3F0
068
1F2
146
385
3BD
022
020
07B
025
3FF
034
09C
3E5
005
097
05B
0DE
073
019
014
02C
01D
016
3B9
3EA
00F
017
3B5
05B
086
07B
372
368
3E6
3BC
033
052
07A
087
06D
015
3D1
056
03B
076
3BD
03C
048
09B
009
02C
3E5
3FB
3FA
0B4
01B
031
3D9
35B
334
2F9
392
3B9
057
06E
12E
081
126
0D2
02B
012
002
3F7
001
034
029
05F
038
3B4
3CF
3B2
3EA
013
3A7
37E
36E
3C1
383
31F
3DC
3D6
06D
0C4
1D8
12F
194
086
394
3EE
3DF
3BA
362
040
018
017
03F
3EA
00D
053
040
0B5
049
3DC
36B
35A
332
3F7
3E2
045
074
055
06E
0D0
0B9
14A
043
044
3FA
397
387
3E3
3E4
3BF
3E8
025
3F2
034
093
0A5
0CB
33E
3EE
2EF
3B0
3A6
02B
03E
0AE
087
00F
39E
03E
060
0D8
044
01D
3FA
003
3ED
02D
005
3F6
019
06D
00E
03E
01E
3B0
043
3D0
34C
392
3D6
07F
3DE
050
021
01F
3C4
3FC
3D6
04A
02A
3FC
3E7
3E8
000
3E1
012
025
3D7
060
015
05D
3A8
382
3D2
3CE
051
386
015
03D
3D4
396
37D
003
3B4
030
01D
020
01C
3D4
3A5
3AF
3B9
3E3
002
3DB
012
04C
03D
3FA
3C8
011
37E
3E3
000
354
37F
3B8
305
384
39E
015
3B8
3B2
3E2
000
031
045
3F0
07F
3E7
01A
3CE
033
042
030
027
395
3BE
3A3
3CB
062
05A
35D
3A5
392
381
3B2
3A7
389
376
3D3
3B2
3DF
3F7
060
043
025
03B
056
020
3E5
3E1
390
3C9
3DF
39B
3F4
084
071
03E
32D
3A8
3DD
32A
3DB
36B
366
3D7
3DA
3BD
059
3D6
00A
052
3E2
3C3
00E
393
3C0
3A5
39D
3E2
3D0
3CE
081
3B8
04A
3D4
06D
09B
3F6
3F4
3F7
377
378
38E
394
3B1
36C
3A9
005
3D8
388
3A7
04B
391
3C6
3F4
033
02B
38B
392
011
02E
3DB
384
07E
042
02D
3F9
3BD
3B8
3C5
38B
3D4
396
3AA
01B
092
048
3E3
022
018
033
3A1
3E9
399
364
333
022
357
33B
3CF
00F
3A4
14F
056
3DE
057
031
396
3D6
346
2E3
355
036
3C6
3EC
34E
06B
39F
00A
3AC
384
3B3
056
3BF
3BF
33A
34F
39F
000
