013
7F0
7B9
045
096
0ED
13E
11B
0CE
168
7FC
720
77A
77A
011
74E
6FC
70E
7A0
764
015
7E7
792
00A
759
7CA
782
7CD
06D
014
799
7D3
09D
042
020
09E
098
063
7A4
7C3
79A
081
00C
7D8
024
7CD
763
7AD
7B0
7AD
7DD
7D9
765
762
793
742
090
079
7CC
75D
763
6A9
797
730
7E3
030
7CA
763
7CA
7AF
7A3
017
004
7BB
79C
7E5
6DE
7AF
7CD
02D
042
795
7D0
02F
79E
787
6C6
098
6EE
771
768
71C
7E3
746
705
721
71B
774
6D0
761
70F
733
7BE
77A
7AA
7B6
776
7D5
7D2
7A4
778
077
7E5
7BF
76B
79B
7F5
7E6
7C2
006
7A0
79F
7A4
7BA
78D
7AD
7A9
777
7C3
019
7A4
775
799
7A1
7A6
7C1
7B1
021
01B
064
154
068
7D6
058
7E9
7E1
04A
03E
7A7
7D5
749
743
79D
728
78E
7B7
7C3
7AD
7D8
7D3
7C9
752
77D
79F
034
018
7EB
769
05E
114
11E
0BE
0B3
015
03E
01B
052
007
05B
7DE
7CE
752
72B
73D
745
74C
6FE
6CC
743
722
6FB
70C
6B4
6F1
77D
037
727
0A9
146
0C3
7C2
073
043
7F3
7F8
02E
014
7D2
77A
7D5
7D8
75D
765
766
730
769
767
77B
718
64E
6B9
674
6D0
6FD
0BD
09B
7FA
0C5
081
084
02E
7D4
01F
00A
7EE
7F3
788
7E8
788
73F
735
749
765
745
71A
77B
71E
7D2
734
694
643
6E1
08C
0FC
7E1
040
027
0D5
073
033
002
022
7DD
00B
003
0A0
05C
0AA
00E
01D
014
043
059
7DC
050
082
792
75A
02C
7CE
046
0A8
04D
076
044
0DD
074
0CF
0C3
006
09E
0A8
091
09E
141
127
128
119
091
0E2
12A
0C9
0DC
1A5
181
096
7E1
73F
00E
0EC
12F
0C7
0E0
070
051
156
09F
01B
014
065
0AB
02B
083
0EA
10A
0FA
11A
0DC
11B
170
105
1A9
15B
275
0E5
7F3
14A
044
13A
07E
09B
0ED
075
10D
07F
7FC
7CA
084
056
0A0
04D
0A7
125
0E5
108
0D0
114
19E
1C3
1F6
16F
346
257
101
017
0F7
20E
1D1
1D8
029
01A
099
00D
04B
00A
04D
018
031
7FB
021
027
08E
082
02A
002
13C
184
1AB
215
2B5
216
1C2
088
06B
1D3
1A3
042
0AD
001
034
076
0A2
7BB
7E0
7ED
00C
077
00C
7CE
7F9
051
047
0B4
0C3
12E
15B
1B1
230
230
0E2
7A7
7F3
213
0C5
010
05D
059
024
088
05F
032
7F3
01A
7E7
7CF
7C8
7D7
012
7F2
05D
05F
0EB
0B6
0BC
098
1F3
20E
7D5
70E
0DE
107
0E6
09D
05C
045
097
08B
094
0CA
02A
02F
031
75A
7A2
7E3
00F
018
7EF
7E1
03E
7C6
07B
7D8
0AE
0B6
7FB
77E
0E8
0F8
0CC
02B
011
064
0A0
07E
0CE
0A8
09A
05D
7EB
022
7BE
011
0B7
03F
005
012
7DA
002
7DF
76B
7A3
7A9
725
0A1
0C7
7EB
037
03A
062
064
09C
082
033
0B6
0D0
0D8
026
014
013
070
064
02E
01F
014
7FA
7A6
7C0
7DB
6C5
674
76B
04C
035
78B
780
018
004
034
017
036
01F
01C
046
05B
07B
7D9
05A
064
7E4
02D
7FC
01D
03F
7C8
7FF
7F3
7E5
7D8
73D
7C3
7D7
72A
71C
79A
7A7
7AE
777
7BF
7AC
7BF
7CC
7DD
7F8
7D7
04D
03A
7D8
008
7DF
7D9
7C7
7EF
7EF
774
70A
7C8
787
7F2
05E
7A5
6F9
724
7B3
75E
77A
7AB
7A6
780
7B9
7C8
7F2
7CE
7D2
79F
7A3
7DB
7BB
023
7CB
7CA
7BD
7CA
75A
74A
7A4
790
029
6F7
717
7C6
733
7B0
7B1
7FC
7D0
7E9
7A3
7AB
79D
7DF
78D
7CC
7DD
79F
79E
7B6
7A3
01F
785
003
6FB
7A2
030
729
6EB
7D4
780
7E6
7F6
7AC
044
7B0
78E
7C0
7EC
7C7
747
7C1
03C
7BD
7DF
799
79D
74F
786
7E2
7C5
037
775
078
02B
7B8
6C1
008
7A1
728
01A
024
787
78D
003
78E
7C7
796
02F
7E2
024
72C
7C2
737
7DA
6FC
791
731
7EB
07E
7DC
00C
7D2
0C4
03B
791
775
7A5
7B2
79C
79E
77A
753
75B
011
758
7E1
792
7FB
734
7D9
7F0
0A2
750
7BF
04F
04F
791
790
770
749
005
112
081
00D
7BA
73B
74F
79C
747
771
7AD
79A
7A5
7C5
789
03D
7C5
0B0
0F4
036
079
0E7
086
0E6
6F8
015
7FB
7F5
758
018
0EA
065
7BB
7D3
7EE
06D
015
7F6
0A6
0FB
0E9
118
111
068
1AD
15D
153
0F9
0B7
0BD
141
0DA
78C
714
754
7F1
