001
016
F95
F3C
FA4
F7B
FBC
EA9
F64
F06
F43
F68
F2A
F90
043
F37
F63
FF7
F18
EE5
DDD
EC0
E3A
FA7
EF8
F8F
01C
F47
F99
016
FCC
071
F94
095
FFA
00B
EED
FDB
F72
EF8
FB5
024
045
023
F88
00C
FE4
F8F
F63
037
EF5
ED4
051
F5E
F39
01F
043
057
009
FB2
FFF
045
030
F8E
01F
FE1
FD9
FD6
FCB
025
FF2
FC3
FD7
FFC
FB6
FE9
000
FC3
05E
FEF
F97
F8F
F07
F41
F5A
03C
062
04F
024
059
042
FBC
FCD
FA4
FD4
FE6
FCE
02B
014
FFA
003
FD2
013
011
FF7
FA2
02B
FC4
FAF
EF9
E3B
E68
021
040
FDC
00B
FF9
02C
025
01D
FDD
FB9
00B
011
FC9
FF2
000
022
000
FDF
00A
04A
FFC
FC4
037
002
021
FF4
E73
D12
F42
F95
059
FE4
FF5
00E
FA3
F9D
01E
FF5
FD4
FDE
FE3
FFB
FF1
02C
018
00F
041
010
045
058
029
FE3
027
039
EE1
D48
FE4
071
01A
FB0
086
FFA
FB7
040
009
FBE
004
FE6
FC4
FEC
FE2
002
000
FB7
046
057
030
033
054
06D
0CC
000
F01
BFC
F4E
FD0
00D
F79
FB2
FF4
FE3
00C
01A
FCC
FF1
FEA
FBC
005
FE1
006
FEF
FFD
01D
FFD
06D
06A
032
02B
038
0A8
F05
C5C
03A
078
04A
FAA
022
00D
F88
FB0
FE7
FDF
FB0
FD1
007
031
023
02D
FEF
FDE
FE7
000
01B
02A
00F
02F
018
049
F47
E51
062
093
FD0
030
FE0
FDB
FFB
02B
FEF
031
FDD
FD3
FEE
042
024
00D
010
010
FF0
FFD
FBA
FE6
00D
FFD
FED
050
F61
E7D
FD6
FE5
FE1
FA6
FEF
FF2
01D
FE7
FDE
FD1
FD8
009
034
01F
05F
FFF
005
018
002
FF8
015
FC5
FDF
06A
002
F95
015
F7A
004
01C
F84
FE0
FE6
FB3
02B
FEF
009
015
002
FF1
FD3
020
029
020
01F
011
FF5
026
019
02D
FA2
073
004
FEA
018
F84
006
075
FD1
FC0
012
039
FE1
FE8
01E
FE6
FD5
FE3
00C
00F
04F
013
FED
017
034
00C
026
017
002
FEC
FFB
F7B
F5A
ECB
FBC
FDE
014
F5D
003
FEA
FE9
FD9
00E
02B
016
FFA
031
010
05C
01B
00F
004
034
035
059
01E
05C
014
FCB
F33
E72
F37
FD6
031
04B
FE2
FDF
FA0
008
FE6
017
028
FBB
FE0
FDA
005
015
04D
027
063
041
08B
02A
052
024
FF8
002
F3D
E31
E6A
0AA
07E
014
020
FCA
FF9
01F
FED
FF1
03D
024
002
001
01C
042
059
034
06D
05C
061
034
05C
FFC
08F
FB1
F29
EA6
D66
063
017
022
FE3
F86
00A
FB5
005
FDA
033
FFE
013
021
008
036
055
063
050
032
006
000
00A
06F
09E
F66
E57
DB6
D91
043
059
010
02D
FFE
FBB
FC7
FBA
FDA
020
FF7
FF6
00C
FF9
FDA
05F
061
03B
013
023
02D
046
064
00E
F52
ECC
DCB
D7A
F8A
026
FDC
FC4
FC3
FBF
004
030
FFB
FFE
00E
FE8
016
031
03F
01A
031
019
039
02A
052
05C
026
F98
F10
E1F
DBF
D7D
FA8
071
067
FAB
FDA
FCA
FE0
FF6
FED
01B
02B
020
004
FF7
FFA
033
059
032
041
03B
029
063
007
F7E
E9C
E2D
E2C
E0A
03A
00B
FAD
FF3
FA7
FB6
044
FEB
00F
023
01F
FFC
012
02D
FE9
FEE
07C
03F
036
028
FD4
082
FEB
F48
E76
E00
E0B
F2F
004
FFA
FD6
FE9
FF3
FEE
FEF
FF4
FD6
FF3
04C
046
FEC
FFA
FF4
005
034
01F
017
02E
012
06D
01A
EE7
E18
EA5
EC6
F2F
FDF
FA2
FB7
FDE
F8C
FCB
FDC
FE6
013
FF8
02B
FE9
01E
FA9
02C
005
020
FB0
018
004
022
06D
011
FB0
E54
F31
EE4
00F
04B
EC5
005
F8F
FE5
FC9
FAA
FBA
FBD
FD7
002
00F
FEF
FD2
FCC
FB6
FF1
FEC
03D
01F
024
009
02F
F99
EBD
F71
068
F99
FB4
F1E
F96
015
FE0
FE7
F9C
FC9
FC5
FAC
FAE
011
FF5
FE4
01D
031
006
029
023
00E
055
FF3
029
F51
F43
06E
026
FF0
F9C
FA6
FCB
FD5
FE4
FF6
02E
004
FD1
FA1
FD5
FF0
029
FFE
046
FD9
FE8
FF2
012
FCD
FE5
03C
02B
F99
F94
048
F15
FBF
0CC
021
FAC
FC6
FB8
FF4
FEE
FE2
FE1
FC1
F65
FA4
023
01A
FE5
FE1
FDD
006
FED
003
FF2
FEF
017
06D
03C
FA0
F78
FDF
080
0B7
039
FF6
FF1
FD9
FF5
FF0
FDD
F9A
FE5
FD4
029
FFA
02E
036
FDD
F9D
F7A
FD4
01A
006
FE8
002
014
F81
FB6
00D
