016
7EF
00E
0D6
0F6
0A9
1AC
164
0C9
11C
031
722
6CB
7A7
7E9
017
7EE
01F
1B0
1EA
20A
1B7
19A
0FE
7FC
7E3
098
0C7
0AC
7FE
0C7
10F
130
155
0C4
036
070
04D
7E8
7B3
6C2
778
7CF
0D5
0C5
085
0CC
0D5
122
108
057
03B
035
062
0B5
02B
001
77B
058
054
0A9
031
053
00D
76A
729
733
75B
7BF
7CC
7E2
01A
04D
7B9
7D1
012
7BA
7C8
04C
7DD
7A8
01B
04A
03F
7ED
03F
6E6
78A
7FE
09A
0A3
037
038
7E8
7EA
046
01A
064
024
7EE
7AA
7B8
7B5
7BD
6E8
001
7A3
7D5
6E0
76B
79A
7D3
044
7DD
79B
01B
7E8
7E2
025
7EC
027
063
0FA
087
068
036
08B
0E6
0A5
06D
797
74C
774
718
768
6F5
746
785
763
7F6
0BF
01D
7CA
7EB
795
008
7B6
7AA
046
040
024
07B
04E
071
023
0B4
060
03A
013
00E
7CB
773
72D
76D
067
7E8
017
077
014
096
09E
028
02D
7AD
7D8
7DC
7FD
00E
7F5
7BE
05A
022
051
063
0BB
0A2
083
081
06D
05D
790
7C9
7E0
786
086
16D
03F
000
045
7AB
7A4
7DD
7F8
749
7A0
7DD
7FD
02D
038
05E
7DA
00C
03B
099
084
08D
00C
061
7AC
7BB
7F4
0A2
1C8
263
086
042
794
7D6
043
064
025
79A
793
011
05F
013
7D0
028
005
041
06A
064
088
022
02A
035
023
788
040
1E1
2D3
2FD
01B
7F2
763
044
047
002
02A
7B3
755
7E4
05F
7F9
006
042
023
060
066
0CC
067
064
06A
083
019
03F
22C
2BB
188
248
7B3
004
72D
090
7D8
05C
08F
01E
7D8
7FD
000
7F5
7B9
7D0
7B8
035
051
08E
084
060
0BF
08D
027
270
2B7
32D
1B2
1BD
7A1
038
06F
028
038
0BA
02C
067
018
7C7
7BE
7E1
77B
71B
736
771
00B
04D
05F
06A
007
0A3
0FF
230
32D
327
07B
162
01A
73A
03F
775
040
07F
7E2
06C
7D6
77E
7C7
78B
79D
75B
70B
7DC
026
082
064
00E
02E
08C
2A8
336
338
2F8
0EB
16D
748
778
79A
6DA
7EB
7FA
7D0
06D
7D0
7E0
03A
017
7D1
7A4
7A1
799
7BF
055
7D0
7FD
115
259
366
289
32E
1CC
18C
12E
05C
74C
024
6F3
761
01E
004
001
789
7B8
7EF
7BB
7C3
7AF
76B
740
75B
7DA
79C
04D
188
241
220
26B
298
182
15D
10B
048
0D0
07D
0AC
09A
7D2
7E6
7CD
005
7D0
7E8
7EE
040
7B4
756
76B
74C
7E9
092
15B
1BB
101
17A
0C1
1E5
0F8
1EF
241
0E7
1AB
05A
207
179
78F
76F
7CF
7F7
7B4
029
01A
015
7DF
7AE
74B
75F
064
1C3
145
213
1FA
188
0D2
1F3
17B
20C
16C
069
1EF
1F7
166
131
03B
7F1
7B7
778
7F5
7F8
00B
7ED
7FF
02B
009
7C7
176
140
244
16F
0AA
18A
0C7
106
0F1
1BC
1B9
17E
114
11E
072
0EC
081
0AD
7E7
009
042
064
7F2
7DD
009
7FA
03D
06C
2A4
1A7
206
14E
22C
222
112
11E
1D0
212
1D7
02A
7A2
031
072
0E2
054
05B
03D
03A
7FE
7F9
7EF
022
023
059
07D
105
12C
1D8
22C
227
1CD
246
23E
1C0
1CB
21E
0E5
01A
765
7C2
01E
7F4
08B
03C
04A
002
01B
01B
049
035
052
051
0EA
0F4
146
1F1
2B9
249
287
244
276
138
23A
14F
078
061
013
7CC
7F3
01A
059
030
7DC
02A
062
037
062
7D7
00C
045
008
013
095
168
2E5
251
229
1BD
24C
159
163
04F
0E1
03B
78C
7A9
7CD
018
003
01D
7D9
026
067
058
05F
7D6
7DC
079
01B
005
061
14D
206
1D9
247
1A0
267
19F
077
7AD
7AD
02B
020
736
7B8
7E6
004
7D5
04C
009
7F7
02C
00C
7DD
7EF
00E
063
040
0B3
079
141
12C
279
26A
1F0
07C
769
7A9
03F
005
7B2
780
777
7E7
003
7BB
013
028
07A
7C8
02E
7CD
0BE
057
01A
0B4
03F
7F8
107
0CF
224
290
098
038
02E
04A
031
074
7F4
7B0
781
796
76A
7BA
773
019
7C3
037
006
7DC
05A
075
012
008
7FF
05A
001
04B
1EB
20D
015
0F7
0E6
7DF
7E2
037
0B8
05F
000
7F7
7CB
72F
767
7D4
01C
045
089
047
025
052
7EC
04D
787
00E
7C4
0C0
25B
1B1
0F3
0D4
0A5
03D
7E7
0CE
048
7CF
7DF
062
06D
7F0
79E
789
029
04F
088
087
0E4
023
05A
0A3
057
031
041
12E
140
1E8
0D9
08C
04B
7FB
7DC
