7EC
7EA
033
061
05F
061
7F0
122
080
0CF
136
113
079
18D
130
14C
03A
0AF
03B
1A8
15B
206
1C6
05B
0C1
05D
14E
099
062
020
06C
082
082
0B6
072
035
09D
7B2
09C
11E
142
0DB
0B1
0D8
052
173
00E
0A7
03D
080
7E5
04D
051
7FD
09C
0A6
004
7A9
052
0A1
151
0FB
128
0E5
02C
050
034
7AC
7C4
051
7E3
035
039
026
075
04A
09A
0BA
05B
114
080
0C2
7B3
07C
0B0
041
12E
7EA
086
050
0AA
00D
7F7
7A6
730
785
7DD
03A
7EB
01E
7CB
028
038
03D
066
04C
02F
03B
06F
05E
051
7CC
7DA
7DD
00F
7E2
018
7F7
7F2
015
00D
7DC
035
029
7F2
05B
00B
033
025
7E7
7DB
7C5
7C5
7F5
7D2
061
032
024
09A
047
710
6D2
749
778
6AF
780
076
7CD
7FB
7D9
7D0
759
7F8
778
759
774
7C3
7C7
7DA
7E1
7CF
7A8
7AA
7CE
772
7DE
04D
7BD
6D9
6C1
6DF
6C3
661
738
764
6F0
79A
737
728
799
759
747
77B
76E
7B4
7AA
7B4
7E5
7D0
7EA
7CB
7E6
001
784
7CD
00C
75F
6F5
6EF
710
6DF
6AD
755
732
7C1
7D4
7C7
7F0
7E4
008
7C8
7F9
79F
7BD
7AC
79A
7FA
7D8
7A1
7DA
7CC
7E0
7C2
791
72C
759
7B4
7D4
73E
7B9
741
7B9
7D6
025
041
02D
011
052
7FF
013
000
04F
05C
7EF
7EF
7E6
034
7E5
00D
7C0
01B
7E6
7F5
773
7D2
729
01A
76C
759
7C7
7B3
7A1
7C7
7AB
7FD
7CA
7D1
01D
7E4
03C
042
041
026
02A
028
03B
03B
031
059
00E
7E1
006
7E5
7EE
7AC
7D1
77F
014
7D6
7F4
79F
7BD
74C
788
7DE
7E5
045
026
059
027
037
045
006
059
079
06E
014
08A
0C0
10A
04F
7E9
020
024
00F
007
7CB
7B4
7A7
77F
79E
7B3
7DA
7ED
014
014
040
071
03A
010
05E
7EA
7D8
0BE
020
0EA
0A7
0FC
0CD
0BA
011
00B
009
7E7
79A
7CD
7A7
727
75A
793
7B3
7D6
7F3
047
03A
016
048
01F
060
040
03C
7CB
03A
13F
04D
06D
0AA
071
09A
07C
01C
041
020
7B2
76C
741
757
7F0
048
7D9
7F1
040
023
7C8
7F8
7FA
031
02A
047
7CF
042
0A4
03D
09D
07D
082
05A
01E
7D5
035
02C
7A5
6A6
68C
76B
097
084
007
7EB
7FF
7F4
7ED
7DF
022
7D9
027
7FE
7EB
771
069
079
090
042
037
091
043
7EF
786
782
6E3
61F
5A5
08A
117
0E3
05C
02D
03C
7F3
7ED
7E4
7CD
030
7F2
7CF
04B
7E8
02F
049
00A
78D
7A1
7BF
7C1
70E
6E5
726
60D
581
6FF
139
157
10C
074
01D
058
042
02F
02A
7F7
03E
7E4
003
79B
7FB
758
7E0
75E
753
777
6FB
669
5DF
69A
6B5
6D9
6A2
010
0ED
0D6
133
0A5
0AA
0AD
07A
094
046
047
040
78E
000
024
7AD
744
01A
693
64B
5F0
637
6BB
6C5
6B2
75E
756
766
013
086
057
0BB
081
082
070
06C
080
075
023
01C
025
04A
7EB
0A4
06C
786
6AA
651
625
615
6D8
6E5
7AD
78A
7A8
7FC
7F4
7DF
026
06C
0C9
09D
0A7
065
032
054
07B
07D
0D0
0BB
07B
043
0BF
7DA
6A1
652
6DF
735
715
7BB
7D3
7DC
7F1
7C9
7F2
087
007
03C
022
0A1
026
06F
02F
076
05C
05D
034
7F6
132
013
049
042
78E
6DB
771
04A
770
7E8
0BD
023
035
7B3
7E7
055
02C
049
02A
01F
06F
03A
024
07D
049
07C
06B
097
0B2
0F7
040
07F
7C9
016
022
014
7E0
7E1
05F
003
012
7F7
7C0
7E5
7E1
02E
01F
023
020
033
0B8
049
050
068
080
0B8
06F
064
7BA
053
034
0D7
06D
0C4
7F9
013
020
04A
088
06B
7C8
798
7D3
7D6
7A3
00A
7FF
056
045
053
006
05D
01E
051
7FE
797
063
02B
024
09E
0A3
043
052
7E0
03B
073
083
0A8
0AB
05E
074
00E
071
001
035
000
04A
0CE
011
04A
7CE
008
056
00D
7DA
7DA
7D4
78D
044
7D1
028
048
001
03C
094
040
0D2
0C6
075
0A1
075
0AA
051
0A3
01F
039
037
7E1
7CE
031
042
06D
7C3
027
7DA
7FA
024
09E
05C
078
066
01B
067
04F
027
092
059
08E
091
053
03C
011
7B7
059
0AB
050
00B
039
72A
7C1
7F9
7F7
7CF
742
7DF
7C6
04A
7F0
03B
018
7F1
06D
015
06D
007
00E
003
09C
024
7CE
007
02A
021
7D8
037
7AF
088
796
01E
