7F3
015
7B9
77A
79E
6F0
7E0
77C
005
6E3
6C1
767
74D
7E4
7D4
73D
6D2
713
70C
75A
768
7CB
6F8
08C
7DC
05A
72B
78E
765
010
70D
731
76A
6ED
6A5
6EF
6DD
069
7A6
00B
778
763
7BC
78C
7DD
031
7AB
785
01F
7C4
7CC
04F
065
034
7E6
7BB
03E
028
7CA
75E
758
789
70D
701
70D
723
740
033
769
798
72A
7CA
029
7EB
7A3
030
77A
7A4
71B
78C
7A5
00D
0DF
01B
73C
06F
790
7A2
02A
7CD
7DA
72A
729
754
7D3
031
039
7B9
7A4
7F3
033
7B7
7FE
004
7D4
7F0
7BB
780
765
7F1
0AD
143
787
017
7A6
7D9
745
048
02E
7EF
011
005
7FA
009
007
7A2
04F
078
0CA
02B
084
037
7CC
7E3
79B
755
7A8
057
0B0
21C
7D1
797
7F9
0B0
7DE
11A
028
065
076
07D
00F
05A
082
031
012
010
023
077
05D
077
7EC
7B2
7CF
00C
02D
7FB
122
20A
7E4
05D
0F2
11C
12E
04E
09F
0A3
03E
053
081
038
025
019
083
7F7
03B
025
07D
01E
078
058
7CF
7B9
092
7E7
0A5
1F0
0A0
0BB
134
137
0BA
036
0AD
006
04F
7AC
7E7
04B
04D
042
04C
097
046
026
00B
7BD
013
07E
7FE
765
76A
040
084
124
045
060
082
0C8
067
075
07B
014
09B
03A
04D
0F8
032
01C
7F0
012
079
7D9
7A8
03B
09C
098
193
01B
73B
7DD
076
7FF
0F0
01D
05A
04D
7F2
005
76B
02D
084
035
07F
03D
010
7E3
7DC
7DD
7E0
748
787
016
07C
12A
2E3
196
04F
023
7ED
712
7F7
065
7CF
7EB
74A
7BB
7C4
05F
093
03C
02F
025
001
7B6
02F
7A0
7C4
7A1
7F0
7B2
028
142
309
2A3
0B2
7ED
740
65E
7B8
7D5
7BE
775
7FB
7CB
043
0A5
0D5
02F
7D2
7D0
7D9
7D2
01E
7A5
7E7
046
7FE
7F9
045
0E7
26D
23B
0D5
091
7C1
6DF
04D
7ED
7E6
7CA
065
7E9
071
129
07C
024
000
7C3
7BA
00D
065
052
047
79B
7E2
7F5
067
171
1BE
18C
0C0
04A
6A8
780
022
75E
7C7
085
7D4
019
0C0
0C8
077
0C3
05E
024
04D
003
7CF
017
059
03A
063
059
04B
0E9
19D
101
053
017
022
028
012
7E9
7D8
008
021
044
0A3
0BE
044
077
039
057
020
7D0
01D
048
7D3
017
7E9
050
082
105
180
028
798
030
7DB
7CC
7D8
060
7F9
02F
7FC
7FF
0C7
06A
08B
094
06D
053
041
7F9
04E
084
7F2
042
022
0B4
088
10A
0A8
740
79F
020
7EA
7FF
7DA
011
7F3
7D9
7A2
7D1
02E
072
0D5
094
075
059
0B1
029
05F
7AA
7D6
7BA
08E
024
06D
0D9
792
732
792
7DA
7B2
008
741
017
038
014
7CA
748
033
08B
02D
0A6
06A
084
0D5
08A
089
022
7C5
041
092
09A
075
7B0
6FE
75B
74B
7AF
785
754
799
7D4
7EF
7DC
78A
026
047
00D
096
0F4
0E5
14C
160
05E
041
7EB
7E5
055
7F3
00B
02A
794
79B
7BC
78E
7CB
7EF
0A6
7AB
766
75E
748
7F2
021
7F4
01A
04C
0AC
067
07A
0CF
087
030
018
007
004
7E1
7F4
772
7D3
74E
7E3
01F
049
047
06D
7A9
775
769
6CE
780
761
783
7B7
7D2
77F
7DC
7E2
07E
09D
03A
7C4
02F
7A0
7D4
79C
761
7AC
762
7DE
7ED
08F
136
124
7C8
76D
792
750
749
79E
783
792
74C
79D
7B4
721
7CF
06B
09F
05A
7EF
747
764
768
78A
75B
7B0
7D0
00F
7CA
14E
101
7A2
75F
798
7EB
774
787
79D
746
759
7AD
777
796
7A2
025
026
080
006
019
012
039
7B4
023
048
7D2
7C0
041
076
7DA
7E2
79A
7FB
011
7E9
79D
77E
7C9
7A4
7A3
024
7B3
75F
7D5
7BE
7F1
00D
7E4
01A
006
78D
7AD
7BD
773
752
027
04D
7F9
7DC
7E4
729
774
796
79E
796
79F
79C
794
7A5
771
7AF
7C6
780
031
77D
775
7DB
7D5
053
770
7FB
7C7
7FB
072
008
7C2
03A
060
7D2
794
7B8
7B9
015
012
78D
799
753
701
71B
76F
7AE
791
7B7
7CC
7B2
7D0
024
79F
7BF
062
05A
7E8
77E
7BB
060
0D2
00D
7C8
75F
78E
79D
7DC
003
7CF
7CB
7B3
7C7
78E
771
772
75E
7A6
779
7DA
7CD
039
7E4
7FF
7C8
025
781
7EE
008
0CF
766
79B
024
7FA
7CC
7E5
02A
7CF
73F
7E4
73A
762
79A
06D
732
767
04D
06C
028
0D0
046
7CE
010
741
7B3
003
