022
00B
7CE
7F7
7B5
748
7A1
730
6B3
61C
5F4
550
597
5CB
600
5D6
665
6DD
6FB
5E6
67F
75D
7A6
644
6AC
0A9
79F
7EF
06A
7E5
749
740
6C2
709
654
686
5F2
651
4E3
522
4A2
4B9
415
4EA
583
60D
5D1
6DA
6CD
6D4
63E
6F9
772
6E9
787
79F
7B2
00E
6CB
62F
5E5
5B5
5A6
608
6B9
68D
776
743
6FD
699
724
6A9
73B
761
745
7F4
77E
7A2
7A8
7CC
797
75C
72A
0BB
77B
69A
608
724
65B
620
70F
72F
01C
025
05F
041
03A
009
7C1
016
7C9
7BA
7D7
04F
7AC
784
7F6
7A6
78C
747
6E4
7A3
784
66A
6C2
6D4
6EE
745
7DB
7BD
7AB
025
045
040
0F2
061
036
00A
028
782
037
074
041
05A
026
7F4
7C9
709
765
75A
7A6
7A7
760
76C
78B
7E6
7D9
7EB
026
072
065
0C7
120
0A3
03C
033
7CC
7AE
01D
7F7
7A3
09C
010
7F2
069
73F
777
7E5
04D
7FA
045
78C
7C6
7FD
065
068
066
054
097
08B
091
06B
064
06C
7E3
7CE
026
051
03C
7E0
7CF
7CE
02D
02B
7DD
125
7C9
795
032
020
061
0AD
0EA
0A1
077
128
06A
04A
089
0BE
071
035
7F9
033
05F
073
7EF
000
025
7FD
0DC
061
0D0
1C3
7FE
745
0C8
060
09E
09F
107
0A3
09B
06F
029
7FF
056
0ED
06A
7C0
764
7EB
01B
026
02F
7D0
018
046
004
07B
073
122
7A1
7F2
0A9
08A
053
09C
098
000
046
7E7
05F
02E
7FD
04A
012
7AF
790
7CB
7DF
00C
006
01F
791
02D
03F
0E0
7F2
074
0A1
02D
7F3
7F0
01F
02D
018
076
064
064
01F
076
09D
040
0B3
0B6
03F
031
00A
7F3
7C2
001
03D
008
01B
001
7BE
78B
028
000
0A1
03E
087
043
7F6
0C0
079
02E
093
045
0A2
0AC
081
112
092
064
03B
7E7
7FD
066
08A
0A4
0A0
7C4
7A0
6F1
030
026
032
036
051
03C
03B
0CA
078
06F
068
0AF
0BC
0E0
0E5
098
043
001
040
02A
054
066
077
0B4
006
6BC
735
62B
08B
0CD
7FD
01C
060
782
071
7E3
02C
017
030
026
092
028
7D9
025
7E2
029
03C
03C
00A
7E7
7D0
009
79C
710
72F
6D5
026
061
037
7DA
00C
7A3
7B3
7C7
7CA
7E5
006
76B
033
04E
01B
01B
028
034
006
7DC
00F
79A
770
7AA
6D4
6D9
7C4
756
73B
00C
05B
041
00F
7E8
7B7
79E
015
7D4
7A2
78A
7EA
031
7F6
010
03B
7F0
7D0
7C9
7AB
770
73E
7BD
05B
79B
716
6C0
7F7
053
07D
040
064
7D9
795
033
7E2
7F5
7A9
768
7A4
7F5
000
7FF
014
010
00D
7E7
7B5
75F
7DD
025
063
048
7BE
74E
7CA
045
007
7EE
7BF
791
778
00C
7CC
044
7BB
7BC
79F
77C
03A
011
01A
7C3
7DF
00E
7D3
005
02C
068
05F
007
01C
6C8
787
042
014
008
7C6
7A1
784
7DE
7BB
7FE
7C6
7B5
7DA
7D1
006
03B
03D
7D8
018
02C
7D3
7E9
064
081
000
00F
015
689
76C
056
781
7FE
7B2
710
781
779
7F6
7B6
7B8
7C1
7D9
7EB
7E6
7E5
7D8
7C4
008
7C9
7B7
025
002
036
7D4
7B0
73B
75A
76B
7DA
7E0
7A3
7A6
7A7
773
786
765
7BF
7E1
7B9
7FB
7F4
7E0
7A0
02B
026
792
788
7F0
7E0
7F0
7D2
7E4
7F1
7AD
005
78A
7FD
035
026
760
76B
7A8
75A
776
7B7
7DE
7A4
7F8
7EA
7E0
01F
024
015
752
7A9
7A5
789
75E
78C
05F
09A
785
03E
7D4
7CB
05F
087
04B
058
036
7B4
799
7BB
7CD
001
004
018
02B
006
080
7D9
756
78A
7C9
782
7A6
02E
093
051
7C4
7EE
06B
0FD
017
060
0B8
03A
070
056
057
7E1
02E
01F
7BA
7DD
7B7
7EB
018
79B
73A
7D4
7E9
713
7F1
084
042
090
051
7A9
7D5
0A3
01E
094
7F7
01D
7EB
01E
7D5
7D1
770
756
7CD
794
7C8
7D6
023
743
7AC
06F
01E
7D3
005
7A4
06D
0B6
73E
01C
7E4
01E
056
037
06E
083
041
7CF
7F8
774
7F9
001
7F7
020
7F1
7EA
00B
6F0
6C2
720
7A9
7A1
6F5
7A2
0D1
086
79E
00F
01B
044
78D
7D7
030
0B7
073
068
073
074
009
002
02A
7E3
7E5
015
7CB
681
629
64B
6F7
6F3
756
7DB
7F2
069
050
012
035
035
7F7
005
026
069
7F4
7DA
7FF
0A7
053
022
0BF
013
051
065
7CC
6FD
6A1
615
751
74D
7F3
056
050
02A
02C
7FE
