00D
FDF
FC5
F83
F5F
F1F
F81
F24
F2F
ECD
ECF
E8C
EC9
EFC
F4E
F09
F69
E9F
F33
DFF
E15
ED8
F12
E8D
EAD
F94
ECE
F77
049
FF9
EF5
F0B
EB0
E82
EAD
EC0
E1F
F71
DEF
E2C
DEC
D71
DB3
E01
E28
DEF
DA1
DA3
D7E
E18
F00
F06
E94
F26
F5C
00D
FEA
FAA
EE7
E76
E52
E34
E04
DE5
DC6
DA3
D40
CE3
D22
D22
DCE
E12
EC9
E99
DE6
FC4
E76
D52
EBC
E5B
ED1
F40
FB8
0A2
FE3
EDB
E6E
EC6
E7A
DCE
D6A
D77
D35
C7E
C0A
BE3
D7B
E7E
F4D
F9B
F98
00A
FD0
FB5
F12
ECA
FC0
F12
FAA
F7F
F63
F6D
FB3
FB0
EDA
F14
EEF
ED5
F52
EAC
F40
F51
FBA
FE4
028
F04
F4D
F67
064
FEC
025
001
FDE
075
FDC
F48
FD2
009
00A
01F
0CE
FA8
EEB
FE2
072
043
077
036
0CC
0DF
0D1
065
FE2
F72
F60
F7B
FD8
047
038
04C
04F
0CB
015
F4C
FB8
FB6
017
02B
08D
FE2
FBF
052
094
091
02F
0B3
0C1
106
144
08F
02D
FFB
FB9
007
009
06B
05E
039
081
02A
FDE
F9B
F7C
FDE
02A
024
02D
03C
028
0CC
06A
015
022
049
0AF
0F5
0C5
11D
0DA
061
029
061
032
FF6
00A
046
04B
037
036
F9E
031
09F
08C
0AF
08E
038
0B6
027
098
019
010
039
056
08C
0BA
0FB
0C6
FBF
F7B
FE7
F3F
F4D
F66
F32
FA7
FBA
FB0
F9F
07C
13D
0BB
0B2
032
FD3
06C
062
FFC
000
099
03A
FAE
FB6
08C
071
0DE
024
FB3
FD9
FD3
F99
FEF
F22
F68
F6E
FA8
FF3
053
0CD
0DE
08E
023
093
FF2
FCE
000
06A
FF9
FF5
02B
02A
FB1
074
042
0BA
04F
08F
042
045
069
018
002
F9E
02A
031
02F
011
0B5
01A
006
04F
04C
FEB
04C
06E
032
009
057
FFF
032
03B
10F
056
FFB
03E
0AF
048
05A
03B
050
057
0DD
067
05B
040
073
02E
FCA
FFB
045
FF5
083
01A
05A
FE5
F8F
FE7
007
077
074
088
085
02C
04D
095
069
076
03C
093
0A9
07C
020
021
045
F7C
028
FD8
048
016
01F
02A
FE9
FF2
FA2
028
FE6
033
044
037
025
FF8
008
043
057
04C
036
098
061
094
06F
083
0A7
05B
09C
085
06A
FDE
035
FC4
FE9
FFA
02B
F9E
027
FCA
03F
03E
062
000
051
03C
02A
053
017
038
FEE
FF0
005
FD3
F8D
FFF
070
11C
001
FBC
FF8
FA9
FCF
037
015
FF2
FD3
FF2
004
000
FAE
031
08D
06B
010
06C
037
02F
FAB
FCD
043
01A
FE0
F94
F6D
0B9
028
FC3
01F
FE0
FDB
FC6
026
043
004
028
FAC
FF6
000
FE5
00B
FED
054
016
016
FAA
FC4
00F
FFC
FE7
05B
F7E
F22
035
F99
FE5
FA2
01E
002
004
FF6
07D
FE6
FC9
FFA
FEA
01E
012
048
02F
071
05A
07B
FF0
FB6
FBE
015
FB6
046
EC7
F05
FC7
F45
F7A
FA3
FD2
FED
FC2
FE0
02A
00F
FC8
FA7
FB9
FD8
FE1
01C
072
063
05F
046
FE2
FDA
FCD
050
F8D
062
EAF
F24
003
F30
F90
F54
FAA
FD4
FD3
010
01F
FFC
FCF
FC8
F92
FC9
FD3
FF9
FF4
05C
06D
011
FDB
004
06C
FB4
FF2
FDF
FE0
F69
FAE
FF8
F52
FC3
F6A
022
FE5
FC5
FBC
F9F
00E
FD7
F57
FBF
F68
FC3
023
FC5
FB9
FB0
FA0
FD8
04D
FD9
FEA
069
092
030
FEE
035
FA6
043
02F
FF5
FD2
002
FA2
FEE
FF8
FF1
FB9
FA7
F66
F74
FC4
F50
FC8
F93
F78
009
FE3
F92
025
06C
06A
F80
FC1
025
F9B
FD6
F9F
F89
FCF
FA5
00E
009
FD1
FBA
FDB
FEE
00E
FAF
FBF
FD3
FA3
FD1
FA3
000
02D
007
026
099
031
F98
FCA
033
00D
01F
02E
03E
042
020
FFC
FD0
016
FE0
02F
FE0
FDB
FD8
037
038
FEE
FB2
FA4
00F
02E
093
06F
187
02F
F57
020
FD3
01D
FCE
01A
062
FFB
FB3
019
FC7
FC9
FB2
001
033
FF1
FBB
042
018
F69
F44
F71
F75
FD4
005
0A6
012
FE2
02B
FA9
FD9
FE4
FF9
08A
087
091
FF2
003
068
029
023
033
059
FB9
FF5
010
FB8
F48
ED4
F29
F8E
014
096
F6B
F8A
015
FB9
03E
FB8
FCB
F8E
FF2
FED
FFD
034
047
FBF
016
FFB
FF0
01D
FFC
038
070
FDD
EAC
DDE
E78
F13
017
09C
07C
010
FFA
F41
FEA
FFC
FBC
038
01E
04F
010
07C
0B9
0D7
0E2
0E9
0B1
0AF
05D
078
12A
14B
01A
F6D
FBA
134
09A
FEE
F4F
028
023
