7F5
016
7CF
7A2
7EC
031
027
7CC
6D6
608
773
713
7EC
7EB
792
703
728
6A8
66D
77A
752
65A
66E
7B9
725
760
7F8
787
045
7F4
7B5
7A6
74D
798
0BB
7AB
7B2
7A9
7C5
01D
7D6
7DB
021
794
77D
763
726
6D1
72C
03E
7DE
772
7A8
721
003
764
01B
7FE
7F7
02D
01C
04C
7D5
009
7AA
79C
7CC
051
7AC
052
7D0
7D7
7C7
7D7
774
7F6
00F
7AB
7AB
073
035
040
05B
050
7A2
7F8
086
055
013
045
057
076
03D
7F8
7A0
7DE
010
7FB
01C
7E5
7C4
026
014
081
7B1
00F
7C4
027
780
06E
058
7EE
793
7B2
7F1
7F7
7CD
7F3
00A
7CB
7DE
02D
01E
7F6
02D
7F4
002
7EE
7E7
7B7
00C
033
035
7F7
04B
7D0
04A
086
7B7
07F
7BF
736
788
77F
7AA
7F4
7C7
78A
7D1
7E5
00F
03F
7D6
7F0
015
7DA
7F7
7EB
793
7D4
7F8
7E2
001
031
07A
02D
052
02F
7D5
7E9
019
7CB
7A0
7E6
7E4
002
7A9
003
7A9
7F2
7E0
035
012
7E8
772
7B3
7B3
7B9
7B2
7CD
7E7
784
013
7F9
7F5
03D
079
7DD
7E6
049
018
02F
05A
02C
032
018
036
017
049
044
02E
030
038
7FF
7AC
7EB
7A5
7AB
7E1
776
770
03E
01A
06F
7A0
06E
01E
05C
051
0B1
0B1
0C5
06D
046
05F
7FB
7F8
00A
023
007
04B
7F4
7EF
7FD
7F8
007
017
7CF
7F8
7F7
072
045
7F0
013
0EE
0DE
0AE
02A
0AE
054
0C6
046
058
006
031
027
08A
030
05D
028
04F
08D
084
7D3
086
053
017
126
117
0FE
0A2
09B
0ED
093
058
04D
05D
7FD
063
007
03B
07E
084
070
0BA
0CA
0A4
096
0A2
066
0E7
06D
04C
011
040
0F7
17D
1F5
031
038
086
01B
7CF
03B
7F9
7FA
7AC
7E9
04D
059
060
09A
04D
0AD
058
069
09D
0C9
0DD
0C4
0B5
051
7EA
026
056
0A7
0ED
060
00B
001
02D
019
7E0
79F
7B0
019
02A
032
053
03F
032
044
045
7D2
044
079
062
08F
01E
05A
7F8
7AA
0A7
76B
121
7DA
7B3
7CA
7B1
746
6C8
77F
076
055
085
075
04C
023
044
033
7B9
012
005
055
044
02E
01E
7EF
7A4
796
094
073
05F
76A
010
7E5
79E
6E0
763
088
0D5
06B
063
06C
02E
045
063
7D1
7BD
070
031
7E6
7E9
75D
7B3
7E3
7DA
76C
7E5
007
78D
7BE
7A1
76F
774
74E
7C0
149
14E
076
026
00B
7F8
01F
7ED
05F
020
0A8
020
042
7D7
7A3
7EE
00B
028
7C1
7F7
78F
062
6B8
75A
783
763
00B
038
0E1
0C2
12A
0B2
07D
7FC
02C
7C7
7E3
770
7E8
7EC
7CC
7AD
766
7AB
053
7F9
7E9
002
7E1
6F7
6B7
751
73B
7C5
7DA
7F1
032
074
0CD
082
06B
03B
7C9
036
7A0
7B9
7B3
7CA
7A8
771
78C
769
7EF
016
7DA
045
7D0
77A
71F
73E
7A5
783
78B
76E
750
76A
7F7
039
052
092
00B
7BB
770
783
79A
7FD
7BD
731
7E0
783
7D4
01F
7CF
00D
7D6
7E7
79F
799
7AA
770
75C
753
738
70C
77A
79D
7BB
7E7
7FB
01C
01B
7C7
79C
00B
7C2
7B9
7DF
7BE
02A
04E
013
00F
7E4
00E
7ED
77C
75B
76B
75F
79C
7C2
7EE
730
745
769
7CE
00D
7BB
004
017
011
05F
78C
6ED
7DB
7C2
007
043
0B2
04D
01B
7A0
012
047
7AA
045
7D3
7AF
7CE
7D9
005
003
7CA
7AA
007
06D
04A
020
08A
099
763
752
746
7DE
78C
073
073
05B
034
031
044
02B
097
049
7EC
029
7DF
7FD
7DC
7E3
7F3
01F
7AF
006
07B
054
07A
072
765
782
7A0
71A
740
7CF
0AC
033
788
012
02B
06F
0CE
068
7DF
007
7EA
7FF
7E8
7F7
00A
7D6
7CB
7C0
025
0B8
019
031
789
69A
77E
6D5
7C6
764
016
034
736
7F0
037
0D0
0D0
0C3
0A5
006
034
7E7
7CD
7A2
790
000
02F
0B6
0BA
0E6
080
014
764
6CC
6B8
6A6
78D
009
001
757
75A
023
04A
00B
0FF
091
0D1
12B
12E
086
051
036
01B
082
04A
13C
0F9
0C4
7FB
7F8
75E
67D
64D
6DA
6D8
029
7BD
79D
006
7B1
050
7EB
013
006
08D
154
098
113
0DC
0FC
07E
07D
07A
0D1
069
009
032
7A9
710
5D7
5FB
695
01B
7D1
795
760
008
7D0
7E6
7D6
027
7E3
093
140
11C
103
14E
102
149
121
02A
05B
049
7B2
063
05F
773
6ED
6D6
7CB
771
724
758
7EF
005
