001
00C
3F8
3C0
3B9
3AB
072
059
018
006
08F
006
0CB
105
053
054
0F0
06D
0EC
023
37E
04F
075
03F
028
35E
002
016
3E8
017
3F1
053
3F7
3CD
399
392
006
0A9
09F
06A
0F6
046
0AD
070
092
07B
0BE
0FF
0E5
03B
06F
35C
29F
3A3
2F0
34A
01B
011
0D8
0B5
020
020
036
3FF
08F
049
3D0
3F7
078
0D2
0A7
09E
079
0D4
0F0
081
09E
07F
11F
134
0B6
3E6
3F6
3FC
008
3ED
067
0F7
057
3E9
060
3F0
06B
078
092
075
00C
074
08C
078
061
100
07E
085
033
042
030
0B1
049
3AE
009
01E
3A4
096
046
0B9
3F1
028
024
018
0C8
07C
0D1
089
08D
07A
0AA
065
097
051
073
0F4
05B
3FE
082
021
031
3FB
06C
3FD
056
3E7
018
08F
009
059
04B
02B
037
06B
3A6
031
02E
3AA
00E
040
00D
023
3E4
003
075
083
0A3
056
02F
3FA
073
0AD
35D
3A0
000
395
067
064
03E
088
041
053
078
017
03E
3D0
3B7
009
036
006
03D
3FC
074
06D
02B
049
3F7
030
3FC
021
04F
019
00E
074
3F2
042
0A9
3F3
39F
3D9
34B
39F
025
039
3EA
05F
04D
00A
037
02D
0CD
03F
052
085
067
059
026
38A
019
02C
043
018
38D
3B6
3C5
348
326
313
35A
380
3DC
090
0DE
091
3BD
3C9
3B2
39A
051
016
070
396
39D
379
31E
34F
373
336
39B
34B
2F0
342
2B4
2EC
344
32C
3A0
37A
01F
0DA
0F2
004
3CA
3DE
3E0
3C8
3D7
02D
3EF
287
32D
2CA
220
3C0
39B
35B
313
24A
25D
2AA
276
243
2AC
379
33F
365
3AD
141
144
01F
3FB
022
3FE
3BE
04F
07F
36A
28E
353
33B
2A8
362
047
272
2D0
241
254
2FF
313
371
3C9
32C
3E4
2E4
337
139
0DE
032
04E
048
036
3FB
07D
02C
2D1
254
285
2CB
3DD
390
01E
39F
2E3
383
04E
3D4
03C
027
3F8
3D9
3F4
359
062
06E
09B
06F
061
0AC
09F
096
0B3
3A3
262
216
2B6
34E
030
0AA
01B
04E
034
01C
3CE
3F2
3C1
3E4
3C4
011
3B1
3B7
3C8
01B
04E
0D3
0A2
100
020
05E
3E9
2C3
213
345
389
3F7
05F
145
134
0F8
03E
007
3CE
3C0
394
3CD
3CA
3D8
3C2
3A0
036
3C1
037
093
079
0DF
0E5
00C
3EB
2E0
210
319
066
0DC
06D
0F3
155
0D1
01E
004
015
39B
002
3CE
02D
036
373
389
3F4
3C4
3D2
01F
078
089
0FE
021
371
283
2D3
34A
3F5
3FA
007
0CA
0F4
05B
07A
008
03F
3AA
3BF
3D8
3EB
010
3CB
3ED
3BB
02F
029
025
3C3
052
0E9
3D5
2C2
2E5
365
3F1
0A4
057
3F0
004
07F
39B
04B
058
067
3B8
3EF
38B
03A
3B0
3B6
3D0
3FF
02C
3EA
03D
3B7
034
07B
363
29C
34C
3C4
3EA
3D1
3DF
04F
16B
37A
008
03B
3E8
057
007
3FB
3E5
05B
022
3FD
013
014
394
3ED
382
37E
07A
020
2D4
319
3A1
3C0
379
036
3C3
00A
10E
0DB
02B
023
3D4
026
007
3A4
3B8
021
017
000
3F5
3D4
3C5
3C4
3D7
38E
027
38B
2F9
37A
3F3
002
3B4
3B3
3CC
3B4
0A0
3E2
071
08F
02E
026
3E6
3C3
3DD
00B
3E9
00B
000
02E
00F
023
372
3F0
3F3
35B
2EB
32B
3E2
025
3E1
046
3CC
377
004
058
093
05F
3DA
386
378
319
3F7
3E0
001
01A
01B
053
3E0
3E4
00E
00B
37C
322
345
393
3E6
3B3
395
0F3
3F8
32A
001
107
02C
3E1
341
01A
353
3D9
3F0
034
3EB
3AE
3F9
02B
071
069
07A
019
3BD
2F4
3C8
3A3
378
3C5
02F
025
0DE
0CB
010
06A
082
0B0
105
399
002
03E
08D
070
3F1
3FE
029
033
038
0BB
0BC
05F
364
3A1
046
07E
0AB
056
037
100
194
031
3E6
3E4
07A
3EC
07C
07B
02B
0B4
0AA
3A3
015
0A3
07F
084
3FE
099
3C3
3BD
3A9
3DD
0C9
073
3C8
016
0F6
08F
0F2
027
035
376
0B3
0C5
0FB
077
145
101
07C
058
086
076
04B
067
08C
043
3F2
369
3E2
3B3
070
028
012
0E1
0FD
038
0BB
3DC
054
368
04E
0FE
074
04D
007
0B2
13D
0CC
0E5
03D
3A7
08E
3EB
357
017
3F9
031
3BB
022
0C4
0A4
0CA
0DC
026
3E5
025
008
39D
3DE
0D4
0DB
056
3AB
049
072
0D9
121
002
3DA
3C1
03D
043
038
3FD
3BA
3DB
022
3E8
134
130
093
09E
0C0
051
3EB
