001
00E
778
786
709
6F1
701
6B4
7BF
6C4
66D
65B
60D
6FF
725
731
7AB
737
76B
767
772
71E
7A5
79A
789
787
757
037
7C3
007
754
72B
666
60D
709
62B
5B1
6E0
628
638
68B
75F
763
79F
7AB
7B2
778
7DB
79A
7EE
74D
723
798
772
79A
74B
105
787
789
6E1
672
729
6B4
6B6
744
6D7
758
79D
7AA
7D4
096
035
00F
001
77B
025
7EA
7F7
7FD
771
007
7D1
7E2
769
789
749
729
000
761
6EA
6CA
792
71E
7F7
7AB
7D1
76D
00D
00C
060
023
7EF
008
054
099
03A
7F3
7D8
037
001
02B
7FB
761
70A
78E
76F
7D6
7AA
7B5
798
7E1
786
79F
78E
7E7
7F2
7D7
7DB
7E0
02F
01D
014
022
7EE
032
7AE
009
7CF
05C
033
029
79D
7EE
7DA
7AF
038
76A
7BE
7DB
00D
7DB
7A8
7CB
7B2
79E
7FF
7D2
006
7DB
046
7F1
7F1
01F
03A
018
00D
04F
000
068
03A
000
7F5
7EB
7D5
7B2
7E3
7AE
034
061
011
011
7F8
7ED
7D8
7AD
7E2
7EF
003
7E6
7D4
008
075
001
01E
03B
798
7C3
002
016
03D
7DE
010
7B3
009
011
03B
012
025
030
03B
004
7DB
03B
05A
7E7
031
018
033
7FA
011
014
04F
7C7
088
7D4
7F5
7FA
7A4
780
7C8
7F5
763
770
01B
049
032
7D8
00F
7BE
021
01C
046
7DC
001
045
058
03C
02E
058
022
096
02A
086
781
011
06A
00D
795
7EC
78D
732
7E7
007
002
018
035
7F5
02F
011
04D
7D4
020
007
7ED
006
035
003
02F
7A8
05A
02C
7EA
7DD
015
7CA
033
0A2
7FB
7E1
791
7CB
072
017
06F
054
00F
070
044
045
038
05E
7BB
7DF
7F0
016
047
7C7
7AB
068
77E
084
067
092
04A
077
0EB
076
798
777
032
050
001
014
02D
028
03B
068
072
04C
01D
7E5
7AE
7FA
793
770
7BA
0A4
098
7F5
0A8
01C
061
05F
0F0
0B5
037
75C
7E4
7EB
006
014
040
04A
7E8
02F
07B
0A1
7FD
02A
74F
7B8
6FB
68F
76B
08F
03C
00D
7E3
089
0CA
072
7F4
7EA
088
023
01B
7E4
016
005
051
020
07E
059
0B8
09B
054
796
72A
751
7AF
799
750
79A
7AA
7F3
7CF
06A
7F2
7D0
793
7CE
012
060
025
7C1
007
040
045
051
025
014
0D4
03D
76A
7A6
7DD
783
7D2
006
017
76F
01C
78C
794
7A9
6F4
6C6
7ED
051
034
03A
001
015
01F
027
086
034
0B7
0BD
0CD
73C
76E
7B1
7E8
7B1
7A7
018
06B
01B
011
7F0
753
682
70C
78D
7EB
07F
04F
7FF
032
7EB
045
00F
03B
089
095
04F
7AC
762
7ED
7AB
7DD
029
049
072
07D
003
7D3
76D
7A8
6EE
79A
01D
067
046
099
7EF
043
7E1
042
07D
09A
0B8
067
7B1
75C
781
00B
7E0
00D
02B
020
060
7CD
790
75C
727
6A1
770
7DA
010
01A
7E2
031
0A5
087
064
057
0B7
069
04A
7F8
778
7E7
018
001
05D
022
023
05C
040
6FB
79B
777
7BF
70D
70D
79A
7E2
05A
7EB
7B2
01D
02E
063
069
03D
034
01D
7B5
00C
03A
02D
7EC
012
03B
073
03B
044
6E7
7CA
732
7CF
7EF
7C1
000
05E
00D
007
00A
7D2
025
012
785
7F4
7BC
009
7E0
011
7F2
020
030
040
7A8
051
055
080
71A
7A2
789
7C2
7D2
7B2
068
059
00C
004
7AF
7F4
011
7D5
7C8
067
7D8
02A
7C2
7F8
04B
048
034
04C
7FD
033
031
0C3
71C
77C
7E8
004
7B0
7DB
7DD
010
7EB
7B8
7F7
7DC
7D0
7AF
002
7CD
7E5
002
7EA
7D4
7F8
7F4
013
049
031
7F8
002
0B3
75F
7C5
03E
7D3
794
088
000
015
00E
02C
023
7B1
7FA
7D4
792
79E
7C7
7A0
770
7C3
777
7AE
777
7BB
799
777
796
0AD
730
7A9
788
02B
7EB
020
00C
772
049
034
022
7AA
012
736
793
7E1
7FB
7E6
79A
790
7D9
7DA
780
767
77F
74B
000
7C6
745
736
7A6
7E0
7EE
7FD
746
7B7
7B8
7BD
771
717
78F
7C2
7B1
05E
7B2
00C
7CF
7AC
003
7A4
7F1
07D
780
041
068
753
006
6BF
763
7E7
014
798
7A0
7F7
7D2
7A3
79C
7CB
797
01E
019
7B5
7C9
7B6
084
7ED
08C
01C
15B
113
19C
05D
716
72E
7F4
706
7C1
7E7
667
746
6E3
73C
7BF
7DA
72F
75C
7D1
70B
787
7F6
05C
05D
0D4
178
168
20C
33A
1CB
106
77E
794
00E
7F0
