7E5
016
03F
7D9
775
764
089
742
7F4
7B8
7A5
7A1
04F
034
074
085
0A4
019
000
7FE
78E
003
037
00F
00E
7C2
07B
7F9
7AA
7F2
01B
7C9
7AA
767
108
783
719
737
6DE
6BB
753
739
785
01A
08F
7B8
033
7C6
025
048
78A
6E1
73F
7C3
074
785
08E
00E
79D
79D
75C
707
6C3
674
5E9
6CF
769
6EF
7F4
7DE
0B0
03F
06E
00D
0A2
039
027
07D
0C8
785
03D
7AD
0AF
7BC
792
7C1
754
776
6F9
6B2
645
660
5BE
605
64A
798
768
7AD
7D5
7EF
038
086
041
04E
03F
05F
7E1
76A
7EA
050
7B0
04C
7B2
772
686
6E4
67C
6E9
645
577
4F8
541
692
7E7
7D2
79B
7B4
009
7D2
7A9
7D5
793
7EA
75A
7F4
7E0
7E9
042
7DD
0C9
710
795
65D
5A7
5D3
61D
6AA
509
483
59A
7B9
047
056
06C
7F5
7FA
7A5
7E6
78B
78C
7E3
759
799
7B0
76E
045
08F
054
709
711
676
62A
5D9
5A2
636
526
511
73D
7D1
09A
07D
029
012
00F
7C1
78E
7E5
7A7
7A9
7B4
7A9
075
007
040
7FD
047
036
6C4
609
65E
762
620
662
642
690
748
025
0DF
08F
018
7D2
7FF
7AB
75A
79B
79C
02C
7F9
7B7
00C
7D5
7C0
77F
04D
6C7
6DC
717
645
67F
798
6FB
754
70F
716
049
122
06A
01D
7DA
7E3
754
77A
7F2
7F1
7D5
7ED
027
037
776
00A
7EF
7BB
6A7
773
6CA
6E2
667
63D
797
7A3
71C
6D1
042
0A3
0B0
07E
7FF
7B0
754
798
786
790
00B
043
026
030
052
022
782
033
7E5
026
72A
793
715
74B
7A3
725
760
7D8
02B
072
0EA
074
030
777
7D4
75D
02B
79A
7F4
7E7
003
074
061
030
7C2
092
059
6F3
6E0
752
706
039
7A9
7AF
7AE
045
077
0C5
0C6
017
7C8
777
721
766
79A
004
7E6
052
002
056
7E6
7C3
7E6
0CE
793
71F
690
076
038
77F
047
773
78F
7DE
073
07A
080
062
7DF
73B
747
772
7F7
02C
022
045
029
055
7B4
773
03E
12A
07C
744
6D2
771
72D
7BF
7C4
780
7CF
00D
00F
07D
0DA
088
796
6EF
71A
7B0
7B6
040
060
021
04A
7F8
002
036
05C
09A
7A1
700
71B
79F
7D1
7C1
7E0
7BA
73F
008
7EE
04E
067
7EF
7D8
72A
6E4
795
7AE
02F
7EB
7AB
06F
050
039
036
055
0E0
74A
76C
785
786
767
799
79E
790
7AE
7EA
030
0DF
088
7E7
006
7AF
72D
77A
7A7
7F2
018
075
005
05C
085
089
081
098
76B
7E3
7F2
7A8
792
7CB
02D
7DD
7C6
7F4
037
0D6
06E
784
017
757
6DF
7AF
7FA
763
7E6
016
06A
050
070
0B3
065
0F1
6A2
78A
73D
762
7DF
7E1
018
7E2
7F9
7FE
033
0A2
00E
7D9
086
7CE
743
7C8
7A9
00F
039
016
067
084
093
048
059
061
68E
723
01B
043
00E
7EB
7BC
7E3
7AE
006
038
09F
7F7
021
04E
784
7C8
79D
748
065
7ED
7F8
7C2
04D
08A
042
7ED
031
656
7C5
064
070
024
7E8
026
797
7EB
034
067
05F
034
7FC
015
7B2
791
79D
744
77A
013
7C1
01A
048
061
06A
04F
75F
69C
0BA
114
0FF
7FF
02D
002
022
7E2
7A8
7CB
01C
7AB
7A3
7BE
7DB
014
7E6
777
7BC
7D1
79B
7E2
7EE
7CE
7F4
7C5
784
720
00F
19C
0F9
0BB
064
073
036
028
033
083
050
006
00D
017
7F6
7F3
7CD
7FC
7DF
784
7CB
7FC
7DC
7AA
786
6EB
675
6DF
001
120
1B7
11B
0C3
0CF
13E
04C
0DB
13D
0DE
080
087
0C1
051
054
005
7D6
77A
79B
724
039
77D
7C5
770
702
7CF
773
03E
7F2
066
150
0F0
137
154
0D9
0CA
13A
0DE
054
02D
033
7E7
025
055
040
004
061
030
763
6D3
78C
7B2
662
703
6B6
7A7
04A
7FC
0A9
130
119
064
05F
053
7A5
100
068
00F
034
035
01B
077
097
7F8
0A3
7C6
7F0
75F
713
6F9
737
7A5
749
71A
7BE
772
75E
04F
024
01D
7D9
027
7F8
7FC
017
06E
073
08B
04F
085
07C
0A8
102
026
7DB
6A6
73D
739
789
787
72A
724
002
7A9
7D3
05C
043
02F
7FC
038
025
086
030
7F7
073
07C
063
0DD
087
0DE
067
7A4
748
6D7
0B2
07B
054
7E4
03A
6C6
75A
74E
7A0
7B9
7FD
003
7C3
7F9
004
050
0D2
093
0C6
082
0A3
0CA
097
058
7DC
6F5
76E
7DC
08B
073
7B3
022
