00F
7DE
7FA
07B
006
022
7A7
01D
7FF
052
00F
025
058
7E3
7C5
7B0
7FA
7F8
03C
03C
7EC
76C
765
796
083
748
051
04D
0AA
007
019
055
068
007
0B4
0E0
064
107
7BC
068
045
0EF
7BA
7DF
05C
016
04E
7E6
06D
057
01F
788
00F
004
047
062
06B
7D2
033
018
060
04F
0B6
0C8
0E0
083
0E5
0A6
066
076
05C
79E
7F1
062
043
7EA
055
7FB
02B
0C5
0BC
089
022
7F1
7DD
781
7EE
01C
06E
03C
06F
0B4
0D2
0CE
0DA
096
03A
051
062
7B4
7E0
7FA
054
7ED
039
016
7F5
079
06E
087
01B
04B
7CA
72E
7F6
022
017
019
7D9
026
7EB
01C
7D3
78A
030
7BC
7E0
00B
7FF
7F0
022
7FC
028
001
03D
01D
037
040
7A6
011
0B3
789
028
7AE
7E5
7E1
043
00A
063
08F
005
008
78A
7F4
7F8
01D
04D
002
049
014
026
016
7DD
033
7EA
7F2
045
069
0BC
038
7EC
030
07D
069
008
072
009
072
01D
013
7BA
7DB
00E
7CF
008
045
02E
039
015
062
026
019
064
7F0
79F
7EB
095
7A9
7EF
0AA
096
04E
03A
078
029
057
07A
03C
7FE
7EE
00A
009
002
09A
06E
0AE
083
03C
040
02A
064
02B
7EA
73F
7AF
0B7
04E
0BC
7E8
035
03F
050
04A
05C
03A
029
00F
793
7DF
021
02C
0AF
072
053
056
047
08F
083
065
024
7D7
75C
7C9
088
0A1
0D2
024
00D
057
048
002
001
022
027
7D6
020
7FA
03E
012
00E
042
021
031
08E
087
0C3
090
097
021
664
020
7FD
095
088
08C
084
04B
7D6
05E
021
063
029
7B5
7C9
01B
084
024
05C
062
01C
06F
028
08C
0B7
078
071
0AD
6C0
05D
7EE
031
038
0C5
06B
03F
7DE
017
02F
04F
011
012
7A0
7BC
04C
038
066
080
021
042
030
037
0B3
0E0
027
03E
7B7
001
03C
084
08A
013
06C
047
03B
034
02E
047
05F
016
7CD
7AA
01D
028
7F4
06B
034
033
00D
03B
030
046
065
785
6F2
030
086
03A
7EE
798
7F3
007
7FC
025
005
01D
09B
79C
73E
7B6
04B
7E1
036
00D
03E
02A
027
059
7E0
029
039
04A
7BE
77E
03C
000
009
79F
7EB
7B3
70D
7CA
7D7
78B
7D9
706
7DA
7DA
074
03F
030
041
062
7E3
012
7DA
024
009
7FE
003
051
7D0
7E0
797
7DC
011
7F7
764
7AC
72D
7B4
7EF
748
7A6
00A
02F
095
062
005
049
066
7F9
02E
030
78B
7AD
7A9
006
708
01B
797
75D
76C
005
7F6
7A8
6E6
79D
7BF
767
745
7CB
043
03F
7E0
7E5
7E4
02D
013
7A4
79D
78A
7A8
7F8
722
727
735
7B8
79D
7A3
79C
7AD
7E2
751
73D
706
6BD
700
711
01B
078
038
02E
05E
7DA
05B
7B1
78E
7A6
7B2
7A6
7A5
688
71B
72F
022
7C5
7AA
776
735
79F
759
669
72B
701
70D
7F5
0A9
051
009
02D
03F
7F8
7FF
7CB
7E8
7A6
001
782
79B
6E6
762
705
01A
032
7DB
036
7AA
756
741
78C
768
631
6E2
024
08D
063
00C
00A
7B8
7D9
7CA
7E3
7B3
77C
7CB
7FF
7D5
74F
70B
6C1
782
76A
7E3
7C4
7DC
78B
701
72C
71B
6FA
772
7E8
7FA
035
013
7F9
7CB
7EA
7F7
7D9
7C5
73E
7EF
7FC
79F
757
6E9
75C
71A
6A6
77F
6F9
712
722
6D0
6CB
64C
701
783
79D
7DA
04C
003
7EA
044
7F0
7B5
037
7FE
776
7CC
7D5
7C0
02B
744
78C
04C
76A
741
6AF
6BB
69E
781
72E
6D4
766
732
77F
7F5
7C8
002
7E3
025
03D
7FD
043
7AE
799
016
013
78B
7F5
052
7E8
02A
749
6B9
69E
656
5FE
68E
636
74B
075
7D8
01F
041
7AA
74E
7C8
035
7F3
7DC
7D9
7A3
7FF
076
0BE
00E
7E7
083
713
014
7A6
6EB
702
6CF
68F
6C2
74F
7E1
059
0C4
024
79D
76E
7BE
7A5
782
7D9
7AD
002
7F5
08E
033
022
7A4
033
76B
792
7DD
788
716
6DC
72A
727
743
7A3
009
0BD
012
022
7A4
7C0
7BB
712
7BD
73A
7D6
78E
7B4
728
7CF
7F1
7BC
7AA
792
019
7A1
74A
6EF
6C7
724
726
788
01B
053
01D
04A
056
004
007
746
772
7D9
768
723
65E
6B8
70A
75E
787
79B
791
74B
023
7A5
78F
70C
75D
799
7CD
74E
7DC
7D9
7E9
7D1
011
092
008
763
7F8
764
74D
6D2
663
68E
656
7A1
01C
7B2
71F
7FE
7F2
