021
016
088
03C
02A
062
783
7DF
064
0FD
02D
0BA
061
03B
015
06A
051
0EB
0F3
02F
0EA
0D5
0D5
083
081
009
7CC
796
058
016
0C8
783
7A4
76A
034
04C
7E5
05C
041
070
015
038
016
0AD
076
0C2
0E5
0DB
0F8
13F
11B
162
15A
05E
7FC
094
044
08C
77D
707
7DC
7DE
7CA
749
7BE
7C2
7AB
796
018
7F3
041
7BF
00D
04A
7F5
050
7CE
058
04F
059
055
08D
7C9
050
7A8
772
06D
7D2
7D7
7F1
7C9
7B3
79D
7D7
015
7F8
760
787
754
762
7CF
792
739
7E1
7CB
7B7
7D8
70D
7A8
7D4
109
7EC
747
7F6
03F
7DA
7CD
783
7E9
7EC
75F
7CA
75D
762
74D
736
76F
755
74A
769
713
72E
7C3
7B6
7F4
775
75E
75A
02E
034
05E
008
007
033
038
7B7
7FD
741
78D
770
75F
756
7BA
77D
7C4
78C
7BC
799
752
75B
757
7A9
77E
73E
778
756
7AC
051
06C
03B
05C
794
015
7CC
7E0
770
711
7BF
739
7A9
7C7
776
79E
7AC
7A5
7EE
7F8
7C7
7A2
76C
794
71B
6E9
673
7A7
79D
093
018
066
7C7
7CD
7C1
790
759
7C0
79B
792
77D
7C2
7EC
00E
7A8
7D1
7B9
7D4
032
7F0
770
765
761
75B
7FB
7E4
76A
0C6
03B
796
792
78B
7D7
7D0
028
015
026
006
7EC
091
01B
05C
012
020
079
07A
087
037
052
7E4
7C2
7EB
009
067
770
099
02D
08D
003
799
7DC
028
04B
0E1
06E
7FF
055
01B
01F
7FF
000
026
045
7F7
062
051
02B
034
7F0
04F
0A6
7FA
7BB
087
7A5
074
079
7AC
01F
033
054
00E
012
76F
7E4
01F
794
7D6
7B3
008
001
064
026
7D0
042
7F7
065
022
004
017
781
7EF
7F4
129
16B
107
040
022
084
032
79F
7D3
041
052
7F1
07F
012
070
024
03F
04A
029
016
04C
064
020
75D
026
77E
084
038
0E1
05B
063
108
021
0DC
04A
7E5
031
080
098
060
047
0AE
01C
011
7B9
7E6
033
7D9
00A
018
00A
044
0FB
7DF
765
7D8
065
085
0DC
119
071
031
000
040
049
02E
06F
04A
071
070
00F
07E
053
00C
030
7E0
054
01A
076
089
0B0
011
770
730
06C
05A
075
08D
08B
04C
04C
080
062
021
090
032
042
03A
04E
042
06E
7A5
041
08A
07F
013
7FE
092
03D
76A
7D6
7BD
03C
78D
7FA
036
082
064
0DB
0D8
06E
07B
06D
047
057
059
020
7E7
023
7F6
014
073
050
05A
064
0AE
024
705
7FC
78D
7D6
7BF
7CC
079
7E7
0AF
7F6
044
08B
065
025
7FA
026
042
00A
04C
042
033
05D
017
082
035
034
7C4
7FA
7A7
7DC
04A
7E8
02C
7DE
7EC
7AE
7DA
792
7DC
7F1
76B
77C
7F4
025
7F2
7D8
7F6
02C
041
0A3
016
7E1
060
7EA
03A
7EB
7BD
04B
029
055
7D3
7C3
7F7
7F7
7AB
782
77C
7B6
7E8
7EE
011
7C9
02F
7D4
078
07C
0A5
05C
09F
03F
031
01C
7F9
01A
7F2
7F4
7AD
048
005
7DD
018
7CB
00A
025
073
05A
0D4
0BD
03E
016
008
7AD
058
018
043
089
045
03A
064
01A
056
047
7B8
00E
7A8
7A3
7BF
7F8
029
034
02E
040
052
0A7
042
065
014
7E6
7D6
7EC
041
055
084
04D
096
03D
084
7C0
783
7EC
7CA
7C6
7E0
7A4
7D9
7F2
7AE
7FE
05F
7FE
068
032
071
7FD
01B
781
7CC
7C6
7F3
001
7E4
07F
033
05C
7EB
7EA
741
7AC
039
7C9
73B
785
701
725
75F
7B4
056
07D
01A
061
044
7FE
01D
7CF
045
001
002
7F3
028
08E
0E1
061
788
70E
6BD
014
6F8
766
734
6B3
6D6
702
6AF
77F
767
7FD
012
01B
099
082
03B
00F
020
00B
04A
002
7F5
018
08F
7E4
7AE
701
6C1
7D9
6F6
798
793
750
5AE
6CA
7D4
788
7A1
7D1
7C9
058
051
085
06F
06B
01D
7F5
7B0
7E0
79C
01B
057
7BE
75B
795
722
027
759
04C
7AB
76C
737
6B5
6E5
793
76F
01C
7C4
7B4
7D4
7E1
029
02A
052
013
75A
7C8
7D7
75C
003
775
754
7C2
79A
08B
7FD
000
030
771
044
6EE
704
685
692
6FA
742
751
006
7D3
7AE
006
015
054
7D1
7E6
7B1
76D
75D
700
781
755
7DB
7CF
7E3
75F
0A4
7EB
096
08B
7E2
74A
785
6BE
706
73D
779
766
750
790
031
73B
753
00F
7DA
71E
722
74E
6DE
732
79D
7F3
010
