016
7FF
014
7E4
7D4
78C
7A0
783
7CD
744
6F9
07D
0E4
105
0A9
128
117
070
11F
19B
067
0D0
109
11C
0C1
12D
093
0C1
05E
7E3
069
7BB
796
7EA
046
717
6B2
73D
6BB
741
057
0CF
0DB
176
10D
067
0FB
185
125
0D7
0D8
0A1
156
1ED
150
0D1
08B
757
76E
76D
736
715
716
68D
6DD
707
7BB
030
06C
0A8
047
069
0E7
110
19B
0D6
1E0
28E
1A9
121
124
0FC
0C4
055
78D
7CB
75D
055
6CA
691
6CA
68B
60B
7D0
77E
006
7FB
012
02B
086
0C2
109
072
0BB
0E7
0E2
12D
128
059
093
0FA
7FF
78B
73A
6AB
6DD
6DF
6F1
73D
66E
6F5
7C1
7C2
7D2
06D
011
7D4
042
09C
028
79F
79C
76A
041
749
7D7
0DE
062
77C
081
714
6A9
72C
6DC
6F0
694
701
643
729
78D
7FD
044
06B
03B
036
0B2
072
7E5
784
767
729
7CC
7FC
7B0
780
7CF
75F
04A
6AC
650
6C5
63E
63F
6A0
672
6E7
74E
00B
7E5
0B0
05F
066
008
044
08E
002
7CC
041
7E4
7CA
7FA
714
791
738
6B3
765
7C6
679
6EB
6E1
78C
66F
79A
7C7
793
7FA
7F5
08F
05F
07D
058
099
0E7
028
7DB
77E
763
752
723
6A3
70D
68C
70D
76B
6CC
6A3
688
6F8
661
04E
768
787
77C
7C0
05E
086
0A9
7EE
7F6
7FE
0EC
044
72C
68D
6C6
744
7AF
76B
777
671
73B
74B
680
71C
642
744
6EE
74E
77C
772
741
7CC
011
7F8
7B5
02A
7E3
03A
08F
0D6
789
76C
6ED
785
7BD
036
05C
7D8
002
076
05E
6FE
6BE
695
6BA
6F1
7A2
741
78E
776
76A
7EE
023
7FB
04F
039
0A5
013
08F
7C2
02F
7F3
03A
02B
048
7A1
7C5
02F
74E
747
6A6
6FB
6EB
779
792
707
73C
766
7B4
7EF
02F
046
016
038
075
7A5
7BD
01E
016
7CB
7A9
036
005
777
070
048
735
7C5
6D2
006
08E
740
7FE
601
744
7BD
016
7D5
020
03D
05D
057
024
017
7AB
7CD
72D
780
746
780
76A
00F
01A
0EC
76A
692
6CA
6D2
6AE
76D
6F1
67A
6DB
7DA
7DE
7B2
030
04E
070
022
790
76D
74D
71E
76C
790
7AC
7F4
7A1
7ED
048
0E4
774
685
708
75F
000
054
765
6A0
702
01F
01D
7F9
011
056
08F
79C
77C
755
773
7BA
78A
795
7A5
7D8
000
7FA
02B
07B
796
708
74E
7F8
7BD
7FE
717
676
714
00E
02C
00A
001
070
009
7FB
73E
743
7B5
7B7
00C
7A1
7B3
002
011
059
026
0CD
785
780
792
731
7E8
761
757
6DF
74A
046
02C
012
007
06E
7ED
74C
7E0
791
7D3
04A
7FC
7CB
024
00C
04C
7C5
01C
0C6
706
7AB
6FC
76F
7D0
7C0
789
7AF
005
7E1
7D2
7D7
792
7C9
00B
7FA
7B9
000
021
00B
029
0C3
04C
7F3
7F2
007
7FC
0FA
64E
6DC
770
00D
7E8
779
774
737
7C0
7FB
7CE
7CD
7A3
007
7C3
746
059
00B
026
002
086
05E
0A0
052
03B
001
7DD
090
70F
751
7B2
7D3
76F
6FB
775
7D9
7F3
7C2
75C
759
78C
77F
7E5
053
03C
042
036
052
078
03D
002
039
044
05D
7F9
7CA
79B
041
027
041
797
76B
74B
7CC
790
779
774
761
7B6
7B4
034
027
7E8
7FB
06C
04B
09F
07B
7E7
05E
0A9
7BA
7E1
7CF
795
751
7FB
00E
79C
018
08E
7E4
053
098
0A8
0B3
033
005
7DC
062
7D7
033
08B
068
0D6
0DE
08F
053
09F
095
007
7D5
027
7FE
04A
12F
0E2
10A
0E6
18F
19F
1A8
205
148
0DA
0F3
134
0FF
085
0A3
067
047
061
099
064
079
075
006
7E4
029
015
0E8
086
0B8
10F
130
128
178
139
189
1E6
1D1
13A
12D
0D8
121
0EC
0C3
0C9
0E5
01C
7F6
018
7F9
095
0AD
001
019
7EF
7F2
07A
113
0D3
14C
035
00F
724
778
7BF
043
041
0B3
08C
0A7
0C9
0D0
099
0E1
0B1
751
7C4
024
0B6
001
0A0
7CE
79F
7E1
0E6
08B
054
131
013
7B6
730
776
6FC
7A3
764
7CC
05E
0A6
0B1
0CC
0D8
08B
758
775
772
7C7
7A5
7BC
72F
794
7F0
70A
012
0E9
01C
078
7C2
76A
7E5
78F
7CC
009
7D7
033
7C0
009
7F8
07C
6F4
662
6E5
6FE
775
72E
73A
019
7FC
7F4
009
6FC
783
77F
753
76E
740
7F5
012
7BD
016
7EB
7D8
7F1
756
0CA
610
602
490
536
633
672
6B8
785
7D5
083
7AE
009
