7F5
7DF
7EE
7EF
77F
788
769
6F2
7FC
6B6
6E1
68E
784
6E0
743
7BB
786
650
5DE
677
6CB
5B1
5E9
6C4
021
02B
6EC
75C
7E5
005
7B9
781
763
77C
055
6E7
64D
09E
639
60B
5FA
680
643
6F3
6BB
6DF
6E7
756
6A7
6D9
79E
08C
058
069
79B
00B
019
7CD
776
7EA
6F5
759
68F
63D
682
591
6F1
69C
603
6C2
6DF
679
6AB
681
6B4
7FB
7E9
75C
007
01B
079
006
092
081
7B5
757
7A6
09F
7A0
7B0
75E
77A
6FB
6E7
6DC
6A5
663
750
6CD
6F0
6C1
66B
6D2
6BB
737
775
769
741
773
7C3
022
118
746
71F
672
700
761
67E
6EE
707
798
745
743
73E
7B6
7B2
7AE
793
738
7C6
7C8
056
01A
026
7DD
796
7CA
7EC
7E5
7EE
700
6C3
66F
605
6ED
6BB
767
725
784
740
774
793
7BA
7AD
002
040
06F
068
07D
041
086
04C
7C3
7E1
790
036
7F1
7C5
712
736
738
672
76D
71E
7B6
058
774
794
7A9
7EC
031
045
067
06A
03D
085
081
0DE
08C
03D
072
02E
074
7F1
00B
77F
058
722
7F6
72D
71C
759
7D0
789
727
792
7B1
03F
084
054
064
021
045
058
04B
0AE
075
07B
055
009
027
7CD
7A8
777
715
76C
7B3
77F
6BD
778
74F
731
742
7F7
7B5
04D
080
7E8
059
036
006
002
7FE
04F
04B
0A0
0E2
065
7C9
7B6
7B5
716
719
716
77B
750
6A5
6DE
76C
7A8
7E9
054
029
7E3
055
03D
7E8
7CE
7D6
7EA
7FE
050
031
071
04E
09B
07C
029
095
760
016
6F8
67C
6D8
684
736
7D2
04C
03D
05C
00C
08E
04B
001
006
7E6
049
7BB
024
05B
017
033
04E
09F
09D
048
067
7C6
72D
6B6
70E
73A
676
7D6
7C6
030
020
05A
7F7
046
084
04D
7DE
006
7A7
7F4
7CA
7D3
7A9
01B
005
7C9
028
06E
031
79F
049
74C
79A
705
037
786
00C
7F7
05C
03E
044
0A6
0CC
084
01D
7D5
7BB
7F8
7C4
7E4
7D1
044
799
051
7E6
065
7DB
7EB
7DA
7CC
6EF
708
720
004
022
063
030
0A7
010
0A0
0BA
0A3
7A1
7B5
012
798
770
7E7
7F2
7E8
7C3
7CF
7F9
069
0F9
083
7C5
00A
7C9
762
7DC
074
092
07F
055
07F
0E2
0CA
074
014
7CF
7CE
7D1
7AE
790
7E4
7A2
799
7F0
7E1
014
024
011
7F6
788
00F
7BF
016
791
0A5
08D
0E6
05D
052
0A7
09B
7EF
7D7
7E1
7F3
7CA
7F6
7D7
7C9
023
7FB
017
796
04B
7CF
7F7
765
745
7C6
055
0AA
038
046
0C5
069
07D
0C6
04F
00E
7CD
7F6
7A0
7D4
7CD
7DA
7F1
000
7FB
014
02B
7DB
007
7D2
722
732
6F4
7C2
0AE
09D
037
06D
0B8
098
08B
07B
012
786
7CE
7EE
799
7C2
7AE
028
05A
05D
014
7AD
7AB
7E1
7D2
7D1
783
762
73E
758
03B
0D8
04F
024
042
07D
0A8
097
01E
7E1
7D1
792
792
799
037
05D
023
025
7D9
7F8
7D2
7EA
7EB
7F6
78B
001
78D
7D0
001
040
7A1
7D6
7D1
005
050
047
7DB
7C9
76A
74E
74D
789
02A
049
01B
00A
025
7FD
7A0
7F5
01B
7B7
7FF
026
7E3
700
78E
03B
76D
035
7BF
03E
045
01D
78A
7BD
79E
765
760
01E
088
027
071
080
7F4
013
7B7
7D7
03F
7A5
035
0F0
7E4
752
005
78C
772
7DA
79A
7D3
0AC
004
001
78A
748
6F7
002
04E
067
02F
059
7D6
066
030
05D
7D4
080
7C5
067
0B9
7F5
026
770
7DA
7C9
77D
01B
00A
7E4
7A7
79C
73F
75F
793
7F3
0B2
7FB
02B
03D
031
09F
086
069
055
0A6
022
0A2
146
797
7EA
7E3
7F1
7D4
025
7C2
02B
7D8
7B2
784
7A3
756
7F9
105
0CE
088
0B0
090
06E
054
07A
09D
08F
144
158
0EC
05B
780
049
76E
796
779
74B
00D
7C0
78F
782
720
79B
7A8
019
0BC
0C3
058
06A
02A
067
011
013
082
0F6
064
067
137
092
7FB
7C3
010
733
7C1
7D1
778
7C5
74D
772
74C
7AE
780
7BE
052
0AE
061
056
05E
049
045
7D4
029
06C
018
7E3
072
7CA
055
7DB
7D7
7CC
7F3
01A
716
775
77D
7A0
7DE
79A
7FF
7BA
003
01E
7FA
0B0
05A
04A
7F0
7DF
026
04A
7EE
7D7
012
7F8
051
057
024
79B
757
7A7
780
78B
76A
793
7BE
78A
715
72D
7E6
018
02C
048
02D
0DD
7DB
08C
015
011
7E0
71D
7BA
7F1
