3E1
024
007
3E8
37D
3AB
3F6
353
36D
36E
3CF
34D
00C
3AA
30B
310
30F
2B5
297
2FF
32E
39A
38F
3C3
39E
3FC
39E
3F4
078
011
35D
370
37C
397
3E4
3DF
06E
3D0
291
03C
0F8
3FF
3CC
344
2DE
23C
277
220
2E8
2C8
3EA
013
318
373
056
09D
398
371
348
304
2FE
3A3
337
312
351
2DC
314
347
263
2AE
283
293
2F9
23A
217
040
2E4
3D7
384
3AF
3C7
3F6
2F0
31B
34C
30F
3F8
00F
390
395
3A9
36F
34C
33D
2E2
330
00C
325
304
26B
251
2A7
342
365
3E5
3E0
3A2
3CB
3D0
3D4
2C9
29E
2D3
013
3D5
381
326
3E8
352
36E
3D8
370
3E1
3DA
3C5
3EC
3E0
338
315
381
3B0
3AC
3C7
3C8
374
3C8
3D8
3AA
34D
2E5
317
3B8
3D0
02F
063
018
00B
35C
394
033
033
35B
3E1
3BC
3CD
385
3E6
041
002
3DB
3FA
3D6
3CF
38F
36B
022
00F
324
003
376
3B1
39C
3B4
37A
39B
391
060
3F4
02D
3D7
3B6
3BB
3A5
3FF
014
3BF
3FD
3E2
3E0
00D
3E5
35F
3BA
3E5
3CC
3BC
058
074
37A
3A3
399
3C0
3B5
3E5
3B1
3F0
364
385
3FF
3F3
36D
3AA
3D4
000
395
3FD
00E
04E
003
01F
3E6
008
029
3AC
041
011
006
041
33C
070
37F
3D9
398
3EF
34E
3D1
3D6
3C8
3B1
3CF
3ED
3F1
023
3C6
3DF
3D8
01A
029
3FB
004
3C5
019
38A
392
3A0
39C
3A0
38B
3BE
379
37E
3F3
013
003
3D4
3A7
35C
39F
3F4
3B7
001
3FD
3E2
3F4
3DB
057
00E
3D5
3C2
08A
3C6
2DE
2D5
384
380
2BC
391
376
3B7
388
01B
3E6
39E
393
39D
357
3CC
3E5
059
3B8
39F
3F1
3B1
028
39E
3B7
3F0
122
354
2CE
350
30E
312
314
34F
364
36F
3AD
38F
3CD
34A
3A5
38C
374
3B5
3C6
3FC
3E4
38E
3BE
359
398
32F
390
060
128
3BB
33F
32B
334
02A
30D
00D
32C
3A2
375
388
386
385
368
311
354
39A
3CC
3B7
3B3
394
346
3DB
3C1
2DF
28F
3F7
090
3A3
3A6
3AB
255
2C4
360
37E
3B5
3A3
382
3C0
3B2
35E
34F
2CA
2C7
34E
3A1
352
3B5
388
378
3AC
3BE
261
2E6
050
06B
3E0
05F
071
3E0
3C1
351
389
3C0
3A6
3A1
36F
3D8
321
282
298
336
361
373
368
3DD
3BA
3A4
001
3FA
3C6
3DD
046
3D4
01A
322
066
04A
3FA
3B4
3C0
3F0
3BA
3C6
369
307
2D3
311
2F1
308
3F2
000
3C2
015
039
0A9
03B
044
073
013
0BF
040
356
3FE
0BF
3F6
025
3F5
3FC
39D
05A
001
396
31C
382
379
389
3D9
3E5
078
06A
05D
041
082
0AC
0BC
17E
03C
0D5
092
2DF
3BE
0AC
04D
096
0AB
0A4
013
069
0FC
061
3FA
3E9
3CE
005
07E
0BC
0CB
0AF
0CC
0AA
0CB
107
0E5
0E7
035
071
386
2D8
3D6
04D
0BF
087
085
035
072
01D
060
1CC
147
0A9
3D3
072
003
08B
027
0AA
073
0E3
05A
084
01E
0C0
0F3
066
36A
2F3
3A9
030
02E
3E9
013
03F
0BC
0EF
10A
13E
0FC
0FD
095
3EB
0CE
02D
3FA
020
009
3E8
018
3F7
3A1
098
063
037
3DB
33F
3FD
000
3F8
392
077
048
0EB
11D
08D
108
0C8
0CA
039
038
3D2
04D
02D
051
3E0
04D
3F9
01D
3AD
3A2
0E4
08E
364
2F0
3A7
011
047
057
0B3
07B
122
0C6
132
0BC
0B4
0B5
088
0A4
033
044
07D
043
009
3B6
02D
00E
3CE
35B
021
057
007
32B
3DC
044
088
039
0D1
0C6
09B
0B0
088
092
0C8
056
0C8
088
08A
0A9
04E
08C
06F
02F
3D3
3DB
045
043
0E8
15B
022
384
374
35E
376
030
0D5
06E
06A
048
0B6
074
06F
029
0CC
096
039
0DB
054
05E
090
048
01A
08C
388
3DC
066
1AF
3A3
009
3B4
3D0
3BD
373
0AA
051
0A7
08C
094
08E
071
040
084
080
021
018
04C
041
00B
019
061
3E7
010
073
06A
0F1
3B7
39F
3B1
399
3D5
3C4
3FA
3F7
00B
029
062
00B
042
00A
055
3E3
048
091
0CE
099
0D1
087
089
0DB
007
09D
0A0
3E9
067
3C1
02E
3DA
071
049
0FC
0AF
03C
079
043
0DA
075
03D
042
033
09D
080
0AA
0B6
0C6
0BB
3DA
0AF
094
088
023
036
3E1
38F
31D
0A8
04A
07E
3F3
01E
058
06A
01E
3E4
01D
045
3C7
021
03C
3F2
002
3C9
3CC
07A
07E
07B
01A
024
0C4
039
3DE
