006
7EE
7CC
79A
75C
73C
6B8
681
6AB
6C7
6C9
66A
687
6FE
71F
74C
65D
62F
649
5FA
67E
6EC
6F7
6F1
758
7D9
6CF
77B
754
7F6
7AF
74B
78E
6F1
700
6B7
691
654
5F5
559
5EC
6E5
654
6AB
689
65D
62A
58E
608
5BF
5B9
652
689
5FA
6FB
6BC
0C9
013
0A5
080
7D0
7CD
6D8
602
574
5E2
5EB
60B
608
643
691
6CB
661
636
598
7CE
55F
615
683
632
61A
001
7ED
6FF
04E
7C7
7FE
02A
067
04C
74F
681
684
5C2
58B
5FA
639
666
663
6A3
736
6B4
680
637
638
527
60F
5BA
670
6B1
718
72E
7D8
009
067
7F0
03D
065
096
0C2
093
7E3
06D
797
735
789
730
6D5
791
71D
78D
6FC
76C
72B
774
68C
710
620
63F
713
0F3
049
7AD
7D0
099
08B
0E2
081
0B1
0BA
109
03A
00C
79B
794
793
7C8
7B1
787
79B
77A
7A9
7D6
7F9
72C
743
6EF
76F
126
04C
7BB
020
042
112
093
042
07B
08D
0C4
058
09D
036
7E7
020
7DB
075
091
072
7F5
78A
780
7B6
7AA
749
6F9
752
000
0A9
123
0BE
04C
0CE
042
0FB
047
0A1
0AD
02F
09E
083
006
06B
052
7E2
03B
069
056
7CB
7C7
788
792
78B
6AE
6ED
1A2
0EA
09D
079
06C
06D
0AC
087
066
0E0
049
05C
035
059
086
049
07D
03A
03D
00A
7EF
001
7DE
7B2
008
7AF
6DA
71E
0EF
088
0D4
032
03A
09B
0BA
10D
06A
037
03C
0BB
089
04D
073
04D
0CD
06B
077
049
029
023
05E
7D9
7F9
7E1
6C0
71D
032
04B
08A
03A
079
0C7
044
0D8
0C6
05C
045
0AF
064
011
010
005
015
04C
086
067
025
036
019
021
038
7CD
7DD
062
08F
02C
095
060
04D
040
05C
06D
073
10A
0CC
0B2
107
08D
077
786
007
040
05F
083
038
04D
062
00F
094
060
0CA
04C
037
76B
767
73E
073
75B
039
7D0
052
065
039
073
055
07D
01B
006
7FA
027
04C
01D
063
0AB
080
0A4
044
7E9
057
05E
7B6
678
643
681
6DC
732
6F4
73B
74E
77B
7BA
779
7FB
033
021
7F5
00B
7BA
04B
01E
050
06E
0AE
0B1
068
0AC
07C
0BB
019
698
5D0
580
69B
61D
642
65B
6C1
6FC
76C
78F
77A
7D5
7E4
798
7B5
016
7EF
01A
03A
7F0
7FE
02F
04F
095
07F
0B9
08C
6A8
52E
4B8
446
4BB
5A4
581
64C
744
7A5
775
7CF
7F3
062
049
005
061
7CF
023
7C6
031
05C
008
070
0F0
094
04E
089
63B
49D
495
54E
5C4
67D
67D
70C
766
77C
7DC
765
7E7
7C7
7D9
7E9
02C
7D9
7FF
7F7
00B
7DA
76C
051
07D
046
7CF
03E
6F5
567
605
6B8
738
729
791
7CD
003
74F
7CB
7FE
799
058
001
7E0
7C1
034
029
7C4
7C6
752
736
723
763
785
776
02E
733
74E
72C
79C
7F9
012
01B
04D
002
7AB
7C3
041
7E0
03F
7B3
7AE
7F8
05B
7CE
7E7
786
706
7AC
777
746
6BB
781
7F6
009
7F0
7D0
05A
7AA
033
025
01E
03F
7C5
7B8
021
020
050
7C0
01E
021
04A
7D2
7EE
7FF
011
7B7
7F8
787
708
7F0
7F6
7AF
7D3
04F
060
7EB
7C8
7F4
77A
003
7C0
035
796
7E4
7CE
7BA
7F9
01B
7D4
7DF
7F1
04B
033
794
063
7CD
749
0DE
04C
034
7EB
080
093
02E
7D3
7C8
7DD
030
7D0
76E
7B5
7EF
7FA
000
00E
7F7
029
036
088
046
05C
073
019
050
7D3
0DD
03B
00B
785
022
089
06C
7E2
7E4
01A
7E7
01E
7DE
7C6
7A7
7C8
7E7
011
7E9
04B
027
062
093
06F
018
109
128
108
0CA
7F3
7F3
057
00A
090
00C
7B2
069
037
7A5
7D1
038
051
013
03C
05C
083
07A
07B
0B6
081
018
06A
09F
1BA
0C6
046
050
020
79A
79B
00D
04C
05D
06F
7C4
7C6
7AF
02A
7E3
7A9
777
7C6
792
7DA
081
07E
060
04F
044
0A3
0B8
120
080
028
019
08F
7ED
7DA
7FD
7D2
7D2
005
7E0
7F0
7E2
7EC
007
7B9
7DB
771
73A
72D
00E
03C
047
033
06B
069
0A8
07B
017
01C
081
7A0
062
026
013
7B7
7FD
7D8
7E6
006
012
7DC
78B
77F
72C
796
790
73C
748
76D
7CC
7B8
07E
096
009
0C8
009
7EF
006
7F5
040
00B
02F
7B7
7AE
040
013
07D
027
099
041
774
73D
683
04D
698
686
76B
00E
7D6
131
057
086
042
11D
077
000
