022
7FA
778
74C
74F
753
7EB
7CE
72B
734
7F3
729
028
7B1
796
74A
098
040
07D
084
7B5
7D0
792
00E
79F
772
772
027
76E
7FE
6DF
766
706
6CE
015
63B
672
7B6
7BE
74D
7C4
7A2
054
073
03E
001
053
01E
03A
00F
6F1
740
7B4
761
785
75A
0C5
776
7E0
7EC
6D5
6E3
782
713
754
79C
792
01F
036
7EF
0E4
0E4
080
051
033
084
0B1
115
03C
788
0F1
7CB
086
7BC
7FB
7A2
78A
70E
744
6E3
7FC
799
781
7E7
055
120
068
0AE
10E
0D7
108
0C1
18B
042
0E3
0F4
094
078
10E
056
14F
0E2
009
014
76A
79D
741
709
795
7CF
04D
025
0F9
104
0FD
12E
157
13B
178
20E
19C
13E
145
06C
06B
0F8
09A
151
0C4
1B2
79D
018
794
719
7A1
73E
02E
00A
795
023
0B6
0EB
049
050
0AB
0B4
0E8
13F
100
00E
7A1
06A
7E7
7A5
04D
065
068
127
658
005
759
7D6
7A6
7D8
03A
001
7C7
085
01A
025
79E
7C0
010
7CC
7C5
7E3
002
7DB
72A
710
775
76A
796
034
74F
058
6C1
75F
00B
024
0B6
052
022
7EE
009
074
03F
79C
729
7A1
7FC
79E
7AB
030
053
0F2
036
7AC
7A6
799
799
799
735
095
6E0
791
7FB
046
048
062
033
787
7F4
7D0
003
7A1
751
7C7
0A0
782
7A9
7E1
7DB
061
080
0B9
039
036
044
7A2
72F
72F
6A6
7E4
7C5
7F4
024
02C
7BB
7B3
797
77C
738
7A7
7C7
029
03D
049
00A
018
019
079
03B
0BE
041
096
0A8
77D
6DF
65C
783
02F
7C6
03A
7C5
7E0
76B
76B
6D9
757
7E2
071
04B
0AC
07B
0A6
785
75A
055
743
797
778
037
0A6
7E8
7E6
66D
672
7B7
7EE
7B2
7D8
796
71B
74F
708
79D
021
068
0C0
14B
0B2
084
7B6
7A3
7BC
75B
790
78C
7F9
072
06D
787
6E6
7D3
6F8
04A
051
795
7AD
088
70A
02E
758
01F
107
125
0FF
102
0A3
062
7E8
003
7FC
7E5
774
071
00A
7F8
020
7D1
76C
6E8
658
0BC
021
7AB
7E9
74B
760
724
7EF
122
144
12A
0DD
0F2
084
7FD
7CA
060
022
7BB
7C0
014
005
7CF
6E2
758
73A
6DD
725
00D
007
061
7C4
005
76F
7FA
07D
103
155
0DE
0A7
0A5
7CA
7D3
01C
07E
056
04E
00F
012
029
78E
73B
6C4
6E2
6D3
6AB
754
7D0
7FF
015
7EC
7D4
00C
0EA
0CA
0CA
100
0AB
028
79B
750
102
02D
008
118
09C
7BD
7A0
750
6E9
748
729
7A6
725
735
7DA
059
7D7
7E5
777
00C
015
1A7
16D
06F
0BB
793
7EB
03B
03F
027
08C
1A7
056
73D
765
6FB
728
6AE
6B5
794
755
003
789
79E
768
7BD
72C
7BB
01B
059
06E
099
0B5
7CE
7B2
0AE
155
0A6
0F5
193
788
6F3
705
7A8
702
6D9
79B
7D0
6C5
7F9
73C
751
735
6C5
70C
001
05D
0C3
05A
0D6
166
036
06D
1A3
06A
0FF
0A0
06D
775
693
73D
6AC
6DF
75D
767
018
681
744
756
7A6
7A6
728
737
06F
7FF
7F4
7C7
14D
08D
05D
178
19F
09C
077
012
7A5
71F
71D
6EA
71C
726
76D
77F
00A
7DC
7B0
751
01C
7BC
791
7BC
7E5
757
780
7A7
0A8
08C
103
1E2
173
0B5
7B1
7E0
72F
72E
757
6E2
763
6F5
675
70D
7AF
774
7E3
7D2
7E6
028
7D4
072
7CB
777
77E
007
09F
167
157
152
08F
058
771
7C8
7AE
7A4
7AE
76C
778
5CB
70C
772
73F
057
04C
024
042
08B
07B
091
014
007
015
0A4
166
15C
11B
00F
05F
784
7C3
798
7C5
006
7C9
7CF
795
728
759
7DC
6F2
7F4
7FC
75E
00A
79F
08D
08C
03C
075
080
058
12B
16B
7D8
7FB
763
7B6
7C9
78B
7E6
7DD
7F1
7F1
7F7
76B
792
00B
057
030
791
746
786
728
7FD
74B
760
068
069
05A
7AB
7F6
7C5
071
7E6
7EE
7EF
006
06A
046
03E
005
053
7A2
0E8
781
09F
7D7
7E4
084
6F5
7AC
734
76F
7AB
7F7
03C
7FB
00C
7B2
7D3
7B4
7B3
023
7CA
7EA
036
013
01B
115
026
004
05E
0DA
07F
78D
043
7ED
03F
000
051
78B
774
03C
7BF
019
7D2
790
7DD
7DF
7BC
7A9
006
032
7D0
00F
082
0B3
0DC
019
14F
05C
066
01B
09D
02B
014
780
01B
789
07A
7F5
7BD
7A4
75A
79C
79F
768
73A
09D
7D1
7D1
7CD
092
12D
123
7F4
7F1
149
7F5
7B5
011
