00A
013
013
081
0A3
0CE
093
056
0EB
0D3
0C3
0C8
17E
12E
03C
0A3
0E1
08A
019
112
066
012
036
033
00D
079
7F5
0D3
036
7FB
0E9
145
09A
116
019
050
068
7E9
090
020
07C
05D
7F6
7CA
767
75C
789
01B
017
7FA
039
7E8
056
7A3
79A
7DD
02C
103
067
12D
007
05D
03B
034
013
006
04B
020
7E1
7E0
040
015
7D4
7F6
79A
00D
701
6CF
6EC
6AA
72C
756
7B9
752
088
0B9
060
7D5
022
7C6
00E
7ED
00C
028
7F4
7DE
04C
068
04C
076
080
064
7F5
77A
67E
5CD
5CA
609
73B
73C
753
7BE
11E
0F1
124
03C
01A
012
7C1
7AD
7A0
792
7AF
76F
790
7AE
03E
075
088
0B0
06A
7E1
68D
5CA
599
626
6E6
7BA
05B
096
105
08E
02B
02D
7D4
007
037
041
7BE
7C7
7D3
7DB
773
7F9
061
069
09B
0C2
0E6
7DF
5F4
553
49F
618
6BB
059
026
05E
087
0C8
076
7CC
080
02A
0A3
022
053
005
7D5
7B8
7A2
7BB
063
083
067
0FE
09B
6E1
52F
55D
5B8
664
7B3
035
0CB
060
0A8
078
06D
08E
098
05F
027
013
7E3
00D
00F
7AA
010
7FF
022
7F7
039
059
778
5FE
5CA
623
6B7
7C1
05F
084
0A2
033
094
7FE
07C
7E9
76B
7CA
76E
78E
7E1
049
01D
7A1
778
0CE
059
064
050
7BC
720
5D0
60B
6D5
782
7F4
037
7DA
095
0A4
7D1
743
7CD
718
6B2
734
717
7AC
02D
7EB
790
041
012
0ED
067
0C2
0B4
7AA
6D1
60F
608
749
05B
0AB
041
7BA
06A
07C
7F4
691
718
698
74A
742
781
7D0
02E
7A7
791
7DF
7FA
038
065
073
023
030
79C
599
65F
02C
098
062
019
074
79A
78F
708
6CC
647
6DE
7E3
7BD
00D
047
79C
7BB
026
7C3
02F
006
050
03E
035
7F2
61C
63F
731
06E
095
07B
7ED
01B
7DB
734
039
7C6
700
7FC
070
01C
057
04B
790
7FF
7C5
7EB
010
07E
029
066
002
781
6AC
65A
7B5
056
03C
05D
020
7B1
7CD
78D
097
033
01B
046
04B
001
7D4
7D9
790
7AA
7B7
7FB
043
015
014
026
787
71F
66E
72F
05E
025
057
036
7DC
726
7C6
033
08B
02F
072
08D
023
7E8
78C
7D1
7A9
013
003
014
044
7EF
7F0
012
7BF
744
752
7FD
02A
012
03A
7C4
789
7B9
0AA
032
0E4
7DC
011
024
7DC
78A
7CB
7F9
7EE
7E4
051
03C
019
7E6
7FE
02A
7D4
78F
7B8
055
7FC
008
7B8
79A
7E0
049
066
7F8
0F6
7A8
7D6
016
7DA
7DE
7E6
7CD
035
029
07E
05B
038
04B
7C9
7BF
7F2
036
01B
034
03C
031
01C
7D4
08D
7CD
005
779
0CA
7C3
7BF
7D9
7CD
7D7
7A6
7B8
069
01A
035
00B
7F1
042
06E
077
05E
065
04A
036
036
077
7EB
7F7
7C4
7CA
7A6
7B9
115
7D6
7F3
056
04C
040
015
01B
7DE
7FB
059
7DF
02A
02D
027
7CF
01B
03A
044
070
041
7EC
007
022
7C4
7CE
79F
7C2
15B
04B
7F1
02E
042
050
026
7EF
7BB
7F6
055
033
091
044
001
02B
02A
7F8
7F0
078
050
06E
01A
7F1
052
7A8
03F
755
13F
0D6
0AE
0DE
7FE
7D7
004
7AB
02F
002
7CE
071
06A
059
083
04C
06D
023
058
01E
04A
058
084
088
04F
0BB
770
7B0
18D
080
09F
091
04E
007
040
7C7
00E
7F8
02E
045
057
08E
055
051
03E
059
058
018
032
02D
0DD
048
0A6
077
7C9
7B9
10C
0DE
083
016
01D
02C
7E0
7FB
011
02E
065
7F7
015
057
064
040
04E
066
04C
038
052
037
08A
0EB
0E1
134
0E5
717
025
056
05A
08D
01A
011
7E8
01B
016
7D8
7D2
78E
7A2
7F7
7BA
7D4
00C
7D1
7D9
033
080
03D
09B
05F
071
042
030
7A2
031
010
011
0DF
03B
039
7A3
7B7
7FB
7CE
7E8
002
023
796
014
025
7FD
002
7F9
7C9
74F
009
7C9
7EF
0AB
082
7DE
7FC
7FD
007
7B3
040
7DE
7D6
7FB
7C8
7DE
7DB
033
03C
014
7E3
034
7FC
7F5
7EF
03E
76A
72B
739
726
779
6EA
0AA
7EF
051
7AD
734
74B
773
004
708
7D2
7E5
7D6
7E7
7DC
7F4
024
78C
00F
7C9
01B
7D8
04A
791
77E
6DB
73C
714
6AA
018
035
012
019
7CF
754
714
725
757
73F
7C5
7D9
77F
7B2
7C3
00F
7BB
78C
089
775
77E
762
6EE
5AF
5E6
689
6A6
6D0
7E9
043
005
