020
00E
028
08B
055
0EE
167
132
086
129
107
1AB
0D9
092
09D
057
016
7F4
01E
062
7E9
7E1
08F
02C
099
033
15B
0E4
792
007
078
005
06D
012
038
03B
00C
03A
007
785
7CF
7E1
004
00F
020
7AA
73B
789
7C8
75F
735
78A
7AB
7CE
01B
12D
7EF
79A
019
7F2
7CC
7EB
763
77E
7E2
7C1
7C4
7D0
7AB
7B5
7D9
7C0
7C8
76F
750
0A1
767
75C
778
778
74A
781
01C
7C3
7CE
7A2
722
07D
03D
7B1
7C3
7AC
795
7CC
79C
7CB
7D2
7B1
7C0
7AD
79C
785
7AC
7F8
77D
784
78D
77E
7B0
7A2
7EB
7EF
7A5
7E8
069
00F
7DD
7B5
001
7C9
7AD
7CC
7CE
79D
7DC
7E4
7F0
7EB
7EB
7CC
7BB
7D4
7CC
769
7BD
784
7D8
025
7BA
7E6
017
080
067
06D
017
03C
7F1
7F0
7EF
00D
000
7F1
00B
03A
7AA
02B
7A1
023
7ED
780
7C8
7C4
7F0
7D9
7F1
018
7C8
018
090
043
7CC
040
008
7F2
010
022
01C
7F7
00E
025
7D2
7FE
018
7D2
7C2
7AC
7F0
7D5
037
7CB
020
7AE
7FD
027
7CD
052
068
022
7B8
7EC
7CE
042
01A
03D
026
7E6
7F8
025
040
00A
013
7BA
7FE
7D5
7D3
00B
7DA
7EA
7E6
048
056
035
02E
7B8
02D
07A
7DE
003
006
01C
011
044
7E7
022
04F
049
012
01A
7C8
7EA
7DE
7E6
7D2
063
00D
7B6
7F6
0C7
082
000
078
057
741
7CE
79D
003
02E
016
7AB
783
7E8
7BC
057
7E3
003
024
7E7
00B
021
7F4
00A
01F
02F
015
014
0B5
077
053
04F
097
030
7BA
017
7FF
7D8
7C0
7C4
7C6
7B3
77F
7D8
7F6
7F2
7ED
7D4
7F2
7D4
7ED
029
001
02E
7F8
7FC
0AF
08F
09E
0C6
08F
7AD
75C
7DC
7D6
7F3
7B5
7B2
01B
7F1
7BB
7F3
028
010
03B
02A
7C3
7EB
009
027
01E
027
012
7F8
0D0
054
04F
0C2
080
7AF
7B2
7E1
003
04A
7DA
013
02A
06A
01A
01F
048
03F
05D
7FF
091
7C8
7D2
00A
01D
7C8
004
7D5
0A0
025
7C4
029
15F
052
7E4
079
03B
029
022
7EE
013
034
065
07A
0AE
080
050
067
076
00A
019
01B
022
7CB
7ED
7D8
01D
039
018
7F4
05A
08A
01B
02D
067
026
004
009
03F
05C
00E
068
072
04F
06A
07E
0A2
016
035
03E
03F
7DE
7B0
7F8
00F
085
04D
025
07C
7B3
04F
061
04F
00F
04D
050
067
071
023
039
094
06C
04D
03C
061
007
075
00A
7F3
797
7E9
7DD
7EC
7F7
7EB
773
7BE
781
03E
02B
016
025
00E
059
035
02F
045
04D
021
020
06D
00F
019
7E1
027
7D5
7E8
011
796
7FC
798
78C
00D
00A
7EF
741
7C5
797
013
04D
01D
7EA
04C
02D
060
04C
034
035
011
033
01A
03F
034
022
7F4
064
7FD
02B
7FF
01D
7E8
029
039
7B6
78D
7C0
036
08F
094
05E
076
074
055
027
037
06B
02C
022
7C6
035
02D
7BE
02F
041
06B
7FF
064
0CA
041
7DB
79B
014
012
011
075
065
7D7
012
068
04D
039
06B
038
05C
051
00E
03F
04C
7F3
019
01F
03D
00F
0AF
05F
0D1
02E
755
74B
056
09E
030
0B8
067
7C2
037
052
008
050
076
04D
067
016
00F
047
058
097
012
035
7EF
7BF
01D
022
7A0
7A8
78D
725
7DB
05F
038
7E9
01A
7CF
7F7
00B
790
76E
7CF
7D2
7EB
7A8
7BF
7F0
7D8
797
7F1
04E
7BD
75F
78F
6D3
75B
6F7
6CD
6CF
745
789
002
77C
67D
720
6DD
710
6ED
71A
746
776
769
75E
6F1
711
778
623
672
6B9
681
60D
655
5F5
65E
657
672
7C3
71D
763
67C
5FE
6C6
5B1
65E
693
6D7
66D
592
5F9
669
663
65E
625
5A4
5A1
564
5D5
574
664
634
659
685
645
77D
780
754
707
6D0
689
610
600
5A2
5BA
5F5
5B7
570
4DF
4BD
544
5B8
592
52F
4F8
58E
62A
5DE
62B
65E
65B
639
713
721
7C2
76E
79A
71D
6FE
71C
6C3
704
6AA
5BE
641
5B2
5A4
59A
4EB
50E
50F
57B
664
5F1
5EE
63C
5C5
657
6BC
6C6
75D
7BE
7E5
7DA
7B5
748
6F9
724
6DD
7B6
7D6
657
5EE
66B
59F
53E
53E
58A
54F
59B
614
6B3
67E
665
68F
6B5
6CC
729
008
790
013
002
74C
77F
78F
78A
6BB
7AB
617
62F
5F1
635
5B4
61D
655
548
0B5
6FA
736
70C
69D
6D0
679
6F5
775
77A
042
00E
7DE
