011
020
02E
010
043
046
03A
073
06B
13E
0EA
11E
07E
080
035
3FA
002
042
3AD
041
0DB
154
0F4
17A
17E
052
180
0BB
039
3F1
08C
017
072
037
3F0
013
100
315
0E4
099
115
0E9
019
016
021
07F
123
13F
177
0A3
066
161
126
07E
3F2
025
008
3D9
06D
04A
3EC
3D5
3B0
3D3
3E7
3DD
3E7
00B
02E
3FC
3D9
092
089
0E0
167
004
14F
18B
0C9
0EB
060
3F0
36A
31A
00E
069
041
028
3B8
021
03B
3F8
059
018
02C
3F6
3D3
3F7
2F0
37C
32A
3E0
00F
08D
021
07B
082
06B
3A6
345
3C8
31C
03C
04C
03D
00B
028
3EA
3F9
016
038
047
021
005
009
037
009
3E3
022
04F
06D
009
3E1
053
005
3F7
03D
059
00B
368
318
340
3F1
3B3
3EB
002
008
017
3D9
3FE
3A7
3FF
02A
3F0
02C
3F2
3D8
014
044
3F1
3A5
3E5
036
3C1
3F4
016
3EB
3DA
2D1
3C9
39E
029
392
38D
3DE
3F3
3F3
3FA
001
3D8
01E
00F
3C5
03D
083
3DF
3CC
033
3A6
03C
02C
06C
3AF
3C8
046
3EF
007
036
39C
3BD
3E6
3B0
3F8
370
3FD
3CA
397
014
019
02B
3E0
002
02F
3CD
3F6
3F6
3E8
3AF
3BE
3DF
060
02B
043
3DE
3E9
399
3B9
00B
3CD
3C5
3C7
02D
3F7
3ED
3E1
3C3
3C7
005
00C
030
023
3BE
01A
3ED
3FB
016
3DA
3EE
3C3
391
3EC
3BA
356
3CE
386
386
00C
00D
3CA
3EB
3F2
3E0
3B6
3BA
3C2
3DF
02B
3DB
3FD
006
027
03C
3E4
011
3AC
3E8
3A5
3BB
052
3FF
3A6
3A2
31F
3D2
00E
3B9
3DC
03B
002
3ED
3E6
3B4
3FA
3B7
010
3F2
3EE
3FD
3FD
008
017
3F9
010
3C8
3ED
00A
007
046
3A0
026
37C
3F9
3D2
3EB
3DC
3F7
3E9
005
016
03F
3F8
3E5
3E5
00A
3E3
3E9
02B
014
015
045
3FB
030
3DD
04A
3EF
0C2
3CF
3FF
015
00A
010
006
049
019
3E4
3EF
3DF
007
3B2
006
3E3
3D1
3F4
03E
3FD
012
046
3F2
04A
047
086
036
3A4
0B8
033
043
3DE
39E
3D1
3FD
015
3B6
3B5
3E2
3E2
3DA
3F8
3AD
3BD
3C3
3F6
3E3
3F1
037
061
050
055
3C9
016
007
04A
00A
3C7
39C
01F
025
36F
3B6
3D6
3D3
3EC
3EA
3C7
00E
3C0
03D
3D0
399
39D
3B8
3D1
006
028
00C
024
3EE
3CA
3DE
06A
094
3D4
3CD
389
3D0
3C8
3B0
3C7
3B0
3B2
3D4
003
00C
3F4
012
3C0
39E
3CC
3D0
38E
3CF
3D2
038
38C
3EE
3EF
3DF
01D
3D4
058
38E
345
345
376
3BB
004
3BD
008
005
021
02D
3CE
006
02A
3F8
37F
3CD
3C4
399
3E2
35E
3CA
3A4
3DB
398
079
137
058
399
385
356
336
391
018
3AB
3E1
3F2
009
3DC
00E
01A
013
3F4
3F6
3C4
399
324
385
360
395
3CE
033
048
064
023
09A
3B4
341
361
3B9
340
3D5
3DE
018
3BB
3FB
3FE
3F5
3C6
04E
3F8
3FB
3E9
374
2F4
301
340
3D3
3E5
06B
0F5
0DA
028
384
37F
2D5
324
2F6
3A0
3DA
3C8
02D
020
035
3D5
3D0
020
01C
3B1
3D4
38A
3C0
362
368
349
0A2
0B8
0CA
066
063
371
350
3E3
04F
016
3A1
35E
397
39D
3F5
3D6
385
3C8
3AF
38A
3BA
3E9
3E4
369
3C7
3B1
3D5
007
0BC
070
05F
06C
3D9
303
363
05D
0F4
0E2
096
000
047
3AC
386
017
3FB
3BA
39D
39F
3A1
3ED
3CF
3E4
00A
08B
103
115
0C2
08A
018
3BA
3B5
2BA
003
02A
195
134
121
087
097
04B
04E
017
09C
096
07D
03C
070
083
0B3
0CF
148
1D4
161
0FF
0C2
05B
3C7
025
368
34F
3CA
035
056
091
104
085
15F
0F7
106
109
10A
11C
11C
14C
11F
0E1
159
193
117
16B
109
0F5
034
096
3CC
37B
3CB
018
01F
026
069
05B
3FE
0BA
02C
039
0AF
096
047
0B0
081
08A
0B2
099
0A1
0C1
06A
00D
0A6
06C
399
3DC
3FF
043
3DA
07D
3B1
384
3E5
3C2
3D5
3E3
00E
3F4
015
3ED
04F
006
035
067
075
086
053
052
0CF
01B
3F8
059
070
036
061
03A
399
3FB
07E
3D3
398
3BB
000
025
01D
3DE
023
008
034
08D
04F
05C
087
05A
09D
014
034
02B
3ED
3B4
3F1
011
3B9
097
081
3FF
0C5
3C8
3E3
3B0
3D0
03A
04B
038
052
060
012
04F
08B
04D
0AA
021
035
025
39C
378
3B4
36F
3E5
3B1
01A
079
3E3
3F2
