FFE
001
022
00F
0AF
113
125
0D5
069
0E8
16A
117
0CE
062
FF9
073
FCD
082
014
049
0D2
0CC
14C
071
0A8
0A5
04D
0D0
F82
FE4
FC8
0DE
0EE
0CF
FCF
010
048
088
01C
FDB
026
02A
FEE
05D
FFE
051
058
02F
00D
013
013
06E
FDC
FE3
FEE
FAD
FAF
04F
0A1
0E3
06E
FE2
FA6
F8B
F75
F97
FAB
01D
FD5
F5A
02A
FE3
002
003
02F
FEA
005
01C
FFE
006
FBA
01F
FC6
038
031
059
FED
051
FE7
F7D
F68
FF5
FFB
FCC
FE6
062
03E
FF0
01D
F9B
027
01C
FF1
014
042
020
FCA
001
F84
FE7
F3F
F54
04A
0B8
0C5
0C2
035
034
066
05C
08B
064
047
064
FFF
04E
018
FF8
FF8
000
FF3
024
043
007
FEC
FE4
FEA
F9F
FF7
00B
16E
051
07C
0E6
0AC
0A3
076
083
067
041
009
FEA
031
032
003
058
FD6
021
FF1
01B
02A
020
FBD
00A
022
FFD
F9D
028
107
0E1
083
05B
0C0
0F4
0F9
06B
018
07B
079
036
084
020
044
04A
051
FD9
FDA
022
007
000
FE8
FD1
FB8
FD3
FDB
034
093
105
066
03C
022
0E0
108
10E
0AD
0E3
0AD
045
016
FF7
040
019
01F
044
017
014
017
FE3
FE9
FD1
FC8
FE5
FC1
FFD
125
0B4
034
0A1
180
05D
0C8
06F
0B9
FCE
F90
F8F
FED
FBB
00A
FA5
037
064
03D
02A
FF5
026
02F
FE7
FDD
002
02C
05B
FE1
02D
056
06D
FE0
FCF
EFF
F46
ECA
DB7
D13
D78
EE1
F33
FC8
012
04F
04B
03F
038
FFC
FB8
037
FE8
FFE
FD2
FFB
0C1
120
F50
F30
E75
E6A
E2E
D98
BC3
B39
B25
C8B
EE4
FA3
FCF
FD7
FF8
023
FFF
028
02E
00F
006
007
FF1
026
FB3
FA9
FD7
ECD
DBE
DCD
C25
B16
B7C
BA9
CC8
EE3
FFE
043
02E
FE7
FAD
FEC
FC2
FE8
FD9
03A
01D
01B
009
FF8
009
FE5
F8E
001
F9F
E51
D66
C30
DF9
FDB
D2C
FF6
078
052
04F
0B7
08B
09A
084
026
FDB
FB2
006
032
FCA
02D
FF7
FE2
FD6
FB7
F9C
FCF
034
016
F79
E7D
E65
E49
05B
0D4
098
068
0A1
05B
05C
03E
047
003
049
FCE
017
FF7
FEE
013
017
041
03D
069
04E
020
F96
09C
FE9
FBD
FC0
046
06B
05A
079
00C
040
01D
056
FB8
FF2
FBA
03D
038
01E
FF4
000
01D
FC9
FF8
043
FC0
FAA
FDA
F94
0DB
12F
007
054
078
041
044
039
02B
FB2
018
FF9
FF7
FCD
028
030
FE0
047
011
030
FD4
03E
FCB
FF8
FD8
F42
F73
060
08A
0D6
0A3
06E
030
023
01A
01A
054
032
030
032
018
027
026
FE8
00D
019
FC6
FB5
FF2
FDE
F89
F6A
FB3
FAE
FE7
0B6
FEA
01B
FCE
FC5
FE7
FEA
FFE
024
00C
FEA
001
05B
006
035
042
047
02F
007
FFF
02C
FEF
FA0
FFA
FC3
066
FDC
06B
05B
0AF
040
011
FED
FC2
FF6
FFB
00F
00B
005
FFB
FEC
02A
01C
05C
008
01F
FEF
010
F96
FDB
FC0
FFD
00C
013
036
0AB
FA6
096
06B
013
FB3
00F
FD2
044
FDA
01B
FFE
00C
FE4
033
FF1
036
021
030
FAE
FB5
00C
00A
F96
FC0
016
00B
F64
059
0BD
073
0D9
FF4
001
FDF
00F
FD5
057
067
FDA
FF5
045
01D
026
00E
04D
FE6
023
FFC
FC5
FC4
FEA
FD2
05C
F77
004
FD3
006
06E
01F
02F
F65
00C
FEF
03C
046
018
026
011
FFA
003
FEE
FEE
FD3
FF1
00B
044
042
056
03D
04C
030
FDF
FA5
F88
013
092
FF6
FA6
F22
FED
FB0
039
05E
05F
FCF
024
FF4
FCC
014
022
016
04C
038
FF5
075
027
05B
022
04B
FB3
F28
F62
F6D
FE8
0DF
048
FFE
056
0C1
006
FA9
066
044
01C
01E
022
02C
03F
FCF
FC6
02D
FE7
F9F
FFF
FFC
FCD
FFC
F89
043
FCC
F99
075
15B
FB0
096
068
045
09F
08C
00B
FEB
028
012
FAA
FB0
FCC
FB6
F84
F81
FA8
FE3
FA5
F55
037
F8D
F81
013
08F
F54
088
0EB
15C
063
072
070
015
F8B
007
FD9
FFD
FAA
F75
F66
F7A
F9C
FCC
F66
F77
F9A
FAB
05B
F2F
F14
FC2
046
FDC
029
07F
FBA
0FD
092
F5C
F8C
F80
FA4
F6B
FEC
FAF
FE8
FF6
FAA
FF4
FD1
FC3
F1A
F47
FBD
EC1
EE1
EEE
F2C
005
070
F75
FFA
02C
07F
001
0B6
F77
F38
E64
F15
F52
FD5
FAA
F7F
F5C
F5B
F71
031
ED8
F5E
F10
E08
E05
ED7
F04
F38
F7C
094
01D
018
