014
021
7CA
7CE
79B
774
7ED
767
6E2
7D3
722
731
79A
017
060
071
062
7F8
764
7D4
029
044
729
05F
7CC
7D4
6F4
797
752
7EE
7B0
736
722
789
7BB
79E
78F
7DA
7DC
7AD
7B1
051
099
0AC
037
030
0C3
7F5
104
054
0AF
0A8
055
04A
025
01A
0AE
026
75F
798
07E
01E
7E0
7BF
73A
009
7E9
00A
788
7CA
04C
02B
0A4
06B
08F
079
0AB
04B
03E
7E7
056
029
11A
7E2
058
7DC
02C
07A
768
7D2
7AC
7AF
047
7E4
075
017
7A5
011
01D
039
7FE
02F
06E
051
045
0BA
06D
06D
094
048
06C
02F
076
090
7EA
0C9
0AE
0EB
02B
080
042
01A
09C
044
074
097
0B3
032
071
7DC
05E
054
00F
003
03A
011
047
012
042
081
034
0B5
071
110
100
0F0
07F
133
10A
0DC
108
057
07D
021
096
088
040
007
7F0
027
008
00F
7F1
095
020
054
7E0
037
024
11F
08B
0EB
0F6
13F
168
0E8
0EE
0DE
0C8
06C
074
03B
01B
01B
7F1
008
7D1
009
06B
7F2
04A
048
012
028
0E5
0F8
74D
032
091
06D
7DF
074
059
032
087
0B1
0A5
09E
095
0E3
064
073
07B
061
023
073
080
068
08D
043
7EC
02F
067
0DC
78D
70C
71D
7CE
7FC
79B
768
7B4
7A2
7C7
00D
027
030
0AC
080
069
0BE
09E
0B3
062
054
099
018
057
7F1
060
7C2
066
720
6EF
75D
6B8
6F5
6C6
6EB
77D
780
764
026
046
026
060
037
089
041
0A6
057
066
7F4
00C
7B6
7EE
7CB
7AF
79F
06F
7A9
6B0
6C4
666
6D6
68C
6E9
741
77E
79F
76D
008
7EF
7E3
7BF
007
019
014
01C
7F1
7E7
7BF
77E
7C4
792
760
7A9
0AC
7CF
6B4
64A
714
6BF
6BD
795
7C4
794
790
7FB
76F
78B
749
6C6
727
744
7DE
7E7
7D7
7E7
7CF
7A4
756
796
6F0
76D
7A1
030
723
767
7AF
02C
7A1
7EC
001
059
7F5
7B7
781
75A
7A6
6F3
748
780
7C4
7B8
7ED
7E4
00F
7E8
787
7C3
77C
07B
0C1
06E
04F
0D4
026
08D
008
034
01F
095
026
007
01A
7B4
760
76B
724
726
7B5
7CF
000
00A
04C
012
028
098
030
073
0D5
06C
0F2
0FA
06F
0A1
116
064
091
027
7DB
7E1
782
7B3
7CD
74E
787
7A1
747
00A
049
03D
038
05E
050
049
7DE
045
0AA
7BD
03F
79D
7F5
04E
036
062
023
7CE
7EA
7F2
799
7BD
777
77C
77A
785
7D7
7D8
01F
060
095
037
04D
0AC
079
064
06D
661
752
76C
73F
795
7B7
7F7
02C
027
7E4
7E9
78F
77B
728
788
7D0
7CD
7EF
04D
067
04B
020
030
7D2
071
08A
038
01F
682
6CF
733
5F9
6BC
72C
74E
79E
7E0
79C
7CF
76E
7A3
794
795
772
7C8
02A
063
002
003
022
059
011
056
7EC
071
7F4
78F
71E
6E3
683
684
6A6
732
724
765
77C
7B2
73E
77A
7E7
7B5
7C6
028
021
026
033
028
7CB
000
7CF
040
03B
785
741
04F
7FD
754
7A8
755
71D
6E3
705
75B
788
7DE
7F1
7F9
7CF
018
7EE
023
7E9
023
7F3
033
01C
79A
7F5
7EC
7FF
743
638
106
090
06A
035
7F1
78A
795
7B7
7B8
7D6
019
01C
046
04A
064
033
04C
01E
026
00F
7D5
7E8
01C
00C
7A4
700
68E
6C6
0F8
067
04C
09F
020
007
7F5
030
002
00E
03C
064
045
06A
04B
02D
020
014
00A
038
7F5
7C4
7C5
71A
746
7EC
6CA
6DE
189
0D4
0C7
059
79D
05E
007
7DD
03C
065
03F
03E
7FE
017
05D
7F0
01C
003
7E3
018
7DA
72A
785
745
762
75C
6C2
03C
156
09F
0E6
046
051
005
033
04D
05E
028
015
036
099
7EA
014
7D2
7F6
7B9
7EE
78F
77D
72F
7A5
74F
090
7EC
69E
782
0CD
0CB
0A8
050
7AB
7D6
7FE
025
7E4
015
00B
046
019
066
02B
044
04C
01F
7E2
7F7
7FC
01F
7FE
007
06D
75D
030
7B5
0FC
0D8
79E
054
06A
7A6
042
040
026
00C
03D
05F
048
047
7E3
7F2
00C
02D
7E4
7CF
7C2
7EF
777
02F
7B9
729
041
78B
0DB
095
777
764
775
790
7AF
050
78A
015
079
02F
033
7C4
00B
7FD
7B8
76E
7ED
794
7B6
770
77C
070
000
064
050
7F1
033
0D1
082
001
002
7A6
6C4
6C1
6C4
792
04F
7AC
78E
7C8
008
7EE
05E
7E9
02D
79F
088
77E
051
793
018
76F
795
021
