1C1
D45
07C
220
A33
139
FC1
F04
CBC
252
B6A
F7B
E5F
CB6
12A
DD1
119
EBB
143
106
F29
FAD
B1F
E39
EA7
EE7
0CB
414
0FC
E6E
40B
0F2
12E
F94
F5E
F77
125
F9B
E51
EDC
284
1F4
194
D68
0AC
CE2
ED6
117
F39
EF6
22C
38B
041
F66
213
046
10E
B7B
ED1
E54
F8B
EA6
E01
154
1E7
152
0E7
DFE
F00
F3F
F3D
C9F
C04
C6F
0A1
EAE
059
EFA
112
123
C35
08A
B17
135
F3B
D56
1A1
236
CA6
1D2
EE7
0ED
DC5
F20
DAC
0EA
1F5
062
FBA
519
27A
1EC
132
147
014
C2F
499
E15
022
F90
F94
F7A
E43
3B6
0DA
E75
EB5
20D
FAC
243
FAA
02D
FDA
DEB
CB9
137
C29
031
