7DE
7FE
02B
021
08B
0A1
13A
12D
1B7
223
0D4
0F0
771
020
7B6
7D6
0A7
049
058
0BB
074
049
04A
106
0FA
0A5
0E1
0C3
78E
7FB
074
0D2
146
064
0D0
088
0D5
070
7FC
7B1
6C3
79D
6E7
7C2
7BC
6F6
7C4
7BB
7CF
7CF
7CA
06A
015
0D9
09E
070
766
080
0D3
006
7EF
794
78E
789
7CC
773
74F
71B
763
620
615
6A4
6E6
6C9
5E6
097
71E
62F
71F
718
743
007
7B4
6FD
0BC
7D5
7EA
020
7C5
001
7C1
7B6
01B
74E
757
7B6
6A9
530
53E
5CC
4EC
5F7
5D1
6B4
5E9
669
5A7
63F
6A5
640
6C1
673
065
027
001
026
002
06A
7D1
03F
7A8
010
042
041
04E
74A
7D1
708
656
5D2
54B
5D0
598
6B4
5CC
675
6E3
68E
670
60C
09A
027
02D
06E
048
08F
03A
020
7CD
0AA
077
069
051
0CA
7F9
70A
636
555
4DC
4FC
5B4
653
617
64F
678
670
65B
707
0A7
7DA
002
070
02B
003
7AB
08E
068
06B
03B
0B7
137
103
02F
7B3
76A
795
7BE
5A5
4D3
625
6A0
6ED
630
674
739
5B4
050
00D
03F
7FF
010
033
06B
06E
05D
050
09F
097
0D0
076
050
0E3
7F1
043
085
7CE
6B5
5FE
645
697
71F
77F
741
764
0E5
040
027
060
04E
01E
7E8
05D
034
000
04B
05B
07A
07C
051
06F
09A
02B
066
04B
7F2
79D
76F
78B
7EC
667
5E2
76A
018
044
002
0BD
04F
00F
015
03C
054
018
027
03E
040
02E
7F6
7F3
7F1
038
7E3
018
7F3
7B1
797
735
72C
70F
6C3
6F9
006
7F6
04E
034
013
054
075
041
02D
05A
056
054
054
0B0
099
0DD
057
048
089
001
7FD
7BD
752
783
753
030
7AD
033
0A4
00D
026
045
008
026
7E8
03C
050
03D
0CB
0A9
0E5
0B1
0C4
0C2
016
7F0
01B
7D7
000
79E
023
7A4
7B8
7DF
034
035
069
073
0D5
016
08B
020
06B
041
020
076
06F
07C
070
062
0AC
03B
046
016
7EE
7DE
7C3
05B
7F0
704
7A4
7D9
774
02B
0B0
079
01D
036
011
7FC
7EF
009
002
03B
7BB
7BB
7CD
7F6
7F2
7E3
042
03F
038
075
057
015
7A4
7DA
7D8
7F7
7FD
743
08F
014
041
00B
02A
00D
7F8
7F5
7D3
7E0
7BC
79E
7E0
028
7A4
7F9
7EB
020
019
039
041
02D
7FC
012
7E5
002
030
045
0A4
005
7B9
7ED
7EE
7E5
7F9
03C
017
7E5
7DD
7BC
7C1
00D
7FB
7E1
01F
042
00D
7F1
7AB
7C6
003
7D1
75F
023
7D0
04D
09E
020
7CF
010
00B
7ED
7F6
7CD
7F8
7C4
7DF
7C0
7C5
01C
7C5
004
7C3
7E1
7C0
797
7B2
7A4
7E3
7C5
7CB
7B9
7A5
77A
7E2
7CE
741
7CB
007
777
7F2
7E5
7BA
031
7C9
00D
7F8
7DF
016
005
7F0
7E5
7FE
7D8
7C8
7CB
7F6
7EF
007
7BE
7DE
710
03A
025
7C6
7E5
011
7F1
7D7
000
017
7AC
01B
00C
00B
7C3
7BF
7E7
006
7F1
020
02C
029
00C
7D6
7BD
798
0C5
00E
768
01A
018
7A1
795
02A
7D4
025
7E6
7CB
001
7ED
014
7CB
01A
7C0
7E9
7E0
7EE
7E5
7FD
02B
7FF
7FA
7E6
049
03C
028
772
008
0B6
7B9
7B0
7E6
002
044
039
7F5
79B
7A5
7CD
7C5
7EE
7C2
7D3
01D
02D
034
039
00D
02C
08A
7F8
7F6
13C
021
7BE
0C8
05F
7BF
7F5
034
7DB
056
02A
7CD
7C0
7BA
7FB
7A6
7CA
7DF
7D4
7B7
7F2
034
00F
043
002
000
7DD
79C
036
7D5
7B0
067
079
7D1
72C
792
7FA
7DF
7FC
000
7B8
7E7
7EA
7C9
781
7A4
7D0
013
00B
048
073
003
7D8
08E
7F0
7EA
02A
7DF
069
040
041
77A
7C5
015
7D6
048
085
044
024
031
7F7
00B
071
021
026
00A
7EA
015
005
7E2
011
7D2
7D1
799
01D
7FA
07D
0E1
0EA
01F
03C
031
007
791
03A
026
079
04B
014
062
067
004
015
007
015
792
7C0
033
016
7AA
005
7EB
01F
008
7E9
0A5
10E
0E2
7F6
05F
033
7F7
04F
091
099
02B
01B
037
04A
057
068
03C
032
7EC
052
7AF
014
02B
7F0
00C
74A
030
0D0
7B2
06A
0F9
037
08B
7E1
79C
74C
004
7F3
050
053
009
025
027
00D
007
001
025
7C7
7BA
7BF
005
001
08B
75C
799
004
7B1
07B
100
0DE
033
014
788
798
7C5
7DC
02D
7DC
7B6
7F1
793
06F
7DC
02E
01D
01E
0B4
06A
09F
078
0B4
0E2
0D0
7F8
