7FE
7FB
088
0A6
10E
162
0E3
1EA
157
105
004
6DD
773
6FF
704
795
727
6DA
7BA
7F0
763
724
04F
02C
7AF
05D
7F0
023
7B8
7E0
0D3
0E0
102
098
048
1D2
06E
07B
7CF
730
6C0
670
63C
651
676
69E
715
6E3
00F
7B9
766
737
6FF
709
7D0
7E8
0C5
0BB
02C
0DA
0B7
020
7F7
074
6F1
687
72D
623
5F1
628
5F9
6F1
6B8
6EE
71C
035
6B8
682
711
6F8
794
7B6
00C
05B
77E
7E2
7AE
7E0
739
79D
07B
7EB
6C2
5AB
685
529
55A
627
5A6
6DD
6BB
606
5D8
66B
5A2
674
741
73F
782
7FA
7F2
7DD
770
76D
056
727
6CF
76A
798
021
6E4
670
5B0
68D
64E
63B
653
652
6DF
630
5A9
660
71F
704
7F0
078
094
0A2
06F
090
791
714
76B
77F
7A1
6C0
74E
6E4
774
753
6E0
6CD
6B3
706
701
73A
716
746
7BE
7D2
078
07D
076
09A
067
03F
042
015
7AA
775
78D
7EF
764
705
656
704
7B9
7F8
73B
7A7
794
7CF
76B
03A
042
076
025
047
080
068
07B
09A
05D
079
09C
090
776
739
7B2
046
039
776
788
782
7B6
7A9
77C
75B
793
7F1
069
062
06C
08A
069
08D
027
06D
7F7
7BA
7EB
7FA
7CD
0A7
782
7FC
03C
02D
777
067
785
786
785
7E5
7C0
7FC
006
07A
079
07C
07C
067
092
046
050
078
015
04C
061
074
035
04C
768
7BD
04A
03D
059
7DF
79F
038
7BB
7D1
009
045
048
0B9
0A0
0A9
074
092
04D
0CB
08E
021
092
04F
008
06C
0A7
107
0A2
006
7EB
018
024
027
7F6
005
049
079
05B
0B6
08E
095
0E7
07B
0BD
045
059
7DC
049
00C
7D9
046
7FE
7D6
0BB
049
00B
7F2
04F
7B6
010
7C6
019
00B
064
05F
06A
0A3
087
052
097
089
7EA
7F8
7D7
768
7D5
013
773
7D8
7C2
7F3
002
091
043
09F
075
006
062
080
05A
07F
025
07A
0D1
090
0ED
0D5
083
011
7F4
7D0
787
70C
707
707
753
75D
740
7EE
073
02F
097
0CD
00A
007
08E
7FF
010
039
002
08B
060
05B
0C0
046
7C0
74B
770
766
777
723
72F
762
744
744
6E6
763
042
023
042
7C5
092
02C
7E2
7EA
7F5
7E8
7E5
00E
017
007
7D9
6F4
739
762
7B6
7AB
7BC
75D
7AF
7AC
791
78B
748
7FB
7F8
7C3
027
00C
7F0
7F9
02F
7FC
015
040
026
00C
7B8
7CE
78F
71C
7D1
797
014
004
7B9
7F5
767
79D
7F9
037
7CD
7D7
7E1
7F2
001
7ED
78F
05B
7B7
007
063
07B
042
7B4
7B2
785
7DC
789
7FF
7E4
031
01A
7E1
7F8
7A9
043
079
06A
77A
7F3
003
05D
7CE
7F0
7C5
01C
7DD
022
064
029
051
03F
776
752
7BA
7FA
79B
7E5
019
7E7
7F1
7F8
006
059
070
0B2
03A
000
79E
01B
78B
7DF
023
7E1
79C
7BF
022
039
015
01F
7DC
778
7B1
7A4
7C8
7E3
7CB
7DE
02B
02C
00B
055
051
077
01B
7E0
01F
03F
6FD
7B2
7D5
029
7F4
029
007
037
029
034
756
7C1
7C8
7BA
7EF
7E0
7B8
019
7F7
7FD
057
07A
052
7FC
019
069
04A
04A
6CD
003
7F3
067
7DD
7F1
771
008
7FD
01B
7B4
7BC
7B7
793
7C2
79C
7FD
7E8
7DA
7F7
00D
07E
030
03C
010
786
03E
76B
679
076
03C
066
7E7
7FD
03D
043
00B
7B2
7BF
7D1
019
010
007
7E6
7B5
005
02F
041
022
01F
023
04C
05F
023
773
7E2
703
0BB
093
7EE
7DA
01F
7E6
7EB
013
006
049
009
7DB
7E8
009
010
7C3
7EC
7FB
05F
042
066
7D4
0A4
0A8
077
04F
7E4
7C6
04B
04F
7CB
799
782
7EB
7D1
01D
7B1
7C4
033
7D5
7CE
79A
7F4
7E8
016
022
013
028
06F
03C
051
09D
0CD
7DC
080
74F
012
070
79B
038
7B1
748
7F6
039
03B
06D
7FE
7EA
032
7DD
7CF
029
04F
022
05C
057
033
0CE
7B0
099
046
07C
092
7B8
7CF
7D5
7CB
022
027
7F3
7C9
7E6
00D
009
7E5
023
7FB
070
027
039
018
00B
025
015
090
79F
04F
05C
115
0CE
77F
7C1
007
01F
056
01F
030
01D
7B9
779
7BB
7AA
78F
00E
058
7F7
7CA
7FA
7CE
7F3
7DF
790
753
78E
78B
01E
0B3
02E
7F6
73D
70D
76C
77A
02D
7C8
046
05D
00A
7F8
7A1
759
7DE
7E7
7FD
028
01C
7BF
7D4
02C
06F
792
7D1
7CE
05B
76B
776
000
