7E0
017
7CB
7E9
7EC
79C
7C6
750
7AA
79E
760
760
75C
716
7E9
7F0
0AC
055
122
081
06A
7C4
7EA
695
72A
782
00C
7C9
004
017
78B
7F0
078
043
6C2
7E3
763
7A5
7D9
7B0
7E5
773
7B6
7CA
7E5
01E
7DC
0A7
090
7CF
7CA
783
724
6C2
6D4
760
047
01E
021
0FD
0B4
0FA
13D
09E
11A
0A4
13F
06F
08C
076
013
084
7AF
028
03B
024
7D6
7A8
7B7
09A
7AA
75C
636
6D2
094
7CA
047
0BB
0D4
07A
10B
0E4
0E0
0FC
05B
07F
015
022
030
035
017
005
034
045
035
00C
093
007
083
02C
744
672
037
79D
7F8
083
0CD
0CF
13E
096
7FA
030
032
7DA
7F9
022
7AF
008
014
060
0A5
0D7
08C
07B
0FA
14C
0EA
7A0
734
5B4
7F7
00F
77D
060
0FF
082
01B
7FE
00F
7DB
7B4
021
7E1
732
7A4
010
7B2
053
074
0E1
0B8
0C5
0E2
0AC
003
018
66A
5FC
009
0C3
00C
078
7ED
7C3
7C5
794
7DD
7C5
7E6
77D
78C
793
7CC
009
7C8
028
08F
0B4
01A
7EA
039
098
012
7A2
663
661
78D
7AD
7D3
7A3
7D9
77F
7BF
6D1
6B1
774
7E0
7E7
7C1
01D
043
7C1
797
00C
7CF
00C
079
012
03C
03D
003
710
633
731
015
67C
6F5
62B
673
7D2
686
736
728
6F8
78C
793
019
00B
057
034
04B
03D
7F7
01D
7E0
06C
023
02C
7CB
618
65C
738
6EB
614
6A7
648
67F
61A
6F0
75F
722
750
7DF
02B
7E0
03C
02F
021
05E
018
00C
033
06F
0AD
041
755
727
683
6F4
7BB
086
6A1
6D3
716
6DC
729
005
011
006
014
034
7CF
01A
043
003
001
02B
051
089
066
083
0DA
069
72E
6CA
709
065
0F0
77E
78A
78A
7EF
7FA
077
04B
0D4
7FF
026
7FD
789
7BD
7EB
7B1
7FD
062
0A1
0A6
0EF
123
182
013
656
71F
017
0A7
0C6
0A3
0C5
029
7FB
05F
0BE
077
085
075
7FC
7DD
7D8
7C7
7AC
79F
0C3
0EC
097
0AB
0C2
07D
08E
049
732
789
060
0F2
0A3
063
07B
07E
0B3
0F3
0B1
09D
050
7FC
799
7F0
011
796
7F4
0A1
04E
08D
0A2
060
03A
075
042
7F2
756
024
0F9
0B4
7F5
139
05D
0A8
0CF
096
080
0A7
000
04B
017
794
754
703
7D9
06D
0D8
023
044
051
047
059
7DB
001
7AB
07E
04C
040
003
0C5
0DC
020
0C1
0F6
78E
7F0
7B0
7D7
7E1
706
671
6E5
715
0D9
0EF
7F6
7EF
01D
082
7DA
041
7BA
7E6
0F3
043
028
054
050
0C8
017
771
054
7C3
787
70E
760
6C0
6C5
67C
67F
7C9
0E2
031
79D
014
025
043
02D
7DE
7E0
035
08F
032
7D4
010
030
005
72D
74C
796
6FD
6FE
6DF
6C3
680
693
69F
6BA
7EC
072
0CC
020
7FB
00F
067
00B
7F5
04E
036
7CF
7FF
7D6
024
7AC
78F
6CF
6D0
724
6D6
6DC
6C9
6EF
747
741
6FC
7C7
7DD
0C7
009
000
013
7F8
7FF
080
01A
7F7
018
7F0
7E9
7ED
030
78D
741
704
6D3
6B8
6F2
67F
6EC
75C
7CF
773
763
7E5
074
020
045
056
008
7FF
7FC
7AE
787
7F3
051
01A
795
765
7A6
78C
6A7
6B1
6F2
717
7A9
7A9
7E3
77D
7DF
7B3
7B8
05C
084
049
012
03A
034
032
005
07A
7F1
048
7F4
08E
746
784
737
794
727
674
66E
753
001
7C8
7D4
7D4
7CA
00D
7EE
087
06C
7F7
006
056
074
064
062
04D
05C
069
021
023
73C
79F
049
062
797
6D9
6B1
7D4
7DF
01B
761
7D9
7D4
012
056
02F
044
009
038
024
7FF
7BD
09F
090
008
7E0
0A6
05A
041
7AC
71F
0DF
084
7D2
7B8
7AC
7A6
001
7DB
002
7E8
7EC
07B
014
775
7D8
7FC
041
070
00A
023
06B
7E4
036
041
7EE
014
75F
777
191
0CD
065
002
7F0
01B
004
03F
7E2
017
045
7F4
021
00C
010
015
7EB
083
064
077
0B9
0B6
098
00C
04A
0B7
797
778
107
0F7
0A9
7FA
02D
02B
7A6
7A1
7AD
75A
001
02F
071
020
02B
012
034
7FC
01D
7A9
082
7E9
07E
7FE
069
05E
008
042
05C
7E9
7AB
016
02A
033
033
03D
7BE
04E
7CE
018
065
045
043
000
7FA
7E6
7FF
7E3
098
02A
050
0B2
00F
7F5
020
00C
7C5
0DA
780
000
7D1
7EB
79A
7DC
7E4
025
7B0
7E8
054
00B
7F9
0AB
7C8
06F
059
7D3
081
066
147
0CE
7AE
082
050
017
