017
7DF
7DE
7D0
7E1
018
7B6
73E
08E
022
12A
06D
0F1
068
7A8
044
78A
025
7C8
09A
785
114
0AD
7A2
0C5
056
728
7A5
7E7
021
059
074
03E
791
019
7E7
7F0
7EF
091
7DA
7BC
022
7A6
05F
001
0B4
071
0D7
0A8
0B5
024
004
105
029
097
029
072
074
7E1
01D
7F3
033
009
0A5
0FE
051
063
093
131
0F7
07A
0C2
075
03E
7C1
030
020
00C
102
05B
0EA
031
021
0CD
0A8
055
753
084
7B2
009
00C
012
04F
7E4
7CA
003
00A
057
09A
008
033
7D9
7D8
0B5
7FD
02E
0AD
095
02A
06C
016
787
0C7
7D0
7F3
758
799
6D1
7D4
7DE
761
789
784
764
75C
7A8
7A4
771
7DC
7A6
039
014
7E4
7F7
068
01A
7CC
0B7
0A3
7FD
7FB
7DB
7B2
7EC
7A6
772
7A9
776
74F
744
79C
796
77B
799
7A4
7BE
7B1
7D0
025
7F3
7D9
7B1
7F7
7E1
00B
00D
7E7
034
007
7D4
7DD
787
785
72F
77A
794
7B2
009
7AE
7C4
7EF
01D
7F5
05A
7F0
7CD
7C8
7ED
7F5
7CE
7EB
78A
7EC
7BB
053
0C9
088
094
7E1
7D5
778
79A
7A9
79F
7E5
7FA
061
015
08B
0AB
027
03E
03F
068
7E9
7F4
008
79F
021
7FE
06C
033
04A
0D1
0E6
07D
076
00A
7E5
01B
7EB
01B
0A6
08F
09B
03A
05B
031
7F8
064
020
02C
7BE
021
7FA
008
05E
048
060
0BC
095
7FB
090
041
0BB
06A
0EC
01C
0D9
132
0C5
0B7
0D8
038
7A9
7C2
76D
7ED
7F3
7E9
7F0
02E
7DF
03D
02F
04A
088
064
7FD
75A
05E
056
0AC
0B7
08A
0FE
115
0B5
09A
052
0B3
015
051
7BE
7A7
774
009
013
065
046
040
07C
052
03D
077
059
6F7
68B
7DC
004
0A3
0B8
0AA
0F6
0E4
063
7D0
06E
01F
042
01F
7E2
7BC
7CC
7F8
03D
079
072
024
037
04B
06B
046
798
7EA
690
12B
00D
02E
00D
09E
070
010
7BD
7A1
7A8
765
6EF
6E7
729
6B1
7BA
037
7E7
04B
03A
020
002
03B
017
771
651
5E9
6C0
7AB
7B9
7B7
7F7
012
751
6C2
671
620
54A
52C
5C7
69B
71D
74F
799
7BE
02E
03F
002
029
7EA
00D
79E
6E3
522
4F0
6F4
774
7C4
79C
71E
72D
645
5DD
530
473
522
645
70F
794
785
7FB
7DE
030
06F
7D7
009
7F1
00D
765
74E
60D
69F
65D
7B2
78D
728
691
62D
538
568
550
58D
697
7B3
025
007
7F7
025
7CE
01F
023
05F
000
01E
7AD
7C6
70B
766
7A1
747
7A1
7DE
72D
684
509
4BF
4C3
668
738
7E6
066
050
06C
7EC
020
022
020
7E1
001
004
02F
7DD
7E5
7B7
7F2
0B8
047
044
0DF
0BA
743
594
513
539
60A
748
007
063
0A4
054
081
7DF
7CB
001
020
059
063
041
028
012
7FC
7C6
01C
7E3
0EB
0F1
03A
09F
7E9
550
4F5
5A5
78F
7F0
037
01C
05B
063
055
000
7CF
7EF
7F6
02B
027
7CB
7F3
000
03D
023
007
00A
003
075
086
130
003
6BA
685
712
7CE
037
03D
055
0A2
02A
063
7F6
024
03D
7A6
05A
7E1
063
7F2
03F
01E
048
061
05C
7AB
088
7CC
064
107
749
766
7E7
030
047
017
00D
7E5
00D
7E2
011
071
00C
051
006
03B
030
07E
059
7EC
06D
04E
05E
007
048
032
7EA
1B9
061
026
09B
0CE
064
052
043
05F
047
018
008
015
00A
011
063
7CC
02B
020
066
054
030
082
05F
75D
7A5
04C
05F
161
126
100
0AE
083
068
7FD
016
7D8
00A
036
7D3
016
797
008
02E
029
7D7
7E7
03E
028
7D7
7E1
01C
790
7FA
7DA
049
13A
137
0BD
0CD
0B8
002
069
04B
030
7BC
01D
7D8
7E6
007
79A
7CF
7D8
001
7B8
003
048
002
018
7D4
7AB
785
73A
016
123
0D1
038
0A0
0C3
057
07D
00C
055
039
047
7F6
7F0
058
01C
04F
03B
024
01B
03C
063
015
03C
7CE
002
790
75B
7A5
0AE
0F4
126
132
12B
08B
02B
05E
021
011
7F6
7C3
002
7EC
7F1
7F3
01C
004
7D4
09D
00A
7DF
066
061
780
7A1
014
074
7BD
78B
7B9
00D
040
00E
017
03C
014
01C
01C
01B
057
7E1
7CD
003
00E
7AD
79D
7C5
7E9
048
0A8
7D9
77A
74F
04E
7F0
79E
054
75A
78E
025
06D
04A
034
7A9
7EF
083
05F
0AC
03A
099
09F
064
7A2
7B6
734
718
7AE
766
784
77A
7EC
082
021
