7F9
7F3
02C
029
06E
03A
092
0D9
102
14B
147
11F
067
7E7
070
067
7BF
0D5
061
046
0AB
0F3
09A
080
0D9
054
05F
03E
03D
7DD
7CC
7DD
01E
072
12F
122
194
0F5
0B0
0C3
056
10B
0AB
0AA
09D
0FB
0C0
0CE
0EC
106
12E
094
0E3
0F1
0EC
0B2
0C2
7DA
012
798
7F9
076
050
016
062
03C
7B9
7A9
7DF
016
06B
064
7C0
03B
120
009
051
062
0D4
04A
0E0
059
07E
048
79D
7BD
7EB
024
012
7B3
7A9
02D
7DD
752
763
016
01E
7F1
03E
034
012
030
08A
06D
060
065
056
095
085
0DA
085
7CB
7E5
791
7AF
7FB
7EF
76D
779
7DA
78B
7AE
00D
7E6
7F1
7FF
025
7D0
052
7F9
006
026
016
054
038
06C
01C
096
038
06F
754
79A
7D9
7E7
785
7B2
794
76B
7AE
026
7BF
7DE
7D5
7A2
7C1
7D1
7AD
036
020
000
006
7E5
051
027
027
057
093
0A2
7C5
745
00F
7CD
75E
7AC
020
027
7AF
7E6
7FA
79C
023
041
013
7F8
011
014
7F2
7E8
04A
03B
057
02F
029
071
023
05E
009
786
7D6
7AB
7DC
7CF
7B4
7EB
7B0
7EB
7B3
7B8
7A6
785
782
7C7
7B8
009
7BE
00F
7B5
7EB
014
7E4
031
008
039
04F
018
773
7C3
795
00B
006
7BB
7E7
7B2
7FE
794
79E
76F
7BE
785
7E5
7C5
7B7
7AC
7D5
7C6
004
03B
7C4
789
7AD
791
054
7A4
7C6
00C
7E2
7D5
7B7
7AF
7CA
78B
79E
7B0
7D3
7FA
7BA
7D5
7CD
7EC
782
780
00D
7E6
7E3
014
022
7D4
7B3
7CA
062
030
006
001
7E3
7B2
7E1
779
7CA
7BA
7C3
7CE
7CC
7E2
79A
7B8
7EC
021
77A
083
7A0
012
002
7F2
7E4
035
79E
747
0A9
75D
03F
006
008
028
7B9
78E
02F
793
7B5
007
7A2
7D0
7BC
7C8
7B8
7AB
769
76A
783
7F6
7DC
774
7A5
7E8
7AE
7D9
023
6D3
7D0
7BC
7C4
064
7A7
066
7E2
7B0
7AF
7F1
000
7DE
7EF
02B
7F9
7C8
7AC
7D8
7DC
798
7C9
7A6
74A
749
7F8
71E
7BF
7B0
72F
005
048
7D0
03B
038
00D
01F
000
7D1
7EC
7DA
01D
7D1
79A
7BD
001
7A1
7D3
75B
78D
72F
766
7B2
7E1
75F
7BA
08C
068
7D3
03F
7C4
7CB
78C
7DF
02B
7A2
01F
7AF
7B4
013
7DB
79D
794
003
794
7C9
7B1
792
77F
777
75C
7A7
770
7F9
066
067
79F
000
7D5
047
019
011
057
7F2
005
7DB
7F8
04B
7F4
7E7
7F3
782
7A9
7AA
777
773
7B6
75B
71C
789
028
034
061
064
7CE
7B9
6E9
786
765
7FC
7B6
025
7C1
7E4
7BD
008
7A0
7B8
76C
7BD
7F0
7B2
77A
791
788
009
7B9
7DC
7B7
047
749
794
042
0C6
0C2
033
027
788
7C8
065
007
7E7
785
022
032
7E3
7C7
7B1
7FA
7F3
7C8
04D
009
0B1
068
10B
111
0A4
058
060
0EE
243
344
24E
105
7C2
754
7BB
7F3
7B7
021
7B4
02B
032
05A
075
098
0CA
0B9
10E
135
11E
10E
196
192
0CB
180
0E7
1D5
343
393
1B5
1DF
10F
7EE
03A
061
7F0
042
07A
0B1
12E
148
0DE
0F2
151
14A
180
0CE
1BF
1CF
186
1DD
0C0
165
14E
2C2
337
0B1
0A6
0BA
17E
186
0D3
147
1B3
132
188
147
125
14B
144
1A5
131
165
16D
132
1A8
132
0B7
0E9
7F5
007
0BA
215
14F
04A
09E
0D4
0B6
0FA
0E4
0E7
0F4
0F3
0EC
0EE
0E8
0E2
0F1
0CC
105
0D2
077
0DE
0A2
065
06C
076
00E
085
7E7
7CB
022
01E
05C
09F
0AD
0BD
025
05F
077
09F
078
07C
054
073
061
0B7
031
077
049
053
06C
036
05F
7DE
092
03E
793
7B2
7FB
7EF
0AC
00A
057
008
090
004
052
063
036
7E1
005
023
7E9
00A
790
016
7B9
009
055
79E
7B6
7B0
08A
074
04A
7B7
029
020
0FF
101
080
0E6
0B7
0C2
0D0
038
048
052
7E8
020
7BB
7FB
010
02B
044
033
005
006
7B1
01D
047
7F4
78D
7C2
05A
059
01D
055
0FA
16C
125
0E4
0CC
05E
022
0AC
091
034
051
043
0B2
020
7E5
7D5
0AD
704
7C1
7DF
7E8
01B
781
756
72D
00E
0D7
138
16B
199
186
0A6
0C4
0C8
09C
099
0B1
049
7D5
061
064
039
0AA
7F9
7D3
760
08C
042
7E1
0A2
6F6
721
795
7EE
0D6
1F4
049
140
0FC
0D4
05A
0E9
00D
073
065
038
02B
00F
039
04A
05C
7CF
7A4
7DB
095
7DD
7FE
