7F9
00F
04B
79C
7CD
7C2
085
749
7E0
006
7B7
7D1
016
06E
156
14F
0FC
095
06A
067
08D
0B6
15B
0B3
03A
0AA
110
0AC
0CA
7F9
021
798
7F8
013
7FE
7B7
76B
7A5
6D3
788
057
03D
13F
131
0FC
074
066
003
020
055
09D
017
0BC
01D
091
050
7C9
7BA
079
040
706
71C
6CF
6EA
6E7
6E3
71C
79F
733
71A
7FB
7DB
006
07A
06C
7E4
7C4
781
778
7B7
79D
063
7B4
09A
7C9
756
010
68D
746
6F6
655
654
74E
64C
76E
66A
668
798
777
7DC
081
034
05B
05A
7FB
04C
008
7D8
026
02E
7E8
7FD
740
777
6FA
680
6C4
643
64A
650
532
60D
653
6F7
7D0
7B0
7B4
792
030
04D
0C1
06D
037
008
06A
7DB
01D
7AC
040
7F5
6FE
7BA
731
786
762
6B8
77C
5B3
4C9
666
7EE
0B4
0BA
000
7C5
01D
017
06F
0B3
089
006
7E9
002
7C3
79A
785
79F
7D8
6F1
79D
004
7D2
63A
618
52A
4AE
6CF
068
087
0A3
06A
7D6
7F7
017
019
065
04D
01F
023
7A9
7F3
7E8
7BC
7B4
7C5
002
764
6F4
7E0
73E
74B
4CB
458
6DB
7BE
05A
05C
05D
068
045
7E9
7EE
7D4
0D1
06A
060
012
05B
002
7B5
7B9
006
7EF
7E4
766
7F3
78C
6DD
56D
7AF
69E
7B6
7F4
7E0
7DA
04F
7EF
033
7C9
7DB
7E3
016
7FA
7DC
01A
7F0
7C8
7F3
014
74D
057
034
71E
7B4
719
617
592
647
771
00A
7F1
7CA
7D3
038
7C0
7B0
755
00E
018
026
7F1
7D1
7E1
7ED
7D2
003
01A
7E7
024
117
05F
728
704
6B3
742
688
7A0
029
024
023
01A
7EC
7E7
7F5
01E
7F5
05B
025
024
040
7E0
008
00F
7D6
7E8
7DD
112
13B
6FE
703
706
663
6A8
770
038
01D
011
7DD
019
7DE
036
7FE
031
01A
029
023
034
001
7E6
7E7
7C2
7DF
7F9
063
04B
092
6FC
695
601
733
023
7A3
7D5
7F1
7CB
011
027
006
004
01B
00E
028
7E6
011
021
7C3
01E
7AE
7B1
7B9
7E8
7D5
072
042
7A0
69B
5D4
68D
7A1
012
035
035
012
012
019
083
008
020
01B
03C
009
039
7E4
7CF
7F0
7BD
794
767
783
7E6
7CE
77C
69D
764
6E9
655
764
7FB
0D6
054
024
04E
00C
054
01C
01F
04F
7EC
7E7
00C
013
006
7F4
019
013
7BC
7DD
012
78E
7A3
6AB
7AB
693
6E2
765
7E4
01B
07B
00B
7F7
01E
05E
052
047
04A
051
066
04B
033
053
0A2
084
01D
048
03C
055
008
068
6D0
6AE
75A
780
760
766
7BA
7B9
002
7D8
7E7
046
0CA
091
042
008
046
01D
0AC
020
116
104
09C
0E4
029
0CF
09A
005
62E
6CB
7CD
7A9
772
74B
7CE
791
7EB
7FA
7BE
01B
063
037
04F
052
053
030
06C
047
07A
0F4
06F
0AC
0AA
05A
0A4
007
5E8
70C
7BA
7A6
7EA
7F4
007
006
7FB
010
00A
036
023
025
03E
045
043
037
045
7C4
05C
002
071
047
028
04F
0A9
016
576
6B5
74E
6E9
042
017
7DC
02D
7FD
7F3
04D
045
7C3
7DE
02A
00A
026
025
7B5
7B4
007
04F
04E
02E
06F
07E
024
083
5BC
760
75E
744
7E3
07E
007
002
063
054
005
01B
7C9
7E9
016
7CE
7DE
7EE
7CD
7E6
005
7BA
7DD
7FF
052
01C
03E
0B5
6BC
7A9
7B1
768
038
036
056
000
039
045
062
086
7DA
7C9
7ED
7E5
7A5
7C3
7AB
7FC
01A
035
034
025
7BC
7DB
0F4
0A5
764
7D6
7CA
7A6
7EE
07E
058
02E
035
02B
058
02A
7D4
7DE
7E5
022
7CE
7C2
78C
039
7EF
7E7
022
7F1
053
0AA
118
032
79D
7B0
7D7
7A9
7FB
003
014
7C9
04C
02A
7F9
022
01B
017
015
012
014
04A
001
010
07F
069
086
07F
09C
0EA
0E7
7D0
7E8
773
7F7
7FA
7C0
7DD
7F4
7F4
7E4
7C1
04B
7FA
013
013
7E0
02B
00A
02A
7B0
7C6
02B
772
004
7B7
7AB
7D1
7D4
050
7AB
780
799
7B7
775
786
7D9
7A8
008
7D5
02A
015
7DD
7FC
7E5
7F6
007
015
7EA
7BB
028
7AD
767
6E8
7E9
6E2
717
7C8
74D
01D
7DA
770
004
7A2
009
7D1
7EE
7CD
7C8
016
7DC
01E
019
7C5
000
7D6
01A
016
7CE
769
787
70E
04B
703
755
7DD
7B2
6B9
06D
793
7C2
78E
7FB
7F8
7F9
7DE
7BB
7EB
7DC
7CB
7AD
014
786
7EB
043
012
7D5
758
044
019
7F9
763
7CE
003
