7F3
7E2
046
064
10D
0ED
171
1A7
146
121
065
0AA
7BB
7E9
00B
01E
79E
764
756
7B0
053
016
07B
064
01E
7B0
041
7E7
029
7F2
078
0C4
187
16E
09C
127
0F5
021
01D
030
040
029
79B
7B3
754
721
6D5
67C
6FD
785
7AF
7C1
7DE
7BF
7E0
7EE
047
06B
0AB
096
01F
7BE
7D7
01C
760
7DE
7C9
790
79B
7B9
7BC
7C5
7BD
74B
667
010
61E
676
6CB
680
6D5
6DF
6D5
739
7B7
7D3
7A5
0F9
75A
7F1
7E4
7C0
7EA
7C9
75B
7B2
7BC
76F
76D
759
770
784
76E
704
6BB
733
6FB
6AC
663
5F9
64C
622
7DA
7EB
014
7A5
055
018
014
024
771
7AE
7E4
004
046
777
001
7D4
771
7C0
7B4
75D
77F
7EB
754
007
708
5A8
5E0
63B
028
04C
019
7DB
7F0
008
008
7C3
7F6
033
033
00A
023
7C7
79B
78A
76F
7B4
740
751
748
787
701
713
5F2
639
56A
55A
00D
7AE
7C9
7B2
7EB
78F
001
7FC
050
041
040
00B
7AD
798
018
027
7DD
002
001
7FC
79F
775
72D
6A6
667
557
5A9
5AD
002
013
7BA
7B2
7CE
776
7CD
7D2
7F1
02B
7A0
738
790
7DD
02E
01D
02E
03B
03D
054
003
793
7A0
715
68D
50F
568
64A
037
028
78A
7E6
784
7D0
037
02C
04C
78F
763
75F
7C4
7CA
01C
00D
00D
016
7E6
04C
7F4
7C2
010
7AE
644
417
552
605
040
06E
7BA
007
7A3
7F7
023
7F9
03D
7AC
70F
7B4
023
7EC
034
068
04D
06B
040
099
021
01A
7BD
791
5EE
530
590
647
04A
0B0
7EF
00E
00B
7F4
021
00B
7FB
733
77A
7CC
7CC
78D
023
07B
057
044
079
01F
7FF
7EF
7A4
703
616
55D
6B3
6E2
098
7FA
028
7E9
793
7AD
769
01E
7F0
7B8
7DD
798
78F
7A0
789
7FA
01D
007
00B
0A9
7BC
089
02C
706
6DF
620
74A
6E3
0C6
7C2
027
028
038
7DB
023
7B9
001
790
7D5
7EE
7A9
7BF
037
7D6
7E9
042
7F1
036
789
02B
04D
7E5
68F
6D5
6EA
781
0FD
050
027
011
02C
011
77D
7B2
7BF
766
7C7
7C4
7BE
7F2
028
7A5
7E1
7C1
059
7E7
757
041
008
740
6A6
68A
6F1
045
7B8
784
06A
075
012
0B3
012
010
7A4
790
783
7F0
000
032
00A
00F
7E9
7EC
021
021
7A4
028
79A
777
66F
72F
7E7
082
049
04A
095
0A9
00E
08A
0D6
7E5
032
05B
007
00E
018
02B
036
7F4
7C3
7E6
03B
06F
02F
058
7FA
7CB
704
7E3
069
092
0F3
00A
7D8
044
031
053
055
0D1
084
018
06B
05E
007
02B
02F
7F6
79E
7EA
00E
018
7DD
05F
069
7E0
081
7F9
0CF
059
054
099
04F
046
02D
055
0A3
0AA
07E
040
048
069
7FF
7FE
02E
7B4
7DA
000
043
02B
03F
0B1
044
052
040
7B2
01E
095
078
0B6
07E
075
064
03D
06B
073
062
053
094
01E
000
7FE
014
7E1
7CB
00F
7BF
7B6
077
05A
04D
0A0
017
7CF
052
107
7B2
09D
076
080
087
042
045
06C
08A
0C7
0B7
06B
037
059
02D
7FC
7CB
7F6
7FF
026
7DB
069
7DD
0DD
08C
013
790
05E
02A
09B
7EC
026
015
073
067
092
0E4
102
096
07C
0C7
09D
04C
031
087
06B
08D
06F
016
05C
024
021
10C
03C
00F
053
784
7CC
7EE
7D2
7F7
00E
023
0A4
07C
05C
04C
06D
05C
05C
089
0A4
0AB
09E
0AB
071
0B2
073
04C
05A
134
0FD
0E3
020
720
7A5
76E
794
00C
7B1
023
01B
012
03A
095
00C
05D
06E
092
0A3
0AD
042
042
082
090
072
7B2
078
172
11D
06C
707
66B
714
74E
79C
02A
7EE
009
013
7C7
7BE
7C6
790
7B7
002
03E
06E
015
099
067
02C
0BE
02A
7AC
0DB
228
1F1
05D
77A
73F
7F2
7B9
024
008
7B5
7EC
7D1
79D
7A6
01B
78E
7C5
037
779
7CC
7F4
7FF
02F
032
045
014
781
036
203
152
096
762
02C
046
06F
0B2
036
01E
7D0
722
78D
787
7DC
7A4
7F2
7FC
79F
016
76B
7E6
760
778
76F
727
7AB
0A9
0EE
088
009
09C
7AE
7FC
7B2
005
7DB
7BA
7DA
795
762
7A9
75D
7BD
7C1
7C0
7AF
75D
7EB
732
733
70A
733
752
73C
06E
09A
012
7F7
024
74E
04C
00A
754
748
005
789
729
724
6F2
74D
7A5
7A4
7B3
769
049
767
795
796
7A4
78F
7FE
745
7CE
0DA
0C7
0BD
01D
