000
7F1
087
0AD
101
079
12A
0F8
047
115
0DC
0CC
11C
0D2
05C
0A7
0DB
033
765
736
742
003
041
0C3
06C
11E
112
0CB
0B7
010
0B1
148
0F8
0D1
040
108
0F8
0CE
0C5
05E
0BB
06F
04F
7F2
762
772
716
6F7
78B
777
768
009
78A
0C0
0BC
066
761
07C
7D4
01A
073
036
02A
021
03E
070
7D7
77B
7E7
7BE
75A
795
74D
6E5
69D
01C
7A1
025
04F
7E8
77A
7C0
04F
04B
759
6ED
7F4
054
790
7F6
7F3
7A9
015
7CE
7C8
798
77E
7A6
79D
7D9
71A
740
6CF
788
7F0
00C
032
036
7EC
7CA
00E
7F2
025
73D
766
7CD
004
792
001
7B6
7AD
059
797
001
7C8
023
7D2
79A
7BE
702
6EA
764
043
7B9
01B
01E
073
054
01A
7A0
08D
011
019
013
006
7B2
7F4
7E8
7E5
7F7
782
78D
7CF
026
77D
7C6
789
766
71A
7DD
049
7E6
7E4
7B1
021
090
062
7C5
001
79D
026
74D
01E
7EC
7A9
79C
7D3
7F7
7CD
7B9
7BC
7E7
7B9
7CC
79A
775
73A
7A7
7FD
7E0
7A2
013
7EE
772
7CA
7B8
053
7FB
7D5
006
7E5
7EF
796
735
78E
7B7
7B9
786
7A5
009
789
7BF
7B9
7BA
75A
7B7
7B9
77E
776
78A
7F8
7A7
01A
04D
7E0
035
7A0
747
795
012
765
78A
797
7DE
79E
7E1
78C
7F4
7DC
7B3
7CA
798
7EE
000
013
7F8
015
785
79D
788
023
7B5
7F6
764
7B4
78D
7C8
7AC
7DD
7BE
774
75E
7D9
7D9
7A9
7F2
7CE
7A0
794
7C2
7C3
7EF
7CA
7CF
7DB
7B2
771
7AA
7C8
020
03D
7A8
00C
7EA
7B8
7EC
7E0
7F3
7DF
7FC
7B6
005
7CA
7AB
7EC
7A7
7C0
7AF
00F
033
049
055
7F6
010
7A0
743
057
13C
00E
773
063
059
02B
00F
02E
03E
008
02B
08F
007
01C
023
04B
7D3
7FE
072
040
09D
0AE
043
0A6
031
7EE
04E
077
0DF
7B1
023
014
04D
054
00A
059
02F
05A
018
795
7F5
7FD
05F
028
068
067
08E
077
0F0
0D6
104
0FF
160
199
0D1
109
09D
029
7E3
056
00C
7C0
01C
04E
030
7FF
02B
028
032
042
09E
058
076
073
0BB
04B
06A
047
096
0F2
108
1AE
0CD
0DF
7C6
0D0
72E
078
05F
025
02B
02A
02D
7FF
03D
036
0A1
07C
02E
091
066
04A
0B4
7F7
7F8
7FC
7FE
046
030
096
04D
062
79B
006
797
7F9
002
7F0
02B
03E
7E6
77D
7D1
092
06A
0AB
05E
087
05E
02A
7FD
00C
7C2
7C1
7D1
74C
7EC
783
030
058
714
7C6
6F1
010
02E
7E9
07A
7CD
793
7CE
7FF
063
0BB
0BF
002
7FA
7F2
7F2
032
01A
7E4
798
79D
763
7C7
7D2
784
797
6F5
724
00A
79A
034
7F7
7FF
010
730
735
7D9
0BA
0ED
029
00C
7EB
01A
040
03F
012
001
7FC
7EE
7BE
746
7A8
7C1
769
72F
00D
7CE
7FC
02B
012
775
7E9
77E
7AF
7E0
05A
098
7DC
7F2
7B5
000
03E
017
7FD
7F8
7CE
7B4
768
71F
7C0
00A
766
6BF
780
7FC
001
024
029
015
00E
7D2
023
087
08E
0A0
029
031
00B
7CD
01D
012
7DA
033
7C8
7A8
7AD
7B6
7F0
7BD
7CD
71D
053
7C5
045
000
00F
7E6
7C6
7DD
05A
7FA
0A0
066
083
03B
029
7F0
02B
040
00B
7B3
7A3
7E2
798
76E
755
74D
78D
784
71F
6D7
0A0
04D
034
7D8
7E9
020
03E
017
01A
06E
0A1
070
052
07B
013
011
028
7F7
7FE
013
721
73A
737
7C7
7B7
024
732
744
7F0
00A
7DB
7D9
78B
79F
7F1
009
000
003
073
03A
06D
05C
7FD
7ED
752
7C1
035
7B2
6E4
74E
787
7EC
062
048
75E
74C
7C9
6F1
742
7F7
01F
7AA
000
017
7C2
051
070
036
01B
020
7FC
7CC
009
031
018
016
687
67B
741
049
798
010
726
6CC
032
74B
73E
062
79D
035
05C
02F
7CC
01C
003
069
05F
011
022
012
008
790
7ED
7EA
6BB
6C2
7C9
7FD
094
771
793
776
79C
7C7
778
75A
780
79D
771
787
7C2
01E
03B
02B
021
02E
03A
7CD
7F1
017
7C9
706
6F2
761
7BE
7B9
075
7FD
7BE
7D4
75F
71D
73D
725
797
763
780
7B6
7CF
045
015
7DF
04E
04A
08D
7ED
02C
7CF
6C4
671
648
762
050
722
7EF
011
798
7E1
6FC
779
74A
7D0
028
794
7E7
7DB
7AA
00F
7EF
014
091
03B
13B
0BD
035
79F
5A6
590
6BB
781
783
74E
7FE
00F
